<unk>	0
<s>	0
</s>	0
<PAD>	0
▁de	-3.18205
s	-3.25575
,	-3.78404
▁e	-4.01846
▁a	-4.08664
▁	-4.12463
▁do	-4.28462
▁em	-4.32863
▁da	-4.35231
r	-4.40968
m	-4.46648
▁para	-4.57537
a	-4.57807
'	-4.73221
▁no	-4.78677
▁'	-4.79552
o	-4.83429
▁na	-4.83568
▁que	-4.84659
▁com	-4.98481
▁diz	-5.00028
▁o	-5.02335
▁é	-5.21719
u	-5.37795
▁A	-5.41555
-	-5.45846
▁por	-5.50437
ção	-5.54292
▁se	-5.617
l	-5.67584
do	-5.76204
▁Rio	-5.79601
da	-5.83869
▁não	-5.85344
▁Brasil	-5.88243
▁ao	-5.91763
pós	-5.93265
ão	-5.93911
▁sobre	-5.94248
▁mais	-6.01585
▁à	-6.02912
▁Temer	-6.03716
▁tem	-6.07161
e	-6.08534
es	-6.09842
▁SP	-6.10462
▁um	-6.13277
▁contra	-6.15747
▁R	-6.1622
▁dos	-6.20933
;	-6.22993
$	-6.30913
▁Paulo	-6.31187
▁O	-6.33445
▁São	-6.34226
p	-6.35465
▁C	-6.35531
is	-6.3952
rá	-6.45226
▁ser	-6.47646
▁anos	-6.53629
▁Dilma	-6.55233
ou	-6.55962
á	-6.56092
ia	-6.5624
▁Com	-6.58394
▁Em	-6.5877
▁EUA	-6.61566
▁como	-6.61635
▁pode	-6.61819
t	-6.65895
i	-6.66617
:	-6.67514
▁mas	-6.68545
ta	-6.69664
▁vai	-6.70219
n	-6.74143
▁são	-6.75173
to	-6.77315
▁S	-6.77636
g	-6.77659
nte	-6.82012
▁re	-6.82723
os	-6.84292
▁governo	-6.86269
ca	-6.87122
▁impeachment	-6.87731
te	-6.88257
er	-6.88391
▁deve	-6.89124
▁faz	-6.89236
▁os	-6.89995
▁nos	-6.90157
ra	-6.90884
re	-6.91601
c	-6.93736
de	-6.94702
▁in	-6.94917
▁Cunha	-6.97144
té	-6.97184
▁ter	-6.97841
y	-6.97904
?	-6.99139
▁sem	-6.99779
ções	-6.99959
▁quer	-7.00883
▁1	-7.01245
▁novo	-7.01731
dos	-7.01831
▁E	-7.02355
▁Olimpíada	-7.04911
▁pela	-7.0492
▁entre	-7.05377
▁Trump	-7.05767
la	-7.08512
▁casa	-7.0915
co	-7.09182
▁Jato	-7.12199
▁nova	-7.13566
▁Justiça	-7.13662
▁Jogos	-7.13826
-2016	-7.1394
▁pede	-7.13947
f	-7.1505
ndo	-7.15077
▁Lav	-7.16181
▁ex	-7.16415
▁P	-7.18311
▁pelo	-7.18796
▁veja	-7.19405
▁Governo	-7.19432
va	-7.21665
▁ano	-7.22232
▁foi	-7.23234
▁2	-7.23691
ce	-7.2467
▁sua	-7.24868
▁volta	-7.26555
ar	-7.26808
▁T	-7.27112
▁Para	-7.27413
!	-7.27526
▁STF	-7.27526
em	-7.28226
▁Lula	-7.28228
lo	-7.28276
▁país	-7.28309
▁seleção	-7.29234
z	-7.30079
d	-7.32136
ões	-7.32425
le	-7.32497
▁está	-7.33254
▁seu	-7.33768
▁De	-7.34127
▁mostra	-7.3446
ro	-7.34675
in	-7.3512
▁I	-7.35582
▁deixa	-7.36672
ne	-7.37581
▁presidente	-7.39398
í	-7.40705
▁Câmara	-7.4207
▁crise	-7.42862
das	-7.43485
mento	-7.43697
▁F	-7.44467
b	-7.44634
na	-7.44776
é	-7.46318
▁Veja	-7.46885
▁dia	-7.47698
h	-7.4855
▁Re	-7.49809
▁tenta	-7.50364
▁Bolsa	-7.51504
▁vence	-7.52643
"	-7.53371
que	-7.53762
pa	-7.53928
▁c	-7.55099
▁mil	-7.55214
▁"	-7.57576
▁menos	-7.58179
▁busca	-7.58473
▁TV	-7.58715
▁B	-7.58982
▁vira	-7.5928
C	-7.59309
ti	-7.59408
▁maior	-7.59449
vo	-7.59489
▁Na	-7.59797
li	-7.60583
▁H	-7.61283
ram	-7.61308
▁Folha	-7.61448
terá	-7.61641
A	-7.61723
▁3	-7.62184
▁afirma	-7.62399
▁ganha	-7.6243
us	-7.6337
▁Ex	-7.63424
idade	-7.6392
▁cai	-7.64195
pe	-7.64837
ci	-7.65208
no	-7.65436
ri	-7.65549
▁M	-7.66693
as	-7.66921
▁cria	-7.67541
al	-7.67712
▁só	-7.68178
se	-7.69182
▁política	-7.69581
O	-7.69717
▁5	-7.69736
▁leva	-7.69736
▁No	-7.7016
▁fim	-7.70424
▁G	-7.70533
v	-7.70658
▁con	-7.7067
vi	-7.71124
ado	-7.71396
ma	-7.71776
▁brasileira	-7.71795
▁melhor	-7.71876
▁já	-7.71977
ve	-7.72839
▁4	-7.73142
▁final	-7.73246
▁Se	-7.73755
▁fora	-7.74004
ó	-7.74011
dá	-7.74452
▁Haddad	-7.74628
▁fazer	-7.74846
ga	-7.75047
▁anuncia	-7.75207
têm	-7.75333
▁Palmeiras	-7.75718
▁futebol	-7.75718
▁nesta	-7.76268
▁fica	-7.76942
x	-7.77139
▁Sem	-7.77269
▁Polícia	-7.77375
▁2016	-7.77377
▁mundo	-7.77948
▁chega	-7.78245
▁mi	-7.78377
▁Senado	-7.78386
en	-7.78484
▁semana	-7.78538
▁marca	-7.79135
▁D	-7.79201
go	-7.79522
ismo	-7.7998
ria	-7.80169
▁China	-7.80208
▁Corinthians	-7.80775
▁campanha	-7.80775
▁estreia	-7.80775
▁dura	-7.8104
▁PT	-7.81084
di	-7.81463
▁La	-7.81804
▁ministro	-7.82138
▁sobe	-7.82143
▁ouro	-7.82193
▁critica	-7.82459
▁milhões	-7.82519
▁Nova	-7.82601
▁defende	-7.82663
tra	-7.82857
ni	-7.83583
▁acordo	-7.83703
▁perde	-7.84025
▁Vila	-7.84347
▁Hillary	-7.84893
▁Doria	-7.84929
P	-7.85254
io	-7.86111
▁brasileiro	-7.86533
im	-7.86602
ista	-7.86696
me	-7.87696
st	-7.87746
ência	-7.87933
ir	-7.88164
▁lei	-7.88669
▁debate	-7.88957
ça	-7.89084
▁dois	-7.89355
▁história	-7.89718
▁bi	-7.8972
▁Quadrinhos	-7.89817
on	-7.9029
▁la	-7.91373
▁ajuda	-7.91385
▁aprova	-7.91421
▁p	-7.91532
▁Ca	-7.91981
S	-7.9239
fe	-7.92502
▁Por	-7.92755
▁US	-7.93009
ba	-7.93195
▁dizem	-7.93746
▁Santos	-7.94299
▁Argentina	-7.94334
▁Petrobras	-7.94334
▁morte	-7.94432
▁Estado	-7.95214
ação	-7.95307
res	-7.95323
▁Brasileiro	-7.95408
▁zona	-7.95663
▁pessoas	-7.95946
▁leitor	-7.96336
▁ainda	-7.96531
ns	-7.9675
▁nas	-7.97512
▁Olímpicos	-7.97594
▁empresas	-7.98222
▁pre	-7.98301
▁primeiro	-7.98375
▁2017	-7.98377
2	-7.9843
▁Mortes	-7.98913
▁lança	-7.99076
▁vê	-7.99202
ada	-7.99369
▁faze	-7.99516
▁Estados	-7.99618
ito	-8.00138
ém	-8.00661
tro	-8.00791
▁queda	-8.00807
vão	-8.01527
▁livro	-8.01559
▁Astrologia	-8.01872
fa	-8.02067
▁Lei	-8.02498
▁nega	-8.02552
▁f	-8.02804
▁Co	-8.0296
▁votação	-8.03443
▁10	-8.0347
ul	-8.03613
▁Le	-8.03874
▁ou	-8.04146
ter	-8.04218
▁vez	-8.04757
▁primeira	-8.0476
▁Novo	-8.04831
it	-8.05048
ntes	-8.05165
▁K	-8.05352
▁BC	-8.05577
▁of	-8.05598
an	-8.0589
▁Casa	-8.05988
▁projeto	-8.06236
▁vida	-8.06792
▁brasileiros	-8.07202
▁bate	-8.07385
▁en	-8.07386
.	-8.07641
▁PF	-8.07772
ing	-8.08055
bo	-8.08148
▁Renan	-8.08492
▁conta	-8.08515
▁7	-8.08597
▁antes	-8.09001
▁segurança	-8.09378
▁recebe	-8.09384
▁reúne	-8.10025
▁aponta	-8.10025
▁recorde	-8.10055
▁alta	-8.10122
▁ação	-8.10429
qui	-8.10649
▁Venezuela	-8.108
▁dias	-8.11084
▁disputa	-8.11452
▁morre	-8.11525
▁três	-8.11588
nd	-8.11871
▁cresce	-8.12094
D	-8.12291
▁olímpica	-8.1242
▁ca	-8.12427
T	-8.12431
▁jogo	-8.12467
▁carro	-8.12481
or	-8.13626
▁abre	-8.14452
▁apresenta	-8.14857
▁mulher	-8.1546
▁apoio	-8.15582
am	-8.15643
▁Ma	-8.15647
▁há	-8.15661
▁ataque	-8.15827
mente	-8.16156
▁vôlei	-8.16401
▁reforma	-8.16646
▁venda	-8.16698
ú	-8.16794
▁neste	-8.17229
▁In	-8.1733
▁pedido	-8.17369
ed	-8.17839
▁saúde	-8.18061
▁meses	-8.18072
▁Copa	-8.18125
▁ameaça	-8.18206
dor	-8.18413
▁t	-8.18453
▁usa	-8.18463
ita	-8.18844
▁eleição	-8.18908
M	-8.19058
▁confirma	-8.19329
▁bilhões	-8.19749
▁exterior	-8.19749
▁Presidente	-8.19767
▁podem	-8.19911
1	-8.20269
▁precisa	-8.20286
inha	-8.20286
▁passa	-8.20418
▁show	-8.21058
▁mata	-8.21231
▁dólar	-8.21465
▁vitória	-8.21471
▁abertura	-8.21709
▁público	-8.21923
▁V	-8.22155
dores	-8.22282
▁6	-8.22342
▁20	-8.22898
▁lo	-8.23122
▁trabalho	-8.23212
▁grupo	-8.23212
▁França	-8.23214
▁traz	-8.23257
▁Um	-8.23275
▁Ministro	-8.23282
L	-8.23456
▁mercado	-8.23822
▁me	-8.24208
pi	-8.24252
B	-8.24267
▁Al	-8.24527
▁filme	-8.24705
▁diretor	-8.24759
▁zika	-8.2499
▁falta	-8.25062
▁série	-8.25101
k	-8.25502
ver	-8.25513
bi	-8.25578
ch	-8.25697
▁Odebrecht	-8.25891
▁crianças	-8.26128
▁co	-8.26134
▁9	-8.26255
ina	-8.26346
tar	-8.26693
estão	-8.26843
▁U	-8.26937
tos	-8.27348
▁Li	-8.27977
ardo	-8.28266
el	-8.28399
ê	-8.28417
▁forma	-8.28426
nha	-8.28438
▁caso	-8.28538
▁Ministério	-8.28643
▁risco	-8.28645
▁começa	-8.28846
▁cidade	-8.28908
E	-8.29253
▁Como	-8.29372
▁fala	-8.29451
▁to	-8.29462
▁segunda	-8.29578
▁saída	-8.29589
▁UE	-8.29604
▁tempo	-8.29648
fi	-8.29653
4	-8.29675
ad	-8.29761
0	-8.29903
▁11	-8.30132
▁prisão	-8.30521
▁atletas	-8.30809
dão	-8.30919
mo	-8.31042
▁avança	-8.31256
il	-8.31342
▁Fa	-8.3136
▁Obama	-8.31474
▁revela	-8.31476
▁dinheiro	-8.31478
▁ir	-8.31502
▁Unido	-8.31538
▁América	-8.32435
▁espaço	-8.32435
▁Del	-8.33211
za	-8.33351
5	-8.33362
▁Rússia	-8.33406
▁prepara	-8.33413
cu	-8.3343
▁b	-8.33438
▁PM	-8.33496
ário	-8.33997
ida	-8.34303
▁compra	-8.34411
▁programa	-8.34443
3	-8.34688
rem	-8.35128
the	-8.35135
▁menor	-8.35136
w	-8.35254
cha	-8.35266
▁segundo	-8.35377
-16	-8.35429
▁bem	-8.3547
▁morto	-8.35516
▁quem	-8.35937
ino	-8.3598
▁for	-8.36035
son	-8.36176
▁Dólar	-8.36377
▁cinco	-8.36393
▁espera	-8.36822
man	-8.37031
▁Vi	-8.372
▁mant	-8.37245
▁dez	-8.37331
▁Empresa	-8.37387
▁Do	-8.37453
▁empresa	-8.37613
▁mulheres	-8.37682
ja	-8.3808
iz	-8.38213
▁Paulista	-8.38224
▁vi	-8.38275
▁estupro	-8.38407
▁dicas	-8.38432
▁Pa	-8.38464
▁Tite	-8.38471
9	-8.38557
▁Rein	-8.38594
▁olímpico	-8.38651
▁preso	-8.38704
▁ficar	-8.39116
▁Ju	-8.39262
▁mortos	-8.39296
mos	-8.39315
▁estudo	-8.39444
▁causa	-8.39668
I	-8.39677
▁plano	-8.39703
▁troca	-8.4001
mar	-8.40401
▁Grupo	-8.4048
▁Não	-8.40594
▁sob	-8.40644
▁novos	-8.41266
▁recua	-8.41538
▁derrota	-8.41541
▁Uber	-8.41558
quase	-8.41851
▁político	-8.41921
▁Livro	-8.42596
▁promete	-8.42596
▁Turquia	-8.42596
▁processo	-8.426
▁Moro	-8.42663
che	-8.43074
nt	-8.43134
▁fiscal	-8.43656
▁Alemanha	-8.43671
▁corrupção	-8.43677
▁economia	-8.43752
▁golpe	-8.44033
▁medalha	-8.44154
▁12	-8.44351
▁far	-8.44366
▁evitar	-8.44602
▁decisão	-8.44759
▁delação	-8.44847
▁quatr	-8.45498
ber	-8.45578
▁registra	-8.45857
▁PSDB	-8.45859
▁força	-8.45899
▁pesquisa	-8.45982
▁meta	-8.45983
▁vive	-8.46057
con	-8.46087
▁mudar	-8.47011
▁alvo	-8.47017
▁Mai	-8.47189
R	-8.47359
▁El	-8.47626
▁Neymar	-8.48094
▁festa	-8.48096
▁indica	-8.48106
▁obra	-8.48227
▁nome	-8.48293
▁uso	-8.48363
▁anti	-8.4847
▁pagar	-8.48608
ke	-8.48637
▁pró	-8.48819
cia	-8.48962
▁PMDB	-8.49228
▁domingo	-8.49229
▁propina	-8.4923
▁centro	-8.49234
▁Seleç	-8.49432
▁obras	-8.49719
▁técnico	-8.49909
▁dívida	-8.49949
▁Fi	-8.49999
lha	-8.50023
▁carros	-8.50265
nça	-8.50295
▁Mo	-8.50339
▁Festival	-8.50378
▁internet	-8.50379
▁Janot	-8.50381
inho	-8.50395
▁conquista	-8.50439
▁mal	-8.50605
▁ato	-8.50649
▁Bo	-8.50794
▁aposta	-8.50879
▁Te	-8.51248
▁Alckmin	-8.51541
▁ônibus	-8.51541
▁sociais	-8.51542
▁ensina	-8.51543
▁meio	-8.51594
G	-8.51737
▁devem	-8.52227
▁filho	-8.52379
▁Con	-8.52717
▁suspende	-8.52717
▁trimestre	-8.52737
▁Grande	-8.53061
▁setor	-8.53163
▁Que	-8.53199
tor	-8.53344
▁família	-8.53907
▁defesa	-8.53911
▁ver	-8.53931
mor	-8.54003
▁Go	-8.54784
▁base	-8.5511
▁m	-8.55497
be	-8.55938
▁ataques	-8.5597
▁área	-8.56117
▁vaga	-8.56161
▁violência	-8.56339
▁mesmo	-8.56358
bra	-8.56365
▁muda	-8.56383
▁per	-8.56563
▁fecha	-8.56709
teve	-8.56762
ton	-8.56913
ável	-8.56964
istas	-8.5706
7	-8.57221
▁J	-8.5725
▁música	-8.57346
via	-8.57426
8	-8.57465
▁100	-8.57486
▁divulga	-8.57566
▁oferece	-8.57566
▁arte	-8.57758
eira	-8.58039
▁era	-8.58447
par	-8.58583
▁Edu	-8.58775
▁Juegos	-8.58816
▁libera	-8.58851
per	-8.5892
▁Marta	-8.58935
▁Banco	-8.58972
▁João	-8.59011
ie	-8.5902
▁Di	-8.59065
ste	-8.59411
ais	-8.59766
▁su	-8.5993
▁vídeo	-8.59961
▁Olympic	-8.60028
▁evento	-8.60083
▁eleições	-8.60083
▁Confir	-8.60086
▁gestão	-8.60105
at	-8.60347
▁pa	-8.60791
ente	-8.61107
▁Mar	-8.61171
▁título	-8.61364
um	-8.61372
▁USP	-8.61454
6	-8.61593
▁Des	-8.61703
tas	-8.61704
ng	-8.62107
▁pro	-8.62159
▁adia	-8.62267
ício	-8.62315
▁50	-8.6234
▁suspeita	-8.62663
▁polícia	-8.62663
▁2018	-8.62666
▁Crise	-8.6269
gi	-8.62703
▁guerra	-8.62782
▁lista	-8.6308
▁fundo	-8.6319
bri	-8.63581
ico	-8.63637
▁bar	-8.63682
▁W	-8.63806
▁Previdência	-8.63979
▁supera	-8.63985
▁hora	-8.64143
▁sul	-8.64453
he	-8.64797
feira	-8.65146
▁líder	-8.65283
▁Russomanno	-8.65312
▁eleitoral	-8.65313
▁confira	-8.65316
▁futuro	-8.65367
▁Contra	-8.65376
▁protesto	-8.65483
▁rua	-8.65491
▁manter	-8.65811
vê	-8.66252
▁Londres	-8.66663
▁basquete	-8.66663
▁energia	-8.66663
▁inflação	-8.66704
▁praia	-8.66721
▁União	-8.6679
▁Ta	-8.66898
▁d	-8.66991
▁nacional	-8.67024
▁dua	-8.67176
▁8	-8.67236
▁gastos	-8.67407
▁Be	-8.67448
bu	-8.6753
ica	-8.67592
▁aumenta	-8.67663
▁outros	-8.67735
▁15	-8.67791
tica	-8.67889
▁Paraolimpíada	-8.68033
▁declara	-8.68038
▁Serra	-8.68075
▁atrai	-8.68093
▁sexta	-8.68117
▁operação	-8.68117
▁água	-8.68205
tão	-8.68232
▁poder	-8.68266
tiva	-8.68454
▁Po	-8.68474
▁pi	-8.68625
▁Ba	-8.68809
ex	-8.68853
ge	-8.68903
▁pior	-8.69043
▁reduz	-8.69158
▁gera	-8.69263
▁segue	-8.69423
▁cobra	-8.69432
▁decide	-8.69435
▁mês	-8.69437
▁cassação	-8.6948
ut	-8.69526
▁suspeito	-8.69763
j	-8.70177
▁juros	-8.7024
▁acidente	-8.70243
▁estar	-8.70484
▁Dia	-8.70506
▁L	-8.70555
onheça	-8.70779
▁CBF	-8.70831
▁atinge	-8.70836
▁prêmio	-8.70845
▁vice	-8.70931
▁prende	-8.70972
▁ba	-8.71176
▁Sul	-8.71313
ck	-8.7134
▁sofre	-8.71749
▁30	-8.71911
jo	-8.72084
▁13	-8.72174
th	-8.72224
▁Japão	-8.7226
ho	-8.7227
▁Europa	-8.72283
▁tocha	-8.72307
▁ra	-8.72342
▁deixar	-8.72553
▁pública	-8.72834
pesar	-8.73057
ária	-8.73121
▁torcida	-8.73708
▁visita	-8.7371
▁aumento	-8.73737
▁norte	-8.73772
▁muito	-8.73882
▁Lu	-8.73988
▁afeta	-8.74071
cor	-8.74148
▁quarta	-8.74227
gar	-8.74695
ic	-8.74832
▁sair	-8.74932
et	-8.75121
▁cinema	-8.75167
▁pré	-8.75167
▁Congresso	-8.75179
▁petróleo	-8.75184
Coleção	-8.75211
▁time	-8.75218
▁Opera	-8.75255
▁parte	-8.75262
▁alto	-8.75454
▁sucesso	-8.75473
▁investigação	-8.75575
▁investiga	-8.75687
▁di	-8.75781
▁Oi	-8.75823
▁li	-8.7638
penas	-8.76396
▁prova	-8.7643
ira	-8.76485
presidente	-8.7657
▁Meirelles	-8.76672
▁feminina	-8.76672
▁interior	-8.76674
▁rede	-8.76846
▁querem	-8.76859
gem	-8.76968
▁acusa	-8.76992
▁imp	-8.77034
▁Ga	-8.77034
▁usar	-8.7729
▁proposta	-8.77382
▁on	-8.77996
▁chama	-8.7809
▁festiva	-8.78187
▁ele	-8.78456
▁entra	-8.78533
▁voto	-8.78943
▁cada	-8.78951
▁parti	-8.79151
▁Brexit	-8.79216
ização	-8.79285
▁mar	-8.79312
F	-8.79429
▁enfrenta	-8.79516
▁também	-8.79725
▁ingressos	-8.79726
▁Michel	-8.79742
cre	-8.80122
ados	-8.80673
▁Ni	-8.80748
▁países	-8.80809
for	-8.80821
▁BNDES	-8.81288
▁Itália	-8.81288
▁aeroporto	-8.81288
▁discurso	-8.81289
▁social	-8.81294
▁rejeita	-8.81318
▁mãe	-8.81366
▁Man	-8.81423
cer	-8.81552
▁sai	-8.81554
▁realiza	-8.81942
▁Me	-8.82073
▁críticas	-8.82152
▁continua	-8.82223
▁esta	-8.8229
▁americano	-8.82521
▁preocupa	-8.82583
▁horas	-8.82731
tura	-8.82741
▁Público	-8.82895
▁sa	-8.82993
▁luta	-8.83001
dora	-8.83186
▁vir	-8.83237
▁Ra	-8.83272
▁turistas	-8.83359
▁regras	-8.83624
▁h	-8.83751
▁14	-8.83753
lan	-8.8381
tou	-8.83834
▁peça	-8.83861
▁bom	-8.84062
▁vende	-8.84115
▁Gabriel	-8.84488
▁Libertadores	-8.84488
ministro	-8.8449
▁agora	-8.84493
▁Força	-8.84499
▁problemas	-8.84528
▁Paris	-8.84553
▁Maia	-8.84677
Não	-8.84722
▁doping	-8.8481
ue	-8.8486
▁40	-8.84871
ze	-8.84883
un	-8.85395
▁Ne	-8.85773
▁Qua	-8.85873
dade	-8.85924
dio	-8.85985
▁inicia	-8.86117
▁ONU	-8.86127
▁jovens	-8.86127
▁quinta	-8.86128
▁Nacional	-8.86155
▁Federal	-8.86239
▁terça	-8.86375
▁refugiados	-8.86494
▁denuncia	-8.86736
up	-8.86775
▁shows	-8.8691
▁18	-8.86958
▁pai	-8.87123
▁clássico	-8.87225
▁redes	-8.874
▁receber	-8.87513
▁ruas	-8.87577
▁tri	-8.87626
▁gol	-8.87687
tivo	-8.87688
▁Jo	-8.87736
▁escola	-8.87737
▁Aécio	-8.87794
▁COI	-8.87794
▁Espanha	-8.87794
▁luxo	-8.87794
▁Machado	-8.87794
▁último	-8.87794
▁depois	-8.87795
▁produção	-8.87798
▁Río	-8.87801
▁liderança	-8.87812
▁contas	-8.88026
car	-8.88149
▁autor	-8.8835
▁entrega	-8.88581
▁al	-8.88739
▁19	-8.8875
▁Sal	-8.88797
▁banco	-8.89006
ido	-8.8902
▁Mi	-8.8907
▁grandes	-8.89127
▁g	-8.89365
▁Sob	-8.89455
▁2015	-8.89489
▁Colômbia	-8.89489
▁Prefeitura	-8.89489
▁número	-8.89489
▁Síria	-8.89489
▁internacional	-8.89492
▁inaugura	-8.89672
▁secretário	-8.89787
▁Uma	-8.89914
▁200	-8.89975
▁anima	-8.90054
▁lado	-8.90806
lar	-8.90979
▁ajudar	-8.9112
▁homem	-8.91214
▁esporte	-8.91214
▁fez	-8.91238
▁gr	-8.91254
▁preços	-8.91403
ações	-8.91499
▁clima	-8.91529
▁estuda	-8.91555
las	-8.91725
ula	-8.91765
tri	-8.91791
▁alunos	-8.9181
ura	-8.92102
ei	-8.9222
▁paga	-8.92236
▁condena	-8.92309
▁Bar	-8.92603
▁lugar	-8.9273
▁Datafolha	-8.92967
▁CPI	-8.92967
▁cenário	-8.92968
▁julho	-8.92968
▁Aviso	-8.92968
▁Flip	-8.92968
▁francês	-8.92969
▁Morre	-8.92971
▁Norte	-8.92972
▁Procuradoria	-8.93015
▁paz	-8.9309
▁equipe	-8.93099
▁boa	-8.93502
▁bo	-8.93606
▁Car	-8.93623
▁man	-8.93886
▁va	-8.93979
▁avalia	-8.93988
▁i	-8.94
▁mo	-8.94239
▁teste	-8.94402
nta	-8.94569
▁tira	-8.94606
tes	-8.94744
▁Mercosul	-8.94753
▁celebra	-8.94753
▁econômica	-8.94753
▁Olímpica	-8.94754
▁caixa	-8.94755
▁carreira	-8.9477
▁outra	-8.94872
▁Per	-8.95
▁americana	-8.95038
▁inter	-8.95073
▁autoriza	-8.95098
▁and	-8.95598
ssa	-8.95737
nda	-8.95816
ério	-8.95861
▁políticos	-8.95901
▁ocupa	-8.96066
vel	-8.96156
▁torna	-8.96297
▁levar	-8.96425
▁preço	-8.96539
▁Brasília	-8.96571
▁Planalto	-8.96571
▁teatro	-8.96571
▁cancela	-8.96571
▁protesta	-8.96577
▁frente	-8.96611
▁manda	-8.96719
iro	-8.9683
los	-8.97154
ante	-8.97231
▁chance	-8.97524
N	-8.98111
▁quebra	-8.98221
▁tentar	-8.98376
▁Deputado	-8.98423
▁Fazenda	-8.98423
▁Líder	-8.98423
▁WhatsApp	-8.98423
▁britânica	-8.98423
▁mundial	-8.98423
▁greve	-8.98423
▁agosto	-8.98423
▁papel	-8.98423
▁aceita	-8.98426
▁câncer	-8.98428
▁fase	-8.98429
▁terrorismo	-8.98451
▁envia	-8.98482
line	-8.98531
▁Maria	-8.9868
entes	-8.98717
▁natação	-8.9911
▁termina	-8.99446
▁dados	-8.99451
osa	-8.9957
▁comida	-8.99716
▁acusado	-8.99732
nas	-8.99813
nde	-8.99904
tion	-8.99951
cas	-8.99954
▁Cultura	-8.9996
▁jogos	-9.00074
▁24	-9.00079
▁denúncia	-9.00177
▁lidera	-9.00291
▁jornal	-9.00292
▁po	-9.00297
▁York	-9.0031
▁imóveis	-9.0031
▁policiais	-9.0031
▁shopping	-9.0031
▁Conselho	-9.0031
▁Homem	-9.00314
▁semestre	-9.00352
▁matar	-9.0039
▁policial	-9.00421
▁controle	-9.00421
nem	-9.00443
Donald	-9.0045
ana	-9.0057
nes	-9.00696
▁negócio	-9.00709
aiba	-9.00807
▁tra	-9.00942
▁todos	-9.00946
▁medo	-9.00993
▁planeja	-9.01133
▁Ho	-9.01307
▁medidas	-9.01371
▁medalhas	-9.01372
%	-9.01587
▁Mu	-9.01781
amento	-9.01929
▁protestos	-9.01988
aço	-9.02226
▁Google	-9.02233
▁Islâmico	-9.02233
▁modelo	-9.02233
▁férias	-9.02234
▁Janeiro	-9.02238
▁reunião	-9.0228
▁Pro	-9.02313
V	-9.02543
▁forte	-9.02582
▁voltar	-9.02641
▁escolas	-9.0282
ela	-9.02849
gia	-9.03082
ban	-9.03102
▁melhores	-9.03112
▁estrangeiros	-9.03136
sal	-9.03498
▁amplia	-9.03608
▁seis	-9.03621
▁presos	-9.03724
▁17	-9.0373
ist	-9.038
ler	-9.04072
▁Da	-9.04091
▁encontro	-9.04194
▁feminino	-9.04194
▁sistema	-9.04194
▁Comitê	-9.04194
▁Maduro	-9.04194
▁culpa	-9.04194
▁emprego	-9.04194
▁destino	-9.04198
▁briga	-9.04198
▁campo	-9.04219
▁Jove	-9.04245
▁pedir	-9.04282
▁cor	-9.0431
▁destaque	-9.04327
▁Silva	-9.04392
▁16	-9.04847
▁Ja	-9.04898
▁corre	-9.04945
ag	-9.05162
ô	-9.0585
▁paulistanos	-9.06009
▁falar	-9.06054
▁Família	-9.06194
▁metrô	-9.06194
▁preciso	-9.06194
▁Jesus	-9.06194
▁Caixa	-9.06194
▁inquérito	-9.06195
▁NBA	-9.06196
▁Partido	-9.06197
▁judicial	-9.06199
▁agência	-9.06201
▁Messi	-9.06204
▁Projeto	-9.06213
▁recuperação	-9.06409
▁Liga	-9.0642
▁vota	-9.06527
▁moda	-9.0654
▁Su	-9.06562
▁rival	-9.06586
▁candidato	-9.06593
iva	-9.06602
▁deveria	-9.06614
▁partido	-9.06728
▁vítimas	-9.069
ntenda	-9.07399
enta	-9.07921
ntro	-9.07976
▁candidatos	-9.08052
lia	-9.08152
▁você	-9.08235
▁reajuste	-9.08235
▁Jucá	-9.08235
▁prazo	-9.08235
▁região	-9.08235
▁Bolt	-9.08235
▁Macri	-9.08246
▁Venda	-9.08247
▁Cannes	-9.08248
▁comprar	-9.08259
▁puni	-9.0826
▁Europe	-9.08269
▁mira	-9.08375
▁indicações	-9.08403
▁polêmica	-9.08432
▁cargo	-9.08523
▁Olímpico	-9.08526
▁prefeito	-9.08535
▁Bu	-9.08834
▁feridos	-9.0887
▁filmes	-9.08893
▁Ar	-9.09101
ec	-9.092
▁ações	-9.093
tá	-9.09808
tic	-9.09849
od	-9.10283
▁Fernand	-9.10318
▁advogado	-9.10318
▁bairro	-9.10318
▁completa	-9.10318
▁jovem	-9.10318
▁pódio	-9.10318
▁celular	-9.10318
▁permite	-9.10318
▁baixa	-9.10318
▁custo	-9.1032
▁desiste	-9.10323
▁Teori	-9.10323
▁comissão	-9.10341
▁car	-9.10363
▁linha	-9.10368
▁negócios	-9.10386
uro	-9.10416
▁Cor	-9.10525
▁pouco	-9.10635
▁Produ	-9.10738
▁vender	-9.10843
▁Cidade	-9.11087
eiro	-9.11103
▁global	-9.11234
onde	-9.11251
▁encontra	-9.11316
▁Comiss	-9.11427
▁maio	-9.11826
▁cara	-9.12431
▁médico	-9.12446
▁lucro	-9.12447
▁relação	-9.1245
▁opções	-9.12455
▁frio	-9.12475
▁Hoje	-9.12571
▁Ka	-9.12657
▁Educa	-9.12679
▁passo	-9.12828
▁disco	-9.12837
▁Os	-9.12858
▁restaurante	-9.12879
ín	-9.12927
▁mudança	-9.1293
▁Paes	-9.1295
▁Pi	-9.12967
▁grande	-9.13029
▁teto	-9.13036
▁Santa	-9.1307
▁Peru	-9.13089
▁livros	-9.13398
▁produtos	-9.13435
lho	-9.13501
versão	-9.13688
▁lojas	-9.13799
ador	-9.14107
▁mudanças	-9.14163
ion	-9.14298
▁eleva	-9.14491
▁Rodrig	-9.14618
▁argentina	-9.14619
▁argentino	-9.14619
▁cozinha	-9.14619
▁difícil	-9.14619
▁favela	-9.14619
▁junho	-9.1462
▁Atlético	-9.1462
▁questiona	-9.14621
▁alerta	-9.14623
▁democracia	-9.1463
▁fotos	-9.14772
▁verba	-9.14859
dia	-9.15158
▁transforma	-9.15165
▁derruba	-9.15314
▁Gil	-9.15327
▁jogar	-9.15427
▁direito	-9.15537
▁serviços	-9.15569
▁federa	-9.15621
esmo	-9.15635
▁chefe	-9.15721
gio	-9.15833
▁onda	-9.16155
▁suspeitos	-9.16296
▁direitos	-9.16337
▁real	-9.16639
▁cultura	-9.16706
ampeonato	-9.16842
▁educação	-9.16842
▁reclama	-9.16842
▁presidência	-9.16849
▁Coreia	-9.16849
▁crédito	-9.16859
▁escolhe	-9.16886
▁moradores	-9.16967
▁tudo	-9.17052
▁recursos	-9.17176
▁evita	-9.17211
▁casos	-9.1722
cos	-9.17355
ly	-9.17476
ã	-9.17492
▁jornalista	-9.17522
▁sete	-9.17656
▁deputado	-9.17812
▁joga	-9.17917
id	-9.18026
tação	-9.18258
▁chegar	-9.18336
▁Lo	-9.18406
▁deputados	-9.18455
▁trans	-9.18496
▁est	-9.18569
▁passar	-9.18876
3%	-9.19052
▁Orlando	-9.19114
▁admite	-9.19114
▁próxima	-9.19114
▁tecnologia	-9.19114
▁Receita	-9.19114
▁última	-9.19114
▁Ataque	-9.19117
▁investe	-9.19123
▁Série	-9.19129
▁Parque	-9.19142
▁viagem	-9.19153
ite	-9.19293
▁decoração	-9.19303
▁criar	-9.19331
▁ha	-9.1945
▁Marco	-9.19461
▁abrir	-9.19467
▁Maior	-9.1962
▁ce	-9.19633
▁feira	-9.19756
H	-9.19844
▁Vale	-9.20013
▁peças	-9.20029
berto	-9.20112
com	-9.20197
▁combate	-9.20394
▁En	-9.20411
ry	-9.20774
▁cita	-9.2089
▁Diretor	-9.2144
▁hoje	-9.2144
▁taxa	-9.2144
▁lembra	-9.2144
▁livre	-9.2144
▁sugere	-9.2144
▁Presidência	-9.21454
▁atrasa	-9.21455
▁aplicativo	-9.2147
▁veta	-9.21473
▁quando	-9.21518
ena	-9.21741
▁Ve	-9.22083
▁som	-9.22128
▁corta	-9.22187
essa	-9.22212
▁britânico	-9.2224
▁prédio	-9.22316
▁especialista	-9.22343
gui	-9.22411
▁Cha	-9.22529
▁Fre	-9.2262
▁qua	-9.22665
agem	-9.22694
tt	-9.22804
0%	-9.22896
▁25	-9.2292
▁To	-9.2297
▁alemã	-9.23006
não	-9.23025
tim	-9.23765
camp	-9.23766
▁Austrália	-9.23821
▁Clinton	-9.23821
▁Isaquias	-9.23821
▁Portugal	-9.23821
▁Reforma	-9.23821
▁limite	-9.23821
▁pressiona	-9.23835
▁possível	-9.23859
ático	-9.23884
▁x	-9.23901
▁tentativa	-9.23918
▁cair	-9.23969
▁Unidos	-9.24003
▁Filho	-9.24013
imento	-9.24025
▁caem	-9.24054
cima	-9.2414
▁Real	-9.24169
▁vale	-9.24266
▁estádio	-9.24293
ju	-9.24322
U	-9.24458
▁tema	-9.24462
Brexit	-9.24617
▁pontos	-9.2467
▁próximo	-9.24752
▁bomba	-9.24867
▁lançamentos	-9.24874
▁Ana	-9.24909
▁coloca	-9.24949
▁votos	-9.25078
ição	-9.2512
▁semi	-9.25465
sta	-9.25668
▁Hu	-9.25753
▁especial	-9.26198
▁N	-9.26202
sse	-9.26242
▁FHC	-9.2626
▁Francisco	-9.2626
▁Maranhão	-9.2626
▁Mundial	-9.2626
▁Saúde	-9.2626
▁aproxima	-9.2626
▁trabalhista	-9.2626
▁Cristina	-9.2626
▁comemora	-9.26261
▁feita	-9.26262
▁retira	-9.26263
▁anula	-9.26265
▁agenda	-9.26265
▁ap	-9.26265
▁própria	-9.26266
▁bilhão	-9.26268
▁propõe	-9.2627
▁coletivo	-9.26273
▁posse	-9.26276
▁julgamento	-9.2628
▁avião	-9.26281
▁eleito	-9.26284
▁Pedr	-9.26285
▁Oscar	-9.26289
▁expõe	-9.26303
▁testa	-9.26331
▁funciona	-9.26342
ine	-9.26348
▁Marcelo	-9.26352
▁oferta	-9.26387
▁Leitor	-9.2639
tório	-9.26411
▁atletismo	-9.26454
▁procurador	-9.26528
▁pena	-9.26529
▁Mon	-9.26669
▁caminho	-9.26683
▁geração	-9.26987
eba	-9.27023
der	-9.27186
▁investimento	-9.27316
▁pensa	-9.27356
▁crítica	-9.27387
▁gasto	-9.27399
▁armas	-9.27411
▁Can	-9.27418
▁demissão	-9.27799
▁veículos	-9.27817
missão	-9.28077
▁Fo	-9.28416
▁destaques	-9.28648
ôn	-9.28678
▁Cientista	-9.2876
▁Facebook	-9.2876
▁TCU	-9.2876
▁Vídeo	-9.2876
▁explora	-9.2876
▁álbum	-9.2876
▁discute	-9.2876
▁entrevista	-9.28761
▁imagem	-9.28761
cídio	-9.28761
▁temporada	-9.28763
▁determina	-9.28814
sso	-9.28823
▁Central	-9.28835
▁garante	-9.28837
▁retoma	-9.2884
▁militares	-9.28981
▁Y	-9.2907
ment	-9.29193
▁integra	-9.29249
▁feito	-9.29256
ano	-9.29276
▁reduzir	-9.29339
5%	-9.29496
▁carta	-9.29501
tuação	-9.29501
▁Fu	-9.29652
Dilma	-9.29692
▁desta	-9.29711
▁Is	-9.29851
▁receitas	-9.29864
▁parque	-9.29978
uí	-9.29999
▁combater	-9.30293
▁capital	-9.30294
▁Ao	-9.30368
▁especialistas	-9.30398
▁perder	-9.30622
▁via	-9.30654
▁une	-9.30739
▁Wa	-9.30916
ran	-9.3099
▁encerra	-9.31263
ância	-9.31324
▁Escola	-9.31324
▁Supremo	-9.31324
▁ONG	-9.31324
▁inverno	-9.31324
▁sonho	-9.31325
▁pressão	-9.31326
▁chinês	-9.31329
▁ensino	-9.3133
▁acha	-9.31334
▁Campos	-9.31371
▁Olympics	-9.31434
▁jogadores	-9.31544
▁EI	-9.31549
▁perto	-9.31569
▁delega	-9.3169
▁Tur	-9.31763
gado	-9.31892
▁avaliação	-9.31902
▁aumentar	-9.32026
▁elogia	-9.32067
▁quanto	-9.32128
▁nada	-9.32288
ji	-9.32307
ix	-9.32433
▁inédito	-9.32645
▁resultado	-9.32684
▁crime	-9.32705
▁regra	-9.32722
▁Ric	-9.32741
▁cur	-9.3278
▁tiro	-9.32855
tua	-9.32873
▁un	-9.3293
ía	-9.32997
▁liga	-9.33024
fia	-9.33225
▁inspira	-9.33225
2%	-9.33263
ha	-9.33321
nos	-9.33359
▁arma	-9.33427
ka	-9.33509
▁apura	-9.33572
▁Bienal	-9.33956
▁Netflix	-9.33956
▁Phelps	-9.33956
▁Tribuna	-9.33956
▁bronze	-9.33956
▁economista	-9.33956
▁esquerda	-9.33956
▁histórico	-9.33956
▁PIB	-9.33956
▁guarda	-9.33956
▁exige	-9.33958
▁dispara	-9.3396
▁hotel	-9.33964
▁Dunga	-9.33964
▁Bernardo	-9.33967
▁edição	-9.33997
▁Luiz	-9.34003
▁opção	-9.34007
▁realidade	-9.34015
▁rebate	-9.34022
▁fato	-9.34028
▁Nice	-9.34082
▁Empresário	-9.3412
▁mesa	-9.3418
▁An	-9.3421
▁participação	-9.34217
adas	-9.34257
4%	-9.34302
▁PP	-9.34303
posição	-9.34326
▁explica	-9.34346
▁atua	-9.34389
ten	-9.34437
▁sub	-9.34538
▁má	-9.34597
▁crescer	-9.34888
▁saber	-9.35017
▁ref	-9.35028
▁si	-9.35159
SP	-9.35174
berg	-9.35311
▁fraude	-9.354
▁atentado	-9.35409
▁serviço	-9.35487
▁receita	-9.35506
rio	-9.35612
▁leve	-9.35619
▁ataca	-9.35704
▁ministros	-9.35704
ud	-9.35785
▁superar	-9.36057
ot	-9.36152
▁militar	-9.36425
▁60	-9.36456
▁caro	-9.36469
1%	-9.36479
▁Cruz	-9.36634
▁Nordeste	-9.36658
▁Ribeirão	-9.36658
▁cerveja	-9.36658
▁imóvel	-9.36658
▁prefeitura	-9.36658
▁prejuízo	-9.36658
▁trecho	-9.36658
▁reforça	-9.36658
▁sexual	-9.36658
▁Daniel	-9.36659
▁Filme	-9.36659
▁abuso	-9.3666
▁Mercado	-9.36661
▁quarto	-9.36663
▁candidatura	-9.36664
▁milhão	-9.36669
esquema	-9.36673
▁crescimento	-9.36674
▁filha	-9.36686
▁Gilmar	-9.36688
▁distribui	-9.36705
▁humor	-9.36709
▁define	-9.36719
▁Jornalista	-9.36722
▁Games	-9.36727
▁corpo	-9.36743
▁trem	-9.36777
▁renda	-9.36827
▁le	-9.36834
▁Ouro	-9.36904
▁rep	-9.36965
▁ajuste	-9.3697
▁apoia	-9.36984
▁adota	-9.37031
ata	-9.37047
▁cidades	-9.37125
▁vagas	-9.37125
▁longa	-9.37145
bilidade	-9.37267
▁Gal	-9.3792
▁23	-9.38141
les	-9.38267
▁multa	-9.38316
edi	-9.38391
uma	-9.38416
▁corte	-9.38438
▁vendas	-9.38598
ves	-9.38737
▁hospital	-9.38791
▁sala	-9.38811
▁Jos	-9.38854
▁Cal	-9.38996
ld	-9.39006
rd	-9.3903
▁terror	-9.3935
▁favor	-9.39351
▁Cardozo	-9.39436
▁Eletrobras	-9.39436
▁México	-9.39436
▁STJ	-9.39436
▁abandona	-9.39436
▁indústria	-9.39436
▁parceria	-9.39436
▁Globo	-9.39436
▁MinC	-9.39436
▁provoca	-9.39436
▁repasse	-9.39437
▁Paraná	-9.39438
▁grava	-9.39439
▁imprensa	-9.39439
▁ranking	-9.3944
▁Pelé	-9.39441
▁Mendes	-9.39443
▁virtual	-9.39445
▁morta	-9.39449
▁funcionários	-9.39453
▁leste	-9.39463
▁fã	-9.39479
▁peso	-9.39509
▁70	-9.39513
▁vivo	-9.3958
▁virar	-9.39627
iu	-9.39711
▁previs	-9.39772
▁Z	-9.39868
ez	-9.3989
▁curso	-9.39993
▁Porto	-9.40009
Game	-9.402
▁filhos	-9.40246
sol	-9.40279
vido	-9.40299
▁tom	-9.40403
▁negocia	-9.40539
W	-9.40625
▁22	-9.40646
gas	-9.40649
impeachment	-9.40661
▁ligado	-9.40695
▁valor	-9.40842
20	-9.40911
nca	-9.40952
▁fechar	-9.41096
▁elimina	-9.41169
ivo	-9.41186
▁clube	-9.41221
▁ponto	-9.41283
▁vítima	-9.41289
▁momento	-9.41326
rea	-9.41413
▁Uni	-9.41428
bre	-9.41434
▁Pal	-9.416
ndia	-9.41694
▁principa	-9.418
cidente	-9.41852
▁mortes	-9.41872
lica	-9.41947
cion	-9.42002
▁seria	-9.42067
▁NY	-9.42069
▁Maracanã	-9.42293
▁merenda	-9.42293
▁média	-9.42293
▁representa	-9.42293
▁tucano	-9.42293
▁Defesa	-9.42293
▁Thiago	-9.42293
▁revista	-9.42294
▁cuida	-9.42295
▁limita	-9.42295
▁Cuba	-9.42297
▁Mostra	-9.42298
▁atraso	-9.42301
▁Especialista	-9.42324
▁sempre	-9.42328
ssi	-9.42332
▁ri	-9.42332
timismo	-9.42347
▁Fifa	-9.42377
▁vem	-9.42397
▁musical	-9.42399
▁assumir	-9.42488
▁pagamento	-9.4251
▁importante	-9.42538
▁descarta	-9.4265
▁salto	-9.42652
▁baixo	-9.42735
▁comando	-9.42947
▁rec	-9.42996
▁par	-9.43073
▁acesso	-9.43133
lin	-9.4326
▁vencer	-9.43262
vam	-9.43301
J	-9.43325
engo	-9.43607
▁tiros	-9.4368
▁Pinheiros	-9.43889
▁Rede	-9.441
▁chef	-9.44226
▁gay	-9.44271
ixo	-9.44301
▁falha	-9.44306
▁defender	-9.44509
▁Pe	-9.44566
gen	-9.44666
ki	-9.44669
iano	-9.44769
aty	-9.44937
▁aliados	-9.44971
nico	-9.45067
cula	-9.45096
▁Andrade	-9.45234
▁Bolsonaro	-9.45234
▁Samarco	-9.45234
▁bloqueio	-9.45234
▁consegue	-9.45234
▁ginástica	-9.45234
▁masculino	-9.45234
▁TSE	-9.45235
▁conflito	-9.45235
▁Bauza	-9.45235
▁Depoi	-9.45235
▁associa	-9.45235
▁pacote	-9.45235
▁romance	-9.45238
▁relata	-9.45239
▁fábrica	-9.45239
▁nunca	-9.45241
▁escolha	-9.45244
▁gás	-9.45246
▁Say	-9.45249
▁indicia	-9.45253
▁premiê	-9.45259
▁Minas	-9.45265
▁Mulher	-9.45276
▁verdade	-9.45316
▁terremoto	-9.4536
▁presente	-9.45448
▁Enem	-9.45483
▁Mãe	-9.45489
▁participar	-9.45505
▁propaganda	-9.45511
▁promove	-9.45535
gua	-9.45564
▁Tri	-9.45624
▁disputar	-9.45726
▁canta	-9.45734
por	-9.45887
cra	-9.45915
geral	-9.45991
▁oposição	-9.45995
▁serve	-9.46103
▁Est	-9.46145
▁vezes	-9.46216
cional	-9.46504
izar	-9.4653
Pokémon	-9.46591
fil	-9.46648
The	-9.46674
ível	-9.46959
▁discutir	-9.47066
MG	-9.471
▁empata	-9.47225
▁salário	-9.47383
▁desafio	-9.47415
▁motorista	-9.47425
▁aulas	-9.47541
▁criança	-9.47588
▁dis	-9.47617
▁mato	-9.47665
▁Du	-9.47696
▁ganhar	-9.48067
▁pega	-9.48206
▁juiz	-9.48227
▁André	-9.48265
▁Domingo	-9.48265
▁Erundina	-9.48265
▁Lochte	-9.48265
▁Número	-9.48265
▁central	-9.48265
▁masculina	-9.48265
▁temperatura	-9.48265
▁vír	-9.48265
▁externo	-9.48265
▁homens	-9.48265
▁imagens	-9.48265
▁Cristian	-9.48265
▁museu	-9.48265
▁menino	-9.48265
▁tênis	-9.48271
▁cerimônia	-9.48279
▁depende	-9.48283
▁encara	-9.48286
▁ambiente	-9.48294
▁Latina	-9.48308
▁Itamar	-9.48316
▁palco	-9.48348
▁Mundo	-9.48394
▁senadores	-9.48454
▁Artista	-9.48467
▁avenida	-9.48614
▁Dono	-9.48711
▁Obra	-9.48717
▁pais	-9.48769
▁Gra	-9.4881
▁parece	-9.48831
▁Só	-9.48928
▁super	-9.48983
▁erros	-9.49011
eiros	-9.49121
▁professor	-9.49163
▁tirar	-9.49286
▁condenado	-9.49433
mentos	-9.4948
▁mu	-9.49502
▁Papa	-9.49576
▁The	-9.49703
▁maiores	-9.49917
▁popular	-9.50011
elo	-9.50125
des	-9.5014
▁rouba	-9.50152
▁porta	-9.50156
▁500	-9.50358
▁trata	-9.50428
▁redu	-9.50719
▁Ali	-9.50772
▁empresários	-9.50979
▁barrar	-9.51022
tista	-9.51167
▁erro	-9.51176
▁el	-9.51274
▁Advogado	-9.5139
▁Erdogan	-9.5139
▁Municipal	-9.5139
▁acontece	-9.5139
▁consumidor	-9.5139
▁consumo	-9.5139
▁maconha	-9.5139
▁plebiscito	-9.5139
▁proíbe	-9.5139
▁Ronaldo	-9.5139
▁depoimento	-9.5139
▁Iraque	-9.5139
▁retrata	-9.51391
▁estilo	-9.51393
▁judô	-9.51396
▁bens	-9.51397
▁Brazil	-9.51402
▁comércio	-9.51403
▁larga	-9.51406
▁Rob	-9.51414
▁acerta	-9.51417
▁luz	-9.51433
▁vista	-9.51442
▁domina	-9.51454
▁curti	-9.51454
▁Sér	-9.51477
▁longe	-9.51519
▁Nero	-9.51535
▁assume	-9.51539
tan	-9.51539
▁culturais	-9.51641
▁Vice	-9.51643
▁mega	-9.51715
doras	-9.51778
▁cabeça	-9.518
▁abaixo	-9.51814
▁Marina	-9.51841
▁todo	-9.51842
▁compara	-9.51862
▁Ti	-9.51992
tido	-9.52036
▁Sete	-9.52065
▁Th	-9.52066
▁elege	-9.5228
▁bancos	-9.52296
adores	-9.5243
▁dívidas	-9.52577
▁Cri	-9.52597
Ma	-9.52602
▁convoca	-9.528
▁americanos	-9.52814
6%	-9.53008
▁prédios	-9.53439
▁quartas	-9.53466
▁Pesquisa	-9.53474
▁únic	-9.53635
▁jornalistas	-9.5387
▁ideia	-9.53957
▁terrorista	-9.53996
Se	-9.54013
era	-9.54113
▁cargos	-9.54228
port	-9.54455
▁Gol	-9.54533
▁Equador	-9.54616
▁adolescente	-9.54616
▁chuva	-9.54616
▁elétrico	-9.54616
▁fácil	-9.54616
▁litoral	-9.54616
▁movimento	-9.54616
▁tragédia	-9.54616
▁relatório	-9.54616
▁comitê	-9.54617
▁desconto	-9.54617
▁Agência	-9.54618
▁estrela	-9.54619
▁País	-9.54624
▁sessão	-9.5469
▁Euro	-9.54691
▁Arena	-9.547
▁Falta	-9.54726
▁disse	-9.54728
▁barra	-9.54755
rói	-9.54776
▁Bruno	-9.5479
▁Lima	-9.54811
▁MS	-9.54865
▁carne	-9.54882
▁mandato	-9.54895
mail	-9.54897
▁metade	-9.54925
▁afastamento	-9.5493
▁verde	-9.54977
▁jogador	-9.55113
cho	-9.55121
▁Ita	-9.55156
▁monta	-9.55175
ok	-9.55227
▁mão	-9.5539
▁boas	-9.55403
▁bu	-9.55444
▁21	-9.55505
ent	-9.55533
ndido	-9.55542
▁falhas	-9.55657
lismo	-9.559
▁noite	-9.5592
ento	-9.55986
▁Mil	-9.56514
▁cem	-9.56829
▁Inter	-9.57114
▁meu	-9.5714
▁virada	-9.57148
ac	-9.57228
▁importa	-9.57283
▁ministério	-9.57361
▁recurso	-9.57484
▁classifica	-9.57546
▁investigar	-9.57749
▁Morador	-9.5789
▁Ab	-9.57899
▁Barcelona	-9.57949
▁Dirceu	-9.57949
▁Metrô	-9.57949
▁Morumbi	-9.57949
▁concentra	-9.57949
▁concessões	-9.57949
▁convenção	-9.57949
▁fronteira	-9.57949
▁econômico	-9.57949
▁arquiva	-9.57949
▁exibe	-9.57949
▁conselho	-9.57951
▁Virada	-9.57952
▁Natal	-9.57953
▁Chile	-9.5798
▁teme	-9.57998
▁guia	-9.58011
▁Impeachment	-9.58035
nder	-9.58035
▁povo	-9.5804
▁Vai	-9.58048
▁Manifestante	-9.58115
nge	-9.58159
▁Thro	-9.58161
▁papa	-9.5819
▁viaja	-9.58192
▁Tra	-9.58202
▁campeão	-9.58353
▁dupla	-9.58369
▁Aliado	-9.5837
▁pra	-9.58396
▁dança	-9.58399
▁sabe	-9.58401
▁principal	-9.58528
▁além	-9.58531
▁ho	-9.58537
▁financeira	-9.58597
▁contratos	-9.58657
▁Flam	-9.58697
▁drogas	-9.58709
7%	-9.5882
▁assalto	-9.59004
▁olho	-9.59005
▁salvar	-9.59167
▁j	-9.59182
▁seja	-9.59189
▁passado	-9.59214
▁col	-9.59298
▁rever	-9.59354
▁Gui	-9.594
▁Israel	-9.59484
iana	-9.59521
zar	-9.5969
▁acaba	-9.59753
▁fun	-9.59887
▁MG	-9.59946
▁bal	-9.59968
▁votar	-9.60186
▁perda	-9.60216
▁modern	-9.60276
▁empat	-9.60307
inco	-9.60509
ini	-9.60615
▁Dias	-9.60838
9%	-9.60876
ron	-9.60944
elho	-9.61252
▁oficial	-9.61353
liza	-9.6139
▁Tóquio	-9.61397
▁Carnaval	-9.61397
▁Indústria	-9.61397
▁Kirchner	-9.61397
▁Rouanet	-9.61397
▁acumula	-9.61397
▁censura	-9.61397
▁democrata	-9.61397
▁incerteza	-9.61397
▁próprio	-9.61397
▁sigilo	-9.61397
▁oportunidade	-9.61397
▁racismo	-9.61397
▁digital	-9.61397
▁treino	-9.61397
▁invade	-9.61398
▁gênero	-9.61399
▁ditadura	-9.61399
▁Plano	-9.614
▁Branca	-9.61405
▁poupa	-9.61406
▁aberta	-9.61411
▁Restaurante	-9.61425
▁oeste	-9.61426
▁Cruzeiro	-9.6143
▁cães	-9.61442
▁exibi	-9.61445
▁tratamento	-9.61486
▁atleta	-9.61501
idos	-9.6151
▁prata	-9.61558
▁sinaliza	-9.61565
▁Elei	-9.61576
▁Carro	-9.61679
▁posto	-9.62137
▁fogo	-9.6219
▁entrada	-9.62198
▁verão	-9.6221
bal	-9.62244
pensão	-9.6225
▁mat	-9.62377
▁cena	-9.62466
▁única	-9.62546
rês	-9.62595
ense	-9.62605
▁antecipa	-9.62637
▁põe	-9.62669
▁sal	-9.6271
▁35	-9.62725
▁atenção	-9.62729
iti	-9.6274
▁diferentes	-9.62759
den	-9.62832
lio	-9.62998
▁acabar	-9.63079
▁afasta	-9.63203
▁Economi	-9.63304
▁renegocia	-9.63351
iga	-9.63601
▁1%	-9.63706
ilha	-9.63799
▁Aprend	-9.63825
▁reformas	-9.63892
▁interna	-9.63906
▁Brasileira	-9.64064
▁artistas	-9.64066
▁perdeu	-9.64147
ando	-9.64198
▁nota	-9.64378
▁terceir	-9.64503
▁apoiar	-9.64545
▁Ze	-9.64589
▁atual	-9.64598
▁Tom	-9.64636
▁fal	-9.64701
▁paulista	-9.64705
▁cont	-9.64752
▁foto	-9.64754
▁presen	-9.64883
▁y	-9.64909
▁negros	-9.64947
▁Incêndio	-9.64969
▁JBS	-9.64969
▁Salvador	-9.64969
▁dificuldade	-9.64969
▁infantil	-9.64969
▁italiano	-9.64969
▁móveis	-9.64969
▁prorroga	-9.64969
Aquarius	-9.64969
▁aposentadoria	-9.64969
▁John	-9.64969
▁promessa	-9.64969
▁Sanders	-9.64969
▁menina	-9.64969
▁ambiental	-9.6497
▁samba	-9.6497
▁boxe	-9.6497
▁referendo	-9.6497
▁instala	-9.64977
▁atrações	-9.64979
▁desafia	-9.64979
▁cerca	-9.64979
▁Conta	-9.6498
▁viagens	-9.64981
▁veto	-9.6501
▁visto	-9.65015
▁subir	-9.65064
▁recorre	-9.651
▁seguir	-9.65214
▁Corte	-9.65225
▁professores	-9.6525
▁Roberto	-9.65256
▁Mulheres	-9.65262
▁aluguel	-9.6532
ática	-9.65341
▁investigado	-9.65349
▁privado	-9.65387
MI	-9.65411
▁construção	-9.65427
▁rodada	-9.65452
▁contrata	-9.65486
▁Protesto	-9.65504
oca	-9.65552
PT	-9.65559
▁áreas	-9.65611
▁líderes	-9.65621
▁Super	-9.65651
▁melhora	-9.65692
▁toda	-9.65721
by	-9.65807
▁desafios	-9.65983
▁atividade	-9.66028
▁Lucr	-9.66036
▁pé	-9.66309
▁comenta	-9.66325
▁fo	-9.66384
lidade	-9.66497
nho	-9.66519
▁cal	-9.66617
ger	-9.66992
▁ti	-9.67015
▁recupera	-9.6703
ny	-9.67056
ow	-9.6737
▁90	-9.67518
▁públicas	-9.67521
▁salva	-9.67589
inhos	-9.67631
tina	-9.67648
▁retomar	-9.67958
▁Gold	-9.67993
▁produtor	-9.68013
▁Autor	-9.68321
▁programas	-9.68457
▁inédita	-9.68491
▁russo	-9.68534
▁imposto	-9.68535
▁problema	-9.68579
▁cole	-9.68639
scritório	-9.68672
▁Aplicativo	-9.68672
▁Apple	-9.68672
▁Havelange	-9.68672
▁confronto	-9.68672
▁diminui	-9.68672
▁francesa	-9.68672
▁incêndio	-9.68672
▁órgão	-9.68672
▁Campeões	-9.68672
▁industrial	-9.68672
▁setembro	-9.68672
▁turco	-9.68672
▁aparece	-9.68672
▁impacto	-9.68672
▁Museu	-9.68673
▁ordem	-9.68675
▁identifica	-9.68675
▁velho	-9.68675
▁ilegal	-9.68675
▁ciclovia	-9.68677
▁Farc	-9.68678
▁suposto	-9.68681
▁altera	-9.68681
▁responde	-9.68681
▁2014	-9.68683
▁Decis	-9.68694
▁bons	-9.68765
▁Zé	-9.68768
▁exposição	-9.68785
▁antigo	-9.68797
stado	-9.68807
▁Funda	-9.68843
▁chefia	-9.68862
▁pago	-9.68875
▁servidores	-9.68893
▁investigações	-9.68911
▁Bra	-9.68981
▁espetáculo	-9.68991
▁destaca	-9.69046
▁site	-9.69071
▁Barb	-9.69136
amos	-9.69171
▁legado	-9.69175
▁Fal	-9.692
▁elevar	-9.69281
▁pu	-9.69288
▁algu	-9.69362
▁We	-9.69403
▁renova	-9.69491
▁emociona	-9.69569
▁gols	-9.69585
essão	-9.69664
▁ampliar	-9.69798
▁governa	-9.6982
▁Bi	-9.69913
▁Cuc	-9.69919
▁atriz	-9.6993
▁recuperar	-9.69935
▁RS	-9.69935
▁multas	-9.70193
▁resultados	-9.70505
▁crimes	-9.7051
áveis	-9.70548
▁toma	-9.70875
▁Si	-9.70945
▁Jam	-9.71117
▁Mal	-9.71217
nci	-9.71383
▁analisa	-9.71525
can	-9.71581
zinho	-9.7163
▁Chef	-9.71749
▁amigos	-9.71866
ara	-9.71874
▁explos	-9.71934
igo	-9.72027
ér	-9.72044
▁roda	-9.7216
ester	-9.72173
vit	-9.7239
▁loca	-9.7251
▁Assembleia	-9.72518
▁Cristóvão	-9.72518
▁Exército	-9.72518
▁Política	-9.72518
▁Preço	-9.72518
▁cracolândia	-9.72518
▁desempenho	-9.72518
▁experiência	-9.72518
▁madruga	-9.72518
▁português	-9.72518
▁projeta	-9.72518
▁turno	-9.72518
▁véspera	-9.72518
▁Micale	-9.72519
▁alcança	-9.72519
▁retorna	-9.72519
▁carioca	-9.72519
▁Sába	-9.7252
▁Preto	-9.72521
▁vantagem	-9.72521
▁Bueno	-9.72522
▁entidade	-9.72523
▁renúncia	-9.72524
▁obriga	-9.72525
▁veem	-9.72527
▁nível	-9.72527
▁maratona	-9.72531
▁tensão	-9.72532
▁abril	-9.72536
▁gasta	-9.72536
▁negro	-9.72543
▁muita	-9.72555
▁rio	-9.72562
▁ciência	-9.72579
▁licitação	-9.72605
▁Mariana	-9.72665
▁conheça	-9.72674
▁Pres	-9.72684
▁senador	-9.72802
▁assessor	-9.72815
▁turismo	-9.72815
SS	-9.72841
▁PE	-9.72847
▁minha	-9.72873
▁privada	-9.72924
▁procura	-9.72971
▁RN	-9.72975
▁premiada	-9.73006
▁Caso	-9.73008
▁San	-9.73022
tória	-9.73132
▁Deus	-9.73273
▁trava	-9.73292
▁RJ	-9.73305
▁Medi	-9.73329
▁acelera	-9.73331
▁efeito	-9.73357
ual	-9.73422
▁usado	-9.73497
posta	-9.73521
▁apartamento	-9.73524
fica	-9.73698
▁encontrado	-9.73753
eta	-9.73811
rez	-9.73833
▁alemão	-9.73862
▁precisam	-9.73981
▁27	-9.74262
▁nu	-9.74284
▁cortar	-9.74311
▁amor	-9.74429
▁Pen	-9.74449
▁toca	-9.74453
▁Preso	-9.7446
▁He	-9.74547
▁80	-9.74588
bomba	-9.74871
▁ator	-9.74971
▁assina	-9.75139
izado	-9.75188
▁resgata	-9.75215
ya	-9.75239
▁divide	-9.75328
▁planos	-9.75484
▁fecham	-9.75561
cusação	-9.75564
▁restaurantes	-9.75743
▁participa	-9.75761
Star	-9.75802
ence	-9.75836
▁pedi	-9.75839
dura	-9.76034
▁profissional	-9.76082
▁delator	-9.76284
men	-9.76355
rêmio	-9.7643
frica	-9.7644
▁Gu	-9.76486
▁Estudante	-9.76518
▁Investiga	-9.76518
▁Nuzman	-9.76518
▁imigrantes	-9.76518
▁inglês	-9.76518
▁profissionais	-9.76518
▁vestibular	-9.76518
▁Segurança	-9.76519
▁Suíça	-9.76519
▁branco	-9.76519
▁escândalo	-9.76519
▁surpreende	-9.76519
▁Putin	-9.76519
▁conversa	-9.76519
▁rivais	-9.76519
▁externa	-9.76519
▁passageiros	-9.76519
▁Imposto	-9.76519
▁Cielo	-9.76519
▁estatais	-9.76519
▁conhece	-9.76519
▁Delator	-9.7652
▁fatura	-9.76521
▁isola	-9.76522
▁fracasso	-9.76523
▁conteúdo	-9.76527
▁recessão	-9.76527
▁objetos	-9.7653
▁migrantes	-9.76532
▁milhares	-9.76532
▁sugest	-9.76536
▁pratos	-9.76555
▁Promotoria	-9.76569
▁favorito	-9.7657
▁Peça	-9.76571
▁Técnico	-9.76577
dice	-9.7659
▁Mur	-9.76632
▁Lob	-9.76635
▁motivo	-9.76663
▁russos	-9.76668
▁impostos	-9.76668
▁Mega	-9.76669
▁indicam	-9.76675
▁nadadores	-9.76781
iência	-9.76824
▁expectativa	-9.76864
▁pen	-9.76929
▁fac	-9.76955
▁treina	-9.76973
▁Santo	-9.77005
▁antiga	-9.77027
▁queima	-9.7703
▁homenagem	-9.77041
▁Esp	-9.77046
ard	-9.77129
▁histórias	-9.77161
▁Fies	-9.7718
▁transmiss	-9.77262
▁prejudica	-9.77264
▁St	-9.77278
▁caos	-9.77284
▁considera	-9.77306
eia	-9.77306
▁irmão	-9.77413
▁indi	-9.77424
aga	-9.77493
▁Belo	-9.77584
cla	-9.77723
▁pesquisador	-9.77994
▁at	-9.78095
▁auto	-9.78174
ide	-9.7828
▁custa	-9.78294
▁públicos	-9.78464
▁esperado	-9.78509
pos	-9.78565
▁fic	-9.78653
▁pop	-9.78804
▁pesa	-9.78887
▁sol	-9.79011
▁local	-9.7902
▁contrato	-9.79235
éria	-9.79344
▁espanhol	-9.79596
ep	-9.79792
nc	-9.79799
ários	-9.79964
▁aéreas	-9.79982
Renda	-9.79987
▁Gi	-9.80127
nica	-9.80181
▁exporta	-9.80293
▁proibi	-9.80294
til	-9.80573
Q	-9.80617
▁Bradesco	-9.80685
▁Djokovic	-9.80685
▁Grécia	-9.80685
▁Shopping	-9.80685
▁alternativa	-9.80685
▁assédio	-9.80685
▁gratuito	-9.80685
▁publicidade	-9.80685
▁reconhece	-9.80685
▁sábado	-9.80685
▁século	-9.80685
▁técnica	-9.80685
▁Guerra	-9.80685
▁bloquea	-9.80685
▁despenca	-9.80685
▁gigante	-9.80685
▁traficante	-9.80685
▁EBC	-9.80685
▁Movimento	-9.80685
▁café	-9.80685
▁trens	-9.80685
▁texto	-9.80686
▁Brazilian	-9.80686
▁Fotógraf	-9.80686
▁suspensão	-9.80686
▁Ganso	-9.80686
▁direção	-9.80686
▁réu	-9.80687
▁Prass	-9.80688
▁surpresa	-9.80688
▁alimentos	-9.80688
▁Castro	-9.80695
▁atrás	-9.80695
▁audiência	-9.80698
▁houve	-9.807
ês	-9.80709
▁micro	-9.80711
▁elite	-9.80732
▁Trans	-9.80733
▁presídio	-9.80734
▁Grêmio	-9.80734
var	-9.80805
▁Mich	-9.80953
tração	-9.80976
ión	-9.81003
eto	-9.81034
▁dúvida	-9.81042
▁separa	-9.81052
▁vinho	-9.81063
▁petista	-9.81064
▁permiti	-9.81081
▁aliado	-9.81089
▁Rafaela	-9.81093
▁paulistano	-9.81143
▁voo	-9.81162
▁topo	-9.81195
▁New	-9.81212
▁extra	-9.81226
▁May	-9.81242
▁tornar	-9.81334
estre	-9.81342
bro	-9.81423
▁publicado	-9.81483
▁Senador	-9.81652
▁Chefe	-9.81752
▁3,2	-9.81811
▁av	-9.81878
▁motoristas	-9.81905
cto	-9.81967
▁Bel	-9.82017
▁doação	-9.82066
▁Sergi	-9.82146
▁brasileiras	-9.82231
▁Wal	-9.82398
▁ativos	-9.8242
▁desacelera	-9.8243
ach	-9.82594
ty	-9.82809
cci	-9.83016
▁nomes	-9.83047
▁propostas	-9.83188
▁Ser	-9.8348
,5%	-9.8358
▁Tu	-9.83753
▁0	-9.83783
ácio	-9.84091
▁relato	-9.84113
vida	-9.84114
heiros	-9.8415
▁poucos	-9.8437
ell	-9.84385
▁situa	-9.84407
ães	-9.84535
▁viver	-9.8457
ero	-9.84597
▁dúvidas	-9.84662
▁voos	-9.8468
▁viajar	-9.8476
ró	-9.84782
▁lev	-9.84874
gro	-9.84895
▁cri	-9.85013
▁multi	-9.85024
▁2012	-9.85033
▁Amazônia	-9.85033
▁Caetano	-9.85033
▁Civil	-9.85033
▁Futebol	-9.85033
▁Inglaterra	-9.85033
▁LGBT	-9.85033
▁Primeiro	-9.85033
▁atrapalha	-9.85033
▁autônomo	-9.85033
▁crítico	-9.85033
▁estimula	-9.85033
▁estratégia	-9.85033
▁estrutura	-9.85033
▁handebol	-9.85033
▁liberdade	-9.85033
▁microcefalia	-9.85033
▁periferia	-9.85033
▁preconceito	-9.85033
▁renuncia	-9.85033
▁suspensa	-9.85033
▁titular	-9.85033
▁tráfico	-9.85033
▁Audax	-9.85033
▁CCJ	-9.85033
▁alimenta	-9.85033
▁eventua	-9.85033
▁impulsiona	-9.85033
▁Campanha	-9.85033
▁Bahia	-9.85033
▁população	-9.85033
▁racial	-9.85033
▁Dupla	-9.85033
▁OAS	-9.85034
▁avanço	-9.85034
▁interesse	-9.85034
▁administra	-9.85034
▁sindicato	-9.85034
▁indeniza	-9.85036
▁cirurgia	-9.85036
▁seguida	-9.85036
▁retorno	-9.85037
▁diálogo	-9.85037
▁tributo	-9.85038
▁lixo	-9.85043
▁República	-9.85047
▁Bill	-9.85049
▁gosta	-9.85051
▁cobertura	-9.85053
▁Centro	-9.85054
▁entender	-9.85062
▁limpa	-9.85068
▁ponta	-9.85073
▁Chico	-9.85099
▁Exposição	-9.85115
▁Parente	-9.85126
elso	-9.85126
▁paraolímpico	-9.85154
▁seguido	-9.85159
▁Secretário	-9.85198
val	-9.85199
▁esconde	-9.85203
▁perdem	-9.85203
▁roteiro	-9.85276
ael	-9.85289
fusão	-9.85379
▁servidor	-9.85444
▁ficção	-9.85462
pon	-9.85553
enho	-9.85595
▁empresário	-9.85611
▁fila	-9.85675
▁civil	-9.85742
rei	-9.85747
esp	-9.85753
▁dobra	-9.85795
finais	-9.8585
▁Jan	-9.86031
▁eliminado	-9.86144
▁atrae	-9.86153
junto	-9.86163
▁Art	-9.86173
bate	-9.8626
▁terceiro	-9.86348
▁bola	-9.86462
▁casamento	-9.86523
ólogo	-9.86733
fund	-9.87209
▁quente	-9.8723
00	-9.8733
▁partida	-9.8746
unda	-9.87544
dições	-9.87679
▁posição	-9.8782
ologia	-9.87939
tenção	-9.88048
▁criador	-9.8814
emos	-9.88272
põe	-9.88277
vio	-9.88564
▁Nos	-9.88596
▁carrega	-9.88694
▁const	-9.88708
▁pet	-9.8871
▁trabalha	-9.88719
▁pe	-9.88757
▁clientes	-9.88817
▁Cade	-9.88927
▁Ros	-9.89038
La	-9.89417
ficit	-9.8951
▁aplica	-9.89541
nflação	-9.89566
▁blog	-9.8957
responsabilidade	-9.89578
▁Bernardinho	-9.89578
▁Curitiba	-9.89578
▁Pacaembu	-9.89578
▁Primeira	-9.89578
▁Rousseff	-9.89578
▁Shakespeare	-9.89578
▁Uruguai	-9.89578
▁Zanetti	-9.89578
▁adversário	-9.89578
▁assistir	-9.89578
▁beleza	-9.89578
▁faixa	-9.89578
▁gastronomia	-9.89578
▁igreja	-9.89578
▁negra	-9.89578
▁piscina	-9.89578
▁revezamento	-9.89578
▁rodovia	-9.89578
▁semifinal	-9.89578
▁silêncio	-9.89578
▁suspenso	-9.89578
▁torneio	-9.89578
▁Mudança	-9.89579
▁cautela	-9.89579
▁palestra	-9.89579
▁Pimentel	-9.89579
▁espalha	-9.89579
▁vazamento	-9.89579
▁Pessoa	-9.89579
▁garoto	-9.89579
▁manobra	-9.89579
▁Jorge	-9.89579
▁resiste	-9.89579
▁Sexta	-9.89579
▁prática	-9.89579
▁Egito	-9.89579
▁baleado	-9.89579
▁Motorista	-9.8958
▁controla	-9.89581
▁contesta	-9.89582
David	-9.89583
▁chapa	-9.89583
▁gosto	-9.89583
▁total	-9.89585
▁leilão	-9.89586
▁rombo	-9.89588
▁estima	-9.89589
▁Moreira	-9.89589
▁qualidade	-9.89591
▁financiamento	-9.89597
▁escritor	-9.89621
▁Carlos	-9.89626
▁Policia	-9.89642
▁torcedores	-9.89668
▁decreta	-9.89669
▁morador	-9.89674
▁repatriação	-9.897
▁homenageia	-9.89709
▁vela	-9.89746
▁cere	-9.8984
▁fria	-9.89874
▁MP	-9.89918
▁Sol	-9.89969
▁bloco	-9.89981
▁embaixador	-9.89983
▁Meta	-9.90009
▁positivo	-9.9001
▁Site	-9.90051
▁defini	-9.90064
▁fro	-9.90145
▁ger	-9.90217
▁aproveita	-9.90228
▁voz	-9.90251
▁Rom	-9.90258
▁Ver	-9.90307
▁cliente	-9.90346
▁aérea	-9.90354
▁PC	-9.90375
▁amigo	-9.90382
▁normal	-9.90431
▁Cultural	-9.90439
▁lote	-9.90452
▁ideias	-9.90524
▁relator	-9.90564
tivos	-9.90587
lson	-9.90617
ley	-9.90792
▁rota	-9.90798
prova	-9.90839
irá	-9.91107
Sena	-9.91111
▁clássicos	-9.9117
▁minutos	-9.91206
▁organiza	-9.91277
▁estudantes	-9.91299
▁mercados	-9.9146
eiras	-9.91513
ling	-9.91518
▁recusa	-9.91545
▁nadador	-9.91615
▁Bom	-9.91642
▁orienta	-9.91711
▁Pu	-9.91723
▁lucra	-9.91835
▁ignora	-9.91855
▁vin	-9.91878
▁melhorar	-9.9193
lé	-9.92173
▁Val	-9.9218
anto	-9.92338
▁Pan	-9.92377
▁provas	-9.9251
▁26	-9.92552
▁Pai	-9.92596
▁Bal	-9.92806
▁bol	-9.92819
van	-9.92829
▁nosso	-9.92945
▁bebês	-9.92956
▁Nem	-9.9304
▁mon	-9.93176
▁chegam	-9.93304
cidade	-9.93359
bil	-9.93377
▁desa	-9.93389
▁autoridade	-9.93506
dica	-9.93722
▁sobrevive	-9.93915
▁vacina	-9.93934
▁euro	-9.93943
▁sab	-9.94109
▁Wil	-9.94117
▁Silvi	-9.94232
ministra	-9.94339
▁apartamentos	-9.94339
▁Feliciano	-9.9434
▁Prince	-9.9434
▁Tesouro	-9.9434
▁bloqueia	-9.9434
▁cientista	-9.9434
▁conclui	-9.9434
▁câmbio	-9.9434
▁distância	-9.9434
▁espécie	-9.9434
▁esvazia	-9.9434
▁infantis	-9.9434
▁jazz	-9.9434
▁literatura	-9.9434
▁outubro	-9.9434
▁prisões	-9.9434
▁tarifa	-9.9434
▁táxi	-9.9434
▁volume	-9.9434
▁árvore	-9.9434
▁canoagem	-9.9434
▁Chuva	-9.94341
▁Equipe	-9.94341
▁Relator	-9.94341
▁reflete	-9.94341
▁russa	-9.94341
▁aborda	-9.94341
▁COB	-9.94341
▁Cabral	-9.94341
▁concede	-9.94342
▁investir	-9.94342
ambul	-9.94343
▁escala	-9.94344
▁rock	-9.94344
▁mistura	-9.94346
▁novidade	-9.94347
▁tabu	-9.94354
▁goleia	-9.94358
▁documentário	-9.94359
▁feriado	-9.94359
▁direit	-9.94366
▁comanda	-9.94377
▁Economista	-9.94382
▁calor	-9.94401
▁Nadador	-9.94421
ltimo	-9.9443
▁esperança	-9.94441
▁perman	-9.94444
amargo	-9.94445
▁demite	-9.9445
▁Aires	-9.94528
▁expansão	-9.94571
▁desemprego	-9.94629
▁Melo	-9.94638
▁Segunda	-9.9484
▁Embra	-9.94905
▁Cá	-9.94936
▁1.	-9.94942
erança	-9.95014
nch	-9.95014
▁cartu	-9.95167
▁decora	-9.95211
▁certo	-9.95229
▁reserva	-9.95303
▁unidade	-9.95308
▁coisa	-9.95347
▁terroristas	-9.95373
▁atirador	-9.9538
▁Morte	-9.95424
▁Pas	-9.95439
▁menores	-9.95532
▁Ad	-9.95542
▁outro	-9.95675
▁Esta	-9.95958
400	-9.95963
▁afastar	-9.96034
▁momentos	-9.96166
▁desculpas	-9.96197
len	-9.96203
▁Dro	-9.96258
una	-9.96374
▁enfrentar	-9.9638
▁cumprir	-9.96444
▁Médicos	-9.96476
ux	-9.96512
gun	-9.96582
▁benefícios	-9.96659
▁Fora	-9.96677
rinha	-9.96822
emana	-9.97136
▁aval	-9.97148
ngu	-9.97151
▁entrar	-9.97214
▁Candidatos	-9.97684
K	-9.97692
▁ten	-9.97827
▁fu	-9.97899
▁Par	-9.98033
▁Santan	-9.98063
▁coisas	-9.98304
▁entregar	-9.98409
▁explicar	-9.98595
enrique	-9.98658
mais	-9.98691
▁aprender	-9.98919
ice	-9.98943
▁una	-9.98974
▁comercia	-9.98984
vez	-9.98985
▁Federa	-9.98997
let	-9.9902
▁Rog	-9.99272
remiê	-9.99299
▁Villa	-9.99324
▁regula	-9.9934
brexit	-9.9934
▁Amazon	-9.9934
▁Guarulhos	-9.9934
▁Lewandowski	-9.9934
▁Queiroz	-9.9934
▁Suplicy	-9.9934
▁agressão	-9.9934
▁antidoping	-9.9934
▁artística	-9.9934
▁beneficia	-9.9934
▁consulta	-9.9934
▁deficiência	-9.9934
▁gaúch	-9.9934
▁iPhone	-9.9934
▁liminar	-9.9934
▁recomenda	-9.9934
▁trânsito	-9.9934
▁Esporte	-9.9934
▁Padilha	-9.9934
▁SUS	-9.9934
▁batalha	-9.9934
▁médio	-9.9934
▁quadro	-9.9934
▁trailer	-9.9934
▁regime	-9.99341
▁roubo	-9.99341
▁chinesa	-9.99341
▁gripe	-9.99341
▁ritmo	-9.99341
▁pedra	-9.99341
▁OEA	-9.99341
▁start	-9.99341
▁ruim	-9.99341
▁Nobel	-9.99341
▁Fartura	-9.99341
▁cogita	-9.99341
▁horário	-9.99341
▁Canadá	-9.99342
▁corrida	-9.99342
▁rotina	-9.99342
▁exonera	-9.99342
▁itens	-9.99343
▁japonês	-9.99344
▁Internacional	-9.99345
▁Torcedor	-9.99346
▁rumo	-9.99349
▁Estudo	-9.9935
▁Acordo	-9.99351
▁sociedade	-9.99352
▁Record	-9.99353
▁dengue	-9.99353
▁vereador	-9.99358
▁sexo	-9.99369
▁tanto	-9.99379
▁banda	-9.99411
▁pasta	-9.99418
▁Martin	-9.99442
▁falso	-9.99455
▁juízes	-9.99459
▁atende	-9.99472
▁negativo	-9.9949
▁pessoal	-9.99538
▁Programa	-9.99558
▁candidata	-9.99558
aída	-9.99561
▁Governador	-9.99591
▁10%	-9.99627
▁fre	-9.99693
▁comercial	-9.99702
lher	-9.99728
▁3,5	-9.99747
▁drama	-9.9982
▁nove	-9.99827
▁classificação	-9.99952
mann	-9.9996
▁doença	-10.0001
▁Barra	-10.0004
▁lugares	-10.0004
▁Monte	-10.0007
▁manhã	-10.0017
▁bandeira	-10.0017
▁passage	-10.0017
▁chi	-10.0027
▁Arte	-10.0034
monia	-10.0035
lula	-10.0045
deiro	-10.0052
▁reage	-10.0053
▁década	-10.0055
▁artista	-10.0066
▁Dez	-10.0069
▁pequenos	-10.0071
▁remo	-10.0089
▁donos	-10.01
▁gays	-10.0103
▁45	-10.011
▁3,3	-10.012
iam	-10.0121
▁Fundos	-10.014
▁Sch	-10.0144
ila	-10.0146
▁cortes	-10.015
▁Ist	-10.016
▁Vida	-10.0171
lon	-10.0177
▁respostas	-10.0178
▁Rosa	-10.0182
▁atropela	-10.0197
▁humanos	-10.0206
▁pesquisas	-10.0209
▁reta	-10.021
▁nasce	-10.0212
top	-10.0213
▁erra	-10.0216
▁Pokémon	-10.0219
▁IN	-10.0237
eniência	-10.0238
▁rap	-10.0241
▁sede	-10.0266
ética	-10.0284
aldo	-10.0289
▁ajud	-10.0292
assalto	-10.0295
quanto	-10.0295
golpe	-10.0297
▁Cata	-10.0299
Temer	-10.0303
▁massa	-10.0316
▁Doi	-10.0318
▁processa	-10.0321
▁Ben	-10.0338
▁delações	-10.0341
Me	-10.0346
▁olímpicos	-10.0355
▁compartilha	-10.0357
Est	-10.0369
▁n	-10.0373
▁ouvi	-10.0378
▁Out	-10.0396
▁decidir	-10.0398
ório	-10.0405
▁pô	-10.0421
▁olímpicas	-10.0425
.000	-10.0438
▁ó	-10.0446
▁manifesta	-10.0447
▁Procurador	-10.0448
uru	-10.0449
70	-10.0458
▁Aleppo	-10.046
▁Collor	-10.046
▁Copacabana	-10.046
▁Geddel	-10.046
▁Gleisi	-10.046
▁IBGE	-10.046
▁Professor	-10.046
▁ativista	-10.046
▁culinári	-10.046
▁empréstimo	-10.046
▁extinção	-10.046
▁histórica	-10.046
▁incentiva	-10.046
▁interrompe	-10.046
▁limpeza	-10.046
▁projeção	-10.046
▁roupas	-10.046
▁Calleri	-10.046
▁PGR	-10.046
▁Soares	-10.046
▁licença	-10.046
▁mídia	-10.046
▁pergunta	-10.046
▁AGU	-10.046
▁Franco	-10.046
▁respeito	-10.046
▁índice	-10.046
▁camisa	-10.046
▁aéreo	-10.046
▁Armadas	-10.046
▁Entre	-10.046
▁Greve	-10.046
▁documentos	-10.046
▁razão	-10.046
▁impedir	-10.046
▁perdida	-10.046
▁apertura	-10.046
▁vendido	-10.0461
▁Bellu	-10.0461
▁diferença	-10.0461
▁Servidor	-10.0461
▁barato	-10.0461
▁sócio	-10.0461
▁Jogador	-10.0462
▁passe	-10.0463
▁comunicação	-10.0463
▁etapa	-10.0463
▁sequência	-10.0463
▁lesão	-10.0464
▁perfil	-10.0464
▁solução	-10.0464
▁demissões	-10.0465
▁inten	-10.0465
▁cadeira	-10.0466
▁fere	-10.0466
▁visão	-10.0466
▁Cinema	-10.0469
▁coração	-10.0472
▁caminhão	-10.0472
▁leitura	-10.0473
▁questão	-10.0475
▁Esca	-10.0476
▁impress	-10.0476
cke	-10.0484
▁tinha	-10.0484
▁Setor	-10.0484
▁BR	-10.0486
▁interno	-10.0486
▁Pais	-10.049
▁paulistana	-10.0491
▁esperar	-10.0491
inheiro	-10.0494
ápio	-10.0501
▁comunidade	-10.0501
▁boate	-10.0504
lle	-10.0508
ega	-10.0514
ight	-10.0534
▁trabalhar	-10.0535
▁apreende	-10.0539
▁governador	-10.0556
▁cartun	-10.0564
lista	-10.0573
▁mãos	-10.0573
▁negociação	-10.0574
-1	-10.0579
▁queria	-10.0601
▁aula	-10.0604
▁analistas	-10.0605
▁bebê	-10.0616
No	-10.0626
▁28	-10.0629
▁can	-10.064
▁san	-10.0666
▁executivo	-10.0671
▁igual	-10.0687
▁informa	-10.0692
▁negociar	-10.0699
▁Fla	-10.0719
▁preve	-10.0739
▁remédios	-10.0741
ting	-10.0749
gh	-10.076
▁ricos	-10.0766
▁gestor	-10.0772
▁investimentos	-10.0776
ray	-10.0798
otel	-10.0798
▁próximos	-10.0799
▁liberado	-10.0799
enso	-10.0804
▁gal	-10.0811
▁leitora	-10.083
▁motor	-10.0843
▁AB	-10.0852
▁Rose	-10.0857
▁enfrentam	-10.0858
▁Los	-10.0875
▁chamar	-10.0876
ocha	-10.0886
▁Grand	-10.0892
empre	-10.0907
eral	-10.0914
▁Dua	-10.0931
▁aproveitar	-10.0938
nima	-10.0938
▁filas	-10.0943
▁29	-10.0945
▁Tor	-10.0959
▁vinhos	-10.0971
▁petistas	-10.0974
Bo	-10.0976
lações	-10.0992
▁recorrer	-10.0996
▁personage	-10.1012
ransparência	-10.1014
▁Alegre	-10.1016
▁Flórida	-10.1016
▁Goiás	-10.1016
▁Jardim	-10.1016
▁Lúcia	-10.1016
▁Madalena	-10.1016
▁Merkel	-10.1016
▁Minuto	-10.1016
▁Opening	-10.1016
▁Quinta	-10.1016
▁Twitter	-10.1016
▁Volkswagen	-10.1016
▁colunista	-10.1016
▁companhia	-10.1016
▁competir	-10.1016
▁dribla	-10.1016
▁eletrônico	-10.1016
▁empreiteira	-10.1016
▁envolve	-10.1016
▁indígena	-10.1016
▁nuclear	-10.1016
▁opositor	-10.1016
▁sangue	-10.1016
▁secretaria	-10.1016
▁testemunha	-10.1016
▁tribuna	-10.1016
▁circula	-10.1016
▁jantar	-10.1016
▁máquina	-10.1016
▁preserva	-10.1016
▁MEC	-10.1016
▁Parlamento	-10.1016
▁exempl	-10.1016
▁pretende	-10.1016
▁Felip	-10.1016
▁peixe	-10.1016
▁classe	-10.1016
▁Disney	-10.1016
▁Eleitoral	-10.1016
▁poesia	-10.1016
▁cadeia	-10.1016
▁seguro	-10.1016
▁Souza	-10.1016
▁passaporte	-10.1016
ricular	-10.1016
▁favorece	-10.1016
▁complica	-10.1016
▁elenco	-10.1016
▁firma	-10.1016
▁nós	-10.1016
▁retrato	-10.1016
▁calote	-10.1016
▁irrita	-10.1016
▁revisa	-10.1016
▁talento	-10.1016
▁grave	-10.1016
▁partidos	-10.1016
▁discussão	-10.1017
▁divis	-10.1017
▁pouca	-10.1017
▁sonha	-10.1017
▁atingir	-10.1017
▁Aluno	-10.1017
▁aviões	-10.1017
▁Nadal	-10.1017
▁estrada	-10.1017
▁Constituição	-10.1017
▁graça	-10.1018
▁capta	-10.1018
▁Gomes	-10.1018
▁abort	-10.1018
▁oitavas	-10.102
▁banca	-10.1021
▁usada	-10.1022
▁interino	-10.1024
escreve	-10.1025
justa	-10.1026
▁demanda	-10.1026
▁Quadrão	-10.1026
▁investidores	-10.1026
▁praça	-10.1026
▁falsa	-10.1026
▁tipo	-10.1027
▁frear	-10.1028
▁trabalhadores	-10.1031
ité	-10.1032
▁foco	-10.1032
▁30%	-10.1033
▁trama	-10.1035
▁desvio	-10.1041
▁cartaz	-10.1043
▁caça	-10.1044
▁saiba	-10.1049
▁Hamilton	-10.105
▁floresta	-10.1052
▁sobem	-10.1065
▁articula	-10.1069
▁Consu	-10.1071
▁Quarta	-10.1072
▁num	-10.1073
▁atacante	-10.1079
fter	-10.1082
▁Base	-10.1091
,6%	-10.1091
▁narra	-10.1096
▁cultural	-10.1106
▁Qual	-10.111
▁Ke	-10.1117
▁obt	-10.1119
landês	-10.1129
ixou	-10.113
▁lançar	-10.114
ecu	-10.1141
hamm	-10.1147
▁avançam	-10.1147
han	-10.115
▁Men	-10.1155
▁Manch	-10.1161
▁depor	-10.1166
▁diante	-10.1175
▁dividem	-10.1185
▁ven	-10.119
▁1,2	-10.1191
▁colegas	-10.1195
▁moderno	-10.1201
ebre	-10.1202
▁Candidato	-10.1204
▁For	-10.1214
▁Pesquisador	-10.1218
▁vencem	-10.1229
▁clubes	-10.1231
cionistas	-10.1245
▁técnicos	-10.1251
▁poderia	-10.1254
▁medi	-10.1265
▁investigada	-10.1266
bora	-10.1271
▁gerar	-10.1273
ória	-10.1289
▁inéditos	-10.1303
▁mito	-10.1313
adeira	-10.1331
▁políticas	-10.1335
▁pista	-10.1348
▁morreu	-10.1361
▁Eli	-10.1362
▁gl	-10.1377
▁Atletas	-10.1386
▁resp	-10.1388
rina	-10.1401
▁ge	-10.1409
tividade	-10.1418
ham	-10.1424
▁1,6	-10.1428
crim	-10.1431
▁comum	-10.1432
▁legal	-10.1435
ance	-10.1435
cesso	-10.1438
diretor	-10.144
▁fam	-10.1444
Fo	-10.1461
▁Ch	-10.1474
▁falam	-10.1476
▁seca	-10.1491
ibi	-10.1495
ted	-10.1528
▁Sim	-10.1533
if	-10.1535
issões	-10.1541
▁demais	-10.1544
▁polêmicas	-10.1546
raça	-10.1547
uras	-10.1549
arreira	-10.1564
▁condiç	-10.1566
▁porque	-10.157
▁cart	-10.1582
lândia	-10.1591
bertura	-10.16
ografia	-10.1602
plex	-10.1604
▁Augusto	-10.1604
▁Bowie	-10.1604
▁Bélgica	-10.1604
▁Ceremony	-10.1604
▁Committee	-10.1604
▁Matarazzo	-10.1604
▁Usiminas	-10.1604
▁combustível	-10.1604
▁fiscais	-10.1604
▁franquia	-10.1604
▁natureza	-10.1604
▁obstáculo	-10.1604
▁republicana	-10.1604
▁robô	-10.1604
▁tamanho	-10.1604
▁universo	-10.1604
...	-10.1604
▁Prefeito	-10.1604
▁concessão	-10.1604
▁hacker	-10.1604
▁vazio	-10.1604
▁Cozinha	-10.1604
▁rápido	-10.1604
▁Recife	-10.1604
▁Atentado	-10.1604
▁herói	-10.1604
▁encolhe	-10.1604
soft	-10.1604
▁web	-10.1604
▁sinais	-10.1604
▁convite	-10.1604
▁decisões	-10.1604
▁infraestrutura	-10.1604
tarefa	-10.1604
▁banheiro	-10.1604
▁rompe	-10.1604
▁estatal	-10.1604
▁Things	-10.1604
▁impede	-10.1604
▁gritos	-10.1605
stúdio	-10.1605
▁Militar	-10.1605
▁exclusiv	-10.1605
▁duelo	-10.1605
ística	-10.1605
▁coluna	-10.1605
▁repete	-10.1605
▁chora	-10.1605
▁patrimônio	-10.1606
▁mesma	-10.1606
▁MPF	-10.1606
▁fosse	-10.1606
▁presidencial	-10.1607
▁soldado	-10.1607
▁concurso	-10.1607
▁suposta	-10.1607
off	-10.1608
▁efeitos	-10.1608
▁simples	-10.1608
▁Neves	-10.1608
▁Emmy	-10.1608
▁definir	-10.1609
adrão	-10.1609
▁garantir	-10.161
▁Alves	-10.1612
▁Debate	-10.1613
▁Corpo	-10.1614
▁racha	-10.1615
▁mora	-10.1618
▁BH	-10.1618
▁membro	-10.1621
▁Ind	-10.1623
coreano	-10.1624
▁confia	-10.1634
▁servi	-10.1634
▁lu	-10.1635
▁acusações	-10.1641
▁enx	-10.1641
▁detidos	-10.1641
▁dono	-10.1644
▁Will	-10.1647
▁Fim	-10.1659
▁Bern	-10.1659
▁atingido	-10.1662
▁estava	-10.1665
▁criticado	-10.1669
▁Suspeito	-10.1671
▁manu	-10.1672
▁card	-10.1673
▁vestido	-10.1677
▁Turista	-10.1684
▁Mato	-10.1687
▁wi	-10.1699
▁contribui	-10.171
▁Anti	-10.1711
▁chave	-10.1713
▁Clube	-10.1723
▁du	-10.1724
▁Aberto	-10.1724
▁tempos	-10.1743
lei	-10.175
▁analisar	-10.176
▁republicanos	-10.1768
▁debates	-10.1779
uring	-10.1781
▁aprovar	-10.1782
para	-10.1788
▁usuários	-10.1793
▁frustra	-10.1797
▁transi	-10.1802
liga	-10.1817
▁sofrer	-10.1822
▁notícia	-10.1826
▁Atleta	-10.1827
▁38	-10.183
▁veículo	-10.1834
into	-10.1845
▁loja	-10.1851
▁caminha	-10.1852
▁achado	-10.1852
▁este	-10.1873
ete	-10.1873
hop	-10.1876
▁terminar	-10.1885
▁Aument	-10.1888
▁moto	-10.1931
▁Her	-10.1939
boca	-10.1944
▁Ed	-10.1948
▁300	-10.1949
▁custar	-10.1955
▁trocar	-10.1969
andro	-10.1974
30	-10.1974
▁notícias	-10.1998
▁britânicos	-10.2013
▁pal	-10.2013
▁2%	-10.2016
▁portas	-10.2017
eza	-10.2019
ppe	-10.2038
pé	-10.2089
▁priva	-10.2089
▁começam	-10.2092
▁Paul	-10.2107
▁lamenta	-10.2109
▁publica	-10.2109
▁agredi	-10.2125
inda	-10.2129
▁opera	-10.2137
rome	-10.2182
▁anunciar	-10.2187
teto	-10.2198
neel	-10.2206
íveis	-10.2226
ocumentário	-10.2227
▁Nun	-10.2228
▁Colunista	-10.2229
▁Crianças	-10.2229
▁Dívida	-10.2229
▁Ibirapuera	-10.2229
▁Montagner	-10.2229
▁Oliveira	-10.2229
▁Orçamento	-10.2229
▁alívio	-10.2229
▁amistoso	-10.2229
▁ascensão	-10.2229
▁autonomia	-10.2229
▁chineses	-10.2229
▁cérebro	-10.2229
▁decepciona	-10.2229
▁japonesa	-10.2229
▁medalhista	-10.2229
▁oficina	-10.2229
▁recebido	-10.2229
▁reeleição	-10.2229
▁Mercedes	-10.2229
▁Sarney	-10.2229
▁exigir	-10.2229
▁monitora	-10.2229
▁Curso	-10.2229
▁Paraguai	-10.2229
▁SIM	-10.2229
▁decisivo	-10.2229
▁ensaio	-10.2229
despedida	-10.2229
▁conecta	-10.2229
▁fugir	-10.2229
▁memória	-10.2229
▁brinca	-10.2229
▁garota	-10.2229
▁eleitorais	-10.2229
▁união	-10.2229
▁congela	-10.2229
▁época	-10.2229
▁despede	-10.2229
▁fixa	-10.2229
▁Irã	-10.2229
▁brilha	-10.2229
▁resistência	-10.2229
▁Manaus	-10.2229
▁Pedido	-10.2229
▁prefere	-10.223
▁Limpa	-10.223
▁alivia	-10.223
▁trajetória	-10.223
▁famoso	-10.223
▁furto	-10.223
▁Custo	-10.223
▁interpreta	-10.223
▁pauta	-10.223
▁3,4	-10.223
▁State	-10.223
Pequeno	-10.223
▁hotéis	-10.223
▁faça	-10.223
▁existe	-10.223
▁ausência	-10.223
▁Caracas	-10.223
▁massacre	-10.2231
▁narrativa	-10.2231
▁poeta	-10.2232
▁pacto	-10.2232
▁exame	-10.2233
▁diversidade	-10.2233
▁Dona	-10.2233
▁queixa	-10.2233
▁Vitória	-10.2233
▁Terça	-10.2233
▁delegacia	-10.2235
▁Batista	-10.2236
▁Braga	-10.2237
▁olhar	-10.2237
▁perfeita	-10.2238
▁decreto	-10.2238
▁Braz	-10.2239
▁mensalão	-10.2239
▁eleitores	-10.224
▁manifestações	-10.224
▁aperta	-10.2242
▁jornalismo	-10.2244
▁OAB	-10.2244
▁40%	-10.2246
▁jurídica	-10.2248
rille	-10.2252
▁Sport	-10.2253
▁dirigente	-10.2253
▁inéditas	-10.226
▁Ten	-10.2261
▁livrar	-10.2264
▁proteção	-10.2266
▁American	-10.2268
ores	-10.2268
▁norma	-10.2268
▁denúncias	-10.2275
▁fonte	-10.2279
▁conf	-10.2279
▁Diário	-10.228
▁Pela	-10.228
▁anistia	-10.2281
▁exercício	-10.2284
Sou	-10.2288
lima	-10.2291
▁hip	-10.2297
▁solid	-10.2298
▁ponte	-10.2302
▁aliança	-10.2304
▁chances	-10.231
▁afastado	-10.2313
▁andar	-10.2325
▁Secretari	-10.2325
▁apuração	-10.2328
▁Paula	-10.2348
eirão	-10.2357
cur	-10.2357
▁Win	-10.2358
▁aqui	-10.2362
▁adiada	-10.2381
▁termo	-10.2387
▁Edi	-10.2401
mitir	-10.2403
▁preferido	-10.2403
▁despesas	-10.2403
▁conservador	-10.2404
▁mostrar	-10.241
▁lida	-10.2411
▁esco	-10.242
▁salários	-10.2422
rmen	-10.2422
▁Un	-10.2424
▁Frei	-10.2428
▁pênaltis	-10.2431
▁idosos	-10.2431
▁desenvolvi	-10.2431
▁citado	-10.2441
arro	-10.2442
▁Luca	-10.2445
onia	-10.2447
volução	-10.2449
erro	-10.2453
invasão	-10.2485
▁games	-10.2485
tranger	-10.2487
▁tendência	-10.249
▁continuar	-10.2496
▁Eu	-10.2498
▁Time	-10.2498
▁Gri	-10.25
▁Nas	-10.2503
▁piora	-10.2504
▁juro	-10.2505
▁europeus	-10.2512
▁repetir	-10.2523
▁atentados	-10.253
▁solta	-10.2534
▁sírios	-10.254
▁vaias	-10.2542
▁ilha	-10.2548
uxa	-10.2548
▁morrer	-10.2549
▁sim	-10.2576
▁Nes	-10.2581
▁parques	-10.2585
▁Sai	-10.2586
▁indicado	-10.2611
▁iguala	-10.2614
oyo	-10.2636
unk	-10.2645
tiza	-10.2666
▁teria	-10.268
▁antecipar	-10.2682
▁lançam	-10.269
nado	-10.2697
▁premia	-10.2701
Vi	-10.2706
erson	-10.2707
rota	-10.2709
▁enf	-10.2716
▁inclui	-10.272
▁core	-10.272
partamento	-10.2722
▁Air	-10.2723
▁aberto	-10.2728
▁nossa	-10.2731
negócio	-10.2731
Fora	-10.2742
▁parecer	-10.277
tela	-10.2782
ouve	-10.2783
▁civi	-10.2788
▁campeã	-10.2814
▁cota	-10.2821
▁Che	-10.2839
taria	-10.284
▁Ber	-10.2854
ama	-10.2861
mata	-10.2861
▁conquistar	-10.2861
▁sinal	-10.2863
▁caiu	-10.2873
ive	-10.2876
▁33	-10.2877
▁compras	-10.2883
▁Bayer	-10.2884
▁aposenta	-10.2885
▁Madri	-10.2889
▁irregular	-10.2891
▁segura	-10.2894
ônica	-10.2895
-2012	-10.2896
▁Crivella	-10.2896
▁Energia	-10.2896
▁Guanabara	-10.2896
▁Itaquerão	-10.2896
▁Jardins	-10.2896
▁Judiciário	-10.2896
▁Tecnologia	-10.2896
▁aniversário	-10.2896
▁análise	-10.2896
▁arbitragem	-10.2896
▁bebida	-10.2896
▁competição	-10.2896
▁convence	-10.2896
▁cruzeiro	-10.2896
▁dispensa	-10.2896
▁especiais	-10.2896
▁fotógrafo	-10.2896
▁física	-10.2896
▁hospitais	-10.2896
▁ingrediente	-10.2896
▁italiana	-10.2896
▁minimiza	-10.2896
▁ofensiva	-10.2896
▁orgânico	-10.2896
▁palavra	-10.2896
▁patrocínio	-10.2896
▁prioriza	-10.2896
▁rebelde	-10.2896
▁turístico	-10.2896
▁Anvisa	-10.2896
▁bicicleta	-10.2896
▁esquenta	-10.2896
▁novembro	-10.2896
▁Ceará	-10.2896
▁Mendonça	-10.2896
▁aguarda	-10.2896
▁depressão	-10.2896
▁transporte	-10.2896
▁galeria	-10.2896
▁pintura	-10.2896
▁Potter	-10.2896
Universal	-10.2896
▁folga	-10.2896
▁salarial	-10.2896
▁Piauí	-10.2896
▁diverti	-10.2896
▁mentira	-10.2896
▁general	-10.2896
▁origem	-10.2896
vergonha	-10.2896
▁imobiliário	-10.2896
▁bichos	-10.2896
▁colabora	-10.2896
▁artesana	-10.2896
▁velha	-10.2896
▁desfile	-10.2896
-2020	-10.2896
▁revive	-10.2897
▁fracassa	-10.2897
▁impasse	-10.2897
nibus	-10.2897
▁Ryan	-10.2897
▁acredita	-10.2898
▁expulsa	-10.2898
▁deficiente	-10.2898
▁PSB	-10.2898
▁Proposta	-10.2898
turb	-10.2898
▁marketing	-10.2899
▁inscrições	-10.2899
▁dieta	-10.2899
▁templo	-10.2899
▁adeus	-10.2899
▁GCM	-10.29
▁vizinho	-10.29
▁That	-10.29
▁irregularidade	-10.2901
▁gab	-10.2901
▁confiança	-10.2901
▁feminista	-10.2902
▁protagonista	-10.2902
▁relaciona	-10.2903
▁tese	-10.2905
iko	-10.2906
▁fiscalização	-10.2906
▁Mogi	-10.2907
▁estaduais	-10.2909
▁City	-10.291
▁km	-10.2911
▁Falha	-10.2913
▁escrever	-10.2913
▁solar	-10.2914
tiene	-10.2915
▁Renato	-10.2916
▁negociações	-10.2919
▁gente	-10.2919
▁criativa	-10.292
8%	-10.292
▁Team	-10.292
▁tornou	-10.292
▁agente	-10.2923
▁produzir	-10.2924
▁inovação	-10.2924
nova	-10.2925
▁novela	-10.2928
▁viol	-10.2928
▁Viol	-10.2929
▁favorável	-10.293
▁Hel	-10.293
▁Bon	-10.2931
▁corintiano	-10.2931
▁paralisação	-10.2932
▁Jord	-10.2934
▁feliz	-10.2937
▁Neto	-10.2945
▁valores	-10.2955
▁piada	-10.2957
cena	-10.2958
▁CN	-10.2961
▁proibição	-10.2962
▁vídeos	-10.2962
▁presta	-10.2962
▁Imp	-10.2971
hur	-10.2971
logia	-10.2979
▁acabou	-10.2988
▁cedo	-10.2991
▁Rec	-10.2998
tamar	-10.2999
▁solto	-10.3005
▁retomada	-10.3006
▁Chi	-10.3013
▁ministérios	-10.3016
▁comete	-10.3017
▁músicas	-10.3019
▁meia	-10.302
sab	-10.3022
▁Mara	-10.3022
▁Juíz	-10.3032
▁Medo	-10.3033
▁testes	-10.3033
▁Leg	-10.3037
▁autora	-10.3038
▁prote	-10.3042
▁PR	-10.3045
▁navio	-10.3046
▁Roma	-10.3063
▁SC	-10.3073
stal	-10.31
ney	-10.3109
▁sentir	-10.3125
▁buscar	-10.314
▁leitores	-10.3148
oto	-10.315
▁agro	-10.317
▁arenas	-10.3171
▁top	-10.3184
▁Garr	-10.3185
▁valoriza	-10.319
aria	-10.3192
▁plantas	-10.3199
▁poemas	-10.3199
▁Unes	-10.32
▁fraudes	-10.322
▁Pat	-10.3222
▁Pinheiro	-10.3224
▁Ter	-10.3227
▁Har	-10.323
▁Jogo	-10.3236
▁rico	-10.3242
ún	-10.3244
▁Ator	-10.3248
▁Bor	-10.325
▁tent	-10.3252
▁medida	-10.3253
pole	-10.3253
▁passeios	-10.3258
▁tradi	-10.326
▁devolver	-10.3262
▁rende	-10.3284
▁199	-10.3292
ups	-10.3296
sido	-10.3307
pí	-10.3342
▁fin	-10.3343
▁fatia	-10.3347
▁natural	-10.3354
▁casas	-10.3358
evolução	-10.3367
▁reverte	-10.3367
▁interfer	-10.3369
Flu	-10.3376
▁renovar	-10.3386
dentes	-10.3398
▁adapta	-10.3401
▁material	-10.3409
▁preferi	-10.3414
▁Trabalh	-10.3418
cro	-10.3424
ping	-10.3445
americano	-10.3446
▁sucess	-10.3468
▁financeir	-10.347
▁long	-10.3488
▁conto	-10.3514
Con	-10.3532
▁promo	-10.3551
▁BM	-10.3555
▁produz	-10.3572
▁torce	-10.3576
▁Terror	-10.3586
▁tele	-10.3587
▁85	-10.36
rédito	-10.3604
▁sorte	-10.3606
▁mensage	-10.3606
▁convida	-10.3607
▁Antonio	-10.361
▁individual	-10.361
fantasma	-10.361
▁Botafogo	-10.361
▁Califórnia	-10.361
▁Cameron	-10.361
▁Chapecoense	-10.361
▁Companhia	-10.361
▁Desafio	-10.361
▁Fronteira	-10.361
▁Funcionário	-10.361
▁Guarujá	-10.361
▁Musical	-10.361
▁Ninguém	-10.361
▁Repórter	-10.361
▁Saudita	-10.361
▁Warriors	-10.361
▁Yahoo	-10.361
▁academia	-10.361
▁automotivo	-10.361
▁calendário	-10.361
▁chegou	-10.361
▁clichês	-10.361
▁dificulta	-10.361
▁esportivo	-10.361
▁faculdade	-10.361
▁inteligência	-10.361
▁internacionais	-10.361
▁jejum	-10.361
▁marqueteiro	-10.361
▁medicina	-10.361
▁movimenta	-10.361
▁municipal	-10.361
▁muçulmano	-10.361
▁necessário	-10.361
▁petrolão	-10.361
▁qualquer	-10.361
▁reforço	-10.361
▁registro	-10.361
▁rótulo	-10.361
▁suicida	-10.361
▁universitário	-10.361
▁volante	-10.361
▁Eurocopa	-10.361
▁Evento	-10.361
▁Lisboa	-10.361
▁Merenda	-10.361
▁grávida	-10.361
▁segredo	-10.361
▁dilema	-10.361
▁jeito	-10.361
▁lavagem	-10.361
▁Direito	-10.361
▁agrava	-10.361
▁pequena	-10.361
▁descobre	-10.361
▁safra	-10.361
▁Associaç	-10.361
▁Discurso	-10.361
▁merece	-10.361
wood	-10.361
▁interdita	-10.361
▁potência	-10.361
▁Anatel	-10.361
▁Haiti	-10.361
▁diverge	-10.361
▁consenso	-10.361
▁surfe	-10.361
▁Barreto	-10.361
▁permanece	-10.361
▁particular	-10.361
▁Melhor	-10.361
▁mudou	-10.361
▁Fabian	-10.3611
▁exalta	-10.3611
▁Davis	-10.3611
▁choro	-10.3611
▁desigualdade	-10.3611
▁Prédio	-10.3611
▁proteger	-10.3611
▁ironiza	-10.3611
▁moeda	-10.3611
▁pareci	-10.3611
▁tiroteio	-10.3611
▁Mineir	-10.3612
▁Segur	-10.3612
▁ocorre	-10.3612
▁assinatura	-10.3613
spírit	-10.3613
▁Stone	-10.3613
▁Fraga	-10.3614
▁Líbia	-10.3614
▁sonda	-10.3614
▁referência	-10.3614
▁manifestantes	-10.3615
▁Rosso	-10.3616
lê	-10.3617
agens	-10.3617
▁Madrid	-10.3617
▁Park	-10.3618
golpista	-10.3618
▁confusão	-10.3618
▁basta	-10.3619
▁adultos	-10.3619
▁Holl	-10.362
solve	-10.362
▁2.000	-10.362
▁cobrança	-10.3621
▁levanta	-10.3621
▁recria	-10.3622
▁marcha	-10.3622
▁Sam	-10.3622
▁Paquist	-10.3623
▁UF	-10.3623
Zona	-10.3623
▁conduz	-10.3623
▁pego	-10.3623
▁marido	-10.3623
▁Forte	-10.3624
▁FGTS	-10.3629
▁repórter	-10.3629
▁Fã	-10.363
▁metro	-10.3632
▁estuprada	-10.3633
▁sabores	-10.3633
▁lá	-10.3636
▁diário	-10.3637
Ilustríssima	-10.3637
▁Petista	-10.3638
▁urbana	-10.3641
▁MB	-10.3647
▁colombiano	-10.3649
▁IR	-10.3654
Rock	-10.3659
▁raro	-10.366
▁cost	-10.3661
idez	-10.3663
▁encerramento	-10.3663
▁Volu	-10.3664
elli	-10.3666
▁justiça	-10.3667
▁Tudo	-10.3669
▁vento	-10.367
▁Ponte	-10.367
▁vacinação	-10.3672
▁Social	-10.368
▁rara	-10.3683
▁arquitetura	-10.3683
▁Honda	-10.3684
construir	-10.3684
▁las	-10.3686
▁renovação	-10.3689
▁demora	-10.3694
▁anúncio	-10.3697
ispo	-10.3712
▁unir	-10.3714
▁Criador	-10.3724
king	-10.3742
▁Paulistano	-10.3748
▁Has	-10.3754
▁arrecada	-10.3755
dec	-10.3768
▁Foto	-10.3776
▁Eleito	-10.3782
▁solo	-10.38
▁nazis	-10.3806
stácio	-10.3808
Eu	-10.381
▁avaliar	-10.3811
▁treinar	-10.3839
▁Vers	-10.3841
▁frases	-10.3843
▁bolsas	-10.3843
▁chamado	-10.3844
dó	-10.3849
faz	-10.3866
▁legaliza	-10.3881
teral	-10.3884
▁sou	-10.3916
dinho	-10.3931
▁universidades	-10.3937
stituição	-10.3954
leiro	-10.3959
▁Post	-10.3972
▁remédio	-10.3978
▁passeio	-10.3981
▁cura	-10.3982
quim	-10.3996
fogo	-10.4
▁aprovado	-10.4024
▁Organiza	-10.4024
CM	-10.4028
▁treinador	-10.4034
▁humano	-10.4048
▁Not	-10.405
▁tendências	-10.4065
▁Times	-10.4066
▁Ferr	-10.4093
▁conseguir	-10.4109
▁32	-10.4109
,8%	-10.4114
▁vencedor	-10.4125
▁aventura	-10.4138
▁diploma	-10.4152
▁tomar	-10.4152
gest	-10.4154
▁executivos	-10.4161
▁cama	-10.4178
▁escapa	-10.418
▁Are	-10.4185
▁décadas	-10.4194
pot	-10.4195
▁reservas	-10.4224
▁Vol	-10.4227
talo	-10.423
AB	-10.4239
chefe	-10.4241
▁atira	-10.4249
▁Cen	-10.4269
▁vá	-10.4289
▁organizar	-10.4305
▁jorna	-10.4313
▁inclu	-10.4321
▁Vam	-10.4332
ever	-10.4333
ômi	-10.4339
▁paralisa	-10.4343
▁empreendedor	-10.4357
izada	-10.4367
▁design	-10.4368
▁sabor	-10.4373
▁ilus	-10.4376
statu	-10.4377
nço	-10.4379
▁Bolívia	-10.4379
▁Congonhas	-10.4379
▁EgyptAir	-10.4379
▁Escócia	-10.4379
▁Fluminense	-10.4379
▁Hypolito	-10.4379
▁Ilhabela	-10.4379
▁Imigrantes	-10.4379
▁Investimento	-10.4379
▁Toffoli	-10.4379
▁abandono	-10.4379
▁assassinato	-10.4379
▁atendimento	-10.4379
▁categoria	-10.4379
▁cineasta	-10.4379
▁câmera	-10.4379
▁doméstica	-10.4379
▁doméstico	-10.4379
▁drinques	-10.4379
▁eletrônica	-10.4379
▁episódio	-10.4379
▁espectador	-10.4379
▁estímulo	-10.4379
▁facilita	-10.4379
▁flexibiliza	-10.4379
▁ilegais	-10.4379
▁inadimpl	-10.4379
▁manipula	-10.4379
▁mundiais	-10.4379
▁máxima	-10.4379
▁método	-10.4379
▁opinião	-10.4379
▁plenário	-10.4379
▁presidir	-10.4379
▁prioridade	-10.4379
▁símbolo	-10.4379
▁tabela	-10.4379
▁velocidade	-10.4379
▁Futuro	-10.4379
▁Zika	-10.4379
▁bancário	-10.4379
▁cubano	-10.4379
▁orçamento	-10.4379
▁produtividade	-10.4379
▁suicídio	-10.4379
▁Buarque	-10.4379
▁Transporte	-10.4379
▁fizeram	-10.4379
▁isenção	-10.4379
▁revisão	-10.4379
▁teoria	-10.4379
▁ídolo	-10.4379
▁Acusado	-10.4379
▁CPF	-10.4379
▁Dallas	-10.4379
▁Miami	-10.4379
▁Show	-10.4379
▁Osasco	-10.4379
vingança	-10.4379
▁Branco	-10.4379
▁Alvorada	-10.4379
▁Revista	-10.4379
▁Eike	-10.4379
▁liberta	-10.4379
▁Gerdau	-10.4379
▁detecta	-10.4379
▁Desempreg	-10.4379
▁Tempo	-10.4379
▁Dream	-10.438
▁perdido	-10.438
▁lazer	-10.438
▁soja	-10.438
▁Alexand	-10.438
▁abriga	-10.438
▁Papers	-10.438
▁Chance	-10.438
▁licencia	-10.438
▁William	-10.438
▁gatos	-10.438
▁Brunet	-10.438
▁complexo	-10.438
▁especializada	-10.438
▁discorda	-10.4381
▁cúpula	-10.4381
álculo	-10.4381
▁Diego	-10.4381
▁Ferreira	-10.4381
▁relev	-10.4382
▁ódio	-10.4382
▁demoli	-10.4382
▁menu	-10.4382
▁1980	-10.4383
vés	-10.4383
▁Menino	-10.4383
▁placa	-10.4383
▁transparência	-10.4384
ínio	-10.4384
▁pontua	-10.4385
▁revolta	-10.4385
▁mineir	-10.4386
▁Jack	-10.4386
▁tática	-10.4386
▁lenda	-10.4387
▁Loja	-10.4388
▁recuo	-10.4388
alamidade	-10.4388
▁isso	-10.4388
▁Designer	-10.4388
▁Pereira	-10.4388
▁fili	-10.4388
▁Pris	-10.439
▁informações	-10.4393
▁acende	-10.4393
▁Audi	-10.4393
▁Camp	-10.4394
▁esgot	-10.4395
▁eleita	-10.4396
▁inteligente	-10.44
▁equilíbrio	-10.4403
▁empreendedores	-10.4404
▁tradicional	-10.4405
▁Barroso	-10.441
▁jornada	-10.441
▁pune	-10.4411
▁financiar	-10.4411
tuba	-10.4412
▁reportagem	-10.4413
▁telefon	-10.4413
▁Lé	-10.4415
▁pegar	-10.4416
▁capa	-10.4416
▁carga	-10.4418
▁Fiesp	-10.4418
▁milho	-10.4424
▁suíço	-10.4426
▁moral	-10.4427
▁secretária	-10.4427
▁compensa	-10.4427
vest	-10.4429
▁Gay	-10.4429
▁urbano	-10.443
▁celebridades	-10.443
▁oficializa	-10.4431
▁Cai	-10.4432
▁vara	-10.4436
inete	-10.4438
▁populares	-10.4442
▁federais	-10.4445
▁Pelo	-10.4445
▁presa	-10.4446
▁organização	-10.4449
▁curta	-10.445
▁exportação	-10.4456
▁esqui	-10.4457
graf	-10.4466
▁More	-10.4466
▁Feira	-10.4467
atletas	-10.4469
▁astro	-10.4473
▁decidi	-10.4475
▁convocação	-10.4481
▁jud	-10.4484
▁eliminação	-10.4493
▁julgar	-10.4495
▁sobra	-10.4505
▁Mora	-10.4506
itch	-10.4523
▁1,3	-10.4534
▁acerto	-10.4541
▁vári	-10.4556
▁Jon	-10.4567
apo	-10.4575
adaria	-10.4588
fício	-10.4595
▁acusada	-10.4597
▁pacientes	-10.4598
▁canal	-10.4608
▁tela	-10.4613
we	-10.4616
▁pobres	-10.4632
somos	-10.4635
▁incluir	-10.4646
ella	-10.4658
▁polo	-10.4659
▁venezuelanos	-10.4666
curit	-10.4669
▁inspirado	-10.4672
▁indicação	-10.4672
▁bala	-10.4684
▁contato	-10.472
▁Ope	-10.4727
ebol	-10.4728
Multi	-10.474
saem	-10.474
alho	-10.474
Caça	-10.4759
▁convocado	-10.4767
lina	-10.4798
▁internad	-10.4808
▁sírio	-10.4809
▁resposta	-10.4813
▁Nu	-10.4815
▁estrangeiro	-10.4818
▁Bomb	-10.4827
▁planejam	-10.4845
▁benefício	-10.4848
▁Dan	-10.4866
passa	-10.4871
ific	-10.4872
▁colocar	-10.4881
head	-10.4895
feito	-10.4917
▁relembr	-10.4926
posto	-10.4932
baba	-10.4945
▁Bat	-10.4968
▁produto	-10.4971
▁estudar	-10.4972
lana	-10.4976
▁Ger	-10.4981
cé	-10.4985
▁Dor	-10.499
▁escolar	-10.4998
▁capit	-10.501
▁inven	-10.5018
lita	-10.5019
▁volt	-10.5024
▁Ram	-10.5043
direit	-10.5051
issa	-10.5052
rival	-10.5078
▁Meno	-10.5084
integra	-10.5086
▁condu	-10.5097
governador	-10.5135
▁patrocinado	-10.5151
BA	-10.5158
▁tomam	-10.5162
hen	-10.5171
▁cola	-10.5186
▁parlamentar	-10.5188
▁dividi	-10.5197
▁Jornal	-10.5206
▁perigo	-10.5209
eficiente	-10.521
iço	-10.5213
ânia	-10.5213
▁equilibra	-10.5213
▁ninguém	-10.5213
▁portugues	-10.5213
▁reivindica	-10.5213
Bertioga	-10.5213
Você	-10.5213
responsável	-10.5213
▁Aeroporto	-10.5213
▁Arquiteto	-10.5213
▁Athletes	-10.5213
▁Cerveró	-10.5213
▁Disputa	-10.5213
▁Hospita	-10.5213
▁Inglês	-10.5213
▁Irlanda	-10.5213
▁Serviço	-10.5213
▁YouTube	-10.5213
▁almoço	-10.5213
▁auxiliar	-10.5213
▁centrais	-10.5213
▁científica	-10.5213
▁construtora	-10.5213
▁criminosa	-10.5213
▁deputada	-10.5213
▁desfalque	-10.5213
▁dirigir	-10.5213
▁elétrica	-10.5213
▁escolhido	-10.5213
▁expulso	-10.5213
▁fantasia	-10.5213
▁ferramenta	-10.5213
▁flagra	-10.5213
▁fotografia	-10.5213
▁gasolina	-10.5213
▁homicídio	-10.5213
▁influencia	-10.5213
▁justifica	-10.5213
▁médica	-10.5213
▁mínima	-10.5213
▁necessidade	-10.5213
▁período	-10.5213
▁psicólog	-10.5213
▁seleciona	-10.5213
▁teatral	-10.5213
▁turnê	-10.5213
▁voluntária	-10.5213
▁árbitro	-10.5213
▁Arábia	-10.5213
▁Grosso	-10.5213
▁Imóve	-10.5213
▁cachaça	-10.5213
▁mobiliza	-10.5213
▁recicla	-10.5213
▁resgate	-10.5213
▁rápida	-10.5213
▁sabatina	-10.5213
▁sequestro	-10.5213
▁tributária	-10.5213
ódigo	-10.5213
▁Bairro	-10.5213
▁HBO	-10.5213
▁Safra	-10.5213
▁Reajuste	-10.5213
▁Relatório	-10.5213
▁SBT	-10.5213
▁sanciona	-10.5213
▁saudade	-10.5213
▁Jean	-10.5213
▁assusta	-10.5213
▁sigla	-10.5213
▁vidro	-10.5213
▁Paraolímpicos	-10.5213
▁agrada	-10.5213
▁parcela	-10.5213
▁Guarda	-10.5213
pendência	-10.5213
▁interdição	-10.5213
posições	-10.5213
empestade	-10.5213
▁contrário	-10.5213
▁assiste	-10.5213
▁Empreendedor	-10.5213
▁sensação	-10.5213
▁potencial	-10.5213
▁choque	-10.5213
▁Regra	-10.5213
corrência	-10.5213
júri	-10.5213
▁Fidel	-10.5213
▁sociólogo	-10.5213
▁Prix	-10.5213
▁reabre	-10.5213
▁parede	-10.5213
▁Praia	-10.5213
▁arrast	-10.5213
▁abrigo	-10.5213
▁pronto	-10.5213
▁drone	-10.5213
▁fór	-10.5213
▁Abreu	-10.5213
▁Venez	-10.5213
▁vilão	-10.5213
▁Prata	-10.5214
▁zero	-10.5214
riedade	-10.5214
▁Amigo	-10.5214
▁cerco	-10.5214
▁Distribuidora	-10.5214
▁consolida	-10.5214
▁Micro	-10.5214
▁tarde	-10.5214
▁Compra	-10.5214
▁Processo	-10.5214
▁azul	-10.5215
▁bordo	-10.5215
▁perícia	-10.5215
▁flores	-10.5215
▁Calero	-10.5215
▁chá	-10.5215
▁Denúncia	-10.5215
▁inclusão	-10.5215
▁fundador	-10.5215
▁previdência	-10.5216
▁essencia	-10.5216
▁Seminário	-10.5216
▁Experi	-10.5216
▁assista	-10.5217
▁Capit	-10.5217
▁ciclista	-10.5218
▁propor	-10.5218
▁Voto	-10.5219
▁personagens	-10.5219
▁puxa	-10.5219
▁Chega	-10.522
▁barata	-10.5221
▁Torci	-10.5222
Narco	-10.5223
▁Guti	-10.5224
▁excesso	-10.5225
▁Precisa	-10.5226
▁bebe	-10.5226
▁198	-10.5226
culos	-10.5226
▁engano	-10.523
▁fazenda	-10.5231
▁sono	-10.5231
▁pele	-10.5232
▁Roger	-10.5232
▁comuns	-10.5232
▁Alemã	-10.5233
▁reprova	-10.5234
Nós	-10.5236
▁acompanhar	-10.5236
▁73	-10.5241
▁Terrorist	-10.5242
▁fotográfic	-10.5243
▁Carol	-10.5243
▁Van	-10.5244
▁goleiro	-10.5245
▁Votaç	-10.5246
▁haver	-10.5246
▁condomínio	-10.525
▁sozinho	-10.5254
▁Carf	-10.5255
▁Sala	-10.5255
▁Day	-10.5256
▁começou	-10.5256
▁reinventa	-10.5257
▁adaptação	-10.5262
▁saco	-10.5272
▁Luz	-10.5277
▁correta	-10.5288
▁editorial	-10.5288
▁lama	-10.5294
▁Ramos	-10.5294
▁estabilidade	-10.5298
▁Pet	-10.5299
▁Interna	-10.5306
▁bani	-10.5306
▁pira	-10.5308
▁Cape	-10.5311
▁PS	-10.5315
▁Guia	-10.5337
▁Ban	-10.5341
▁vila	-10.5342
▁tour	-10.5351
▁premiado	-10.5356
▁humana	-10.5357
▁errado	-10.5367
▁Assis	-10.5372
▁lamentam	-10.5378
▁Porta	-10.5386
pic	-10.5388
▁Usa	-10.5391
▁DE	-10.5412
ity	-10.5413
DN	-10.5414
▁homenage	-10.5414
▁porto	-10.5416
▁organizada	-10.5417
guei	-10.5418
miro	-10.5425
▁escapar	-10.5434
▁atacar	-10.5435
▁espanhola	-10.5439
TG	-10.5453
▁Soc	-10.5481
▁julga	-10.5481
▁39	-10.5484
16	-10.5484
11	-10.5487
▁resgatado	-10.5496
▁Está	-10.5507
▁consegui	-10.5515
▁fechada	-10.5517
cle	-10.5528
▁Cont	-10.5533
▁ligada	-10.5535
▁desembar	-10.5536
▁31	-10.5544
▁envolvi	-10.5555
▁Ji	-10.556
▁Rot	-10.5561
▁Amor	-10.557
▁Vel	-10.5574
▁Mario	-10.5596
▁48	-10.563
utu	-10.5648
▁reunir	-10.5669
▁pessoa	-10.5674
▁algo	-10.568
▁embala	-10.5707
▁universidade	-10.5717
eração	-10.5717
▁planta	-10.5717
▁poema	-10.5718
▁europeu	-10.5718
udio	-10.5724
▁vaiado	-10.5747
▁Médico	-10.5749
▁human	-10.5775
▁professora	-10.5778
60	-10.5778
▁capita	-10.5782
▁65	-10.5786
oko	-10.5803
▁lançamento	-10.581
certo	-10.5836
▁express	-10.5843
▁75	-10.5864
▁ética	-10.5875
ink	-10.5885
fino	-10.5909
unidade	-10.591
▁Rei	-10.5912
▁radical	-10.5921
▁transmit	-10.5922
▁xe	-10.5926
rrecadação	-10.5939
erry	-10.5949
Super	-10.5956
secretário	-10.5957
cultura	-10.5957
Trump	-10.5959
▁Albert	-10.5964
▁72	-10.5967
clima	-10.5974
fone	-10.5976
▁Institu	-10.5977
DE	-10.5982
50	-10.5988
▁150	-10.5994
chave	-10.5994
tempo	-10.5999
ky	-10.6011
▁1,5	-10.6011
▁Cir	-10.6016
▁senti	-10.6025
▁organizador	-10.6031
▁34	-10.6044
scrito	-10.6059
▁começo	-10.6074
▁financi	-10.6082
▁musica	-10.6087
ental	-10.6089
▁trilh	-10.6096
▁estadua	-10.6105
▁cassa	-10.611
▁sindic	-10.6114
pôs	-10.6116
rescimento	-10.6116
▁cantor	-10.6117
tismo	-10.612
arketing	-10.612
nclusão	-10.612
iclista	-10.6121
sexuais	-10.6122
▁privilegia	-10.6122
▁extrema	-10.6122
▁original	-10.6122
▁positiva	-10.6122
burquíni	-10.6122
enômeno	-10.6122
imigração	-10.6122
municipais	-10.6122
pidemia	-10.6122
▁Ceagesp	-10.6122
▁Encontro	-10.6122
▁Escolha	-10.6122
▁Filipinas	-10.6122
▁Medalhista	-10.6122
▁Minhocão	-10.6122
▁Plataforma	-10.6122
▁Portugues	-10.6122
▁Roraima	-10.6122
▁Vítima	-10.6122
▁Washington	-10.6122
▁absolvi	-10.6122
▁acessível	-10.6122
▁aconselha	-10.6122
▁arquiteto	-10.6122
▁auxílio	-10.6122
▁campeões	-10.6122
▁canadense	-10.6122
▁compactos	-10.6122
▁concorrente	-10.6122
▁congress	-10.6122
▁conhecido	-10.6122
▁desenvolve	-10.6122
▁emergência	-10.6122
▁experimenta	-10.6122
▁fundamental	-10.6122
▁hidrelétrica	-10.6122
▁improbidade	-10.6122
▁incomoda	-10.6122
▁influência	-10.6122
▁março	-10.6122
▁músico	-10.6122
▁nenhum	-10.6122
▁paraolímpica	-10.6122
▁performance	-10.6122
▁plágio	-10.6122
▁reafirma	-10.6122
▁rodízio	-10.6122
▁suficiente	-10.6122
▁terço	-10.6122
▁tranquil	-10.6122
▁transgênero	-10.6122
▁trunfo	-10.6122
socorro	-10.6122
▁2013	-10.6122
▁CGU	-10.6122
▁Conceição	-10.6122
▁Flávi	-10.6122
▁Magnan	-10.6122
▁Marrocos	-10.6122
▁Munique	-10.6122
▁SPFW	-10.6122
▁detalhe	-10.6122
▁ruína	-10.6122
▁FBI	-10.6122
▁Setembro	-10.6122
▁instância	-10.6122
▁Caribe	-10.6122
▁Engenheir	-10.6122
▁artigo	-10.6122
▁pesadelo	-10.6122
▁pioneiro	-10.6122
▁Ibope	-10.6122
▁vendida	-10.6122
▁Cauby	-10.6122
▁Marquinhos	-10.6122
▁quadra	-10.6122
▁Ibama	-10.6122
▁Democracia	-10.6122
▁Falcão	-10.6122
▁Texas	-10.6122
▁OMS	-10.6122
▁Estreia	-10.6122
▁Gigante	-10.6122
▁Oliver	-10.6122
Atirador	-10.6122
▁Modelo	-10.6122
▁bonito	-10.6122
▁edifício	-10.6122
anticorrupção	-10.6122
▁Borges	-10.6122
▁junta	-10.6122
▁curiosidades	-10.6122
▁latino	-10.6122
▁impõe	-10.6122
▁comédia	-10.6122
▁Ocupaç	-10.6122
▁distante	-10.6122
▁racista	-10.6122
▁Work	-10.6122
▁Demanda	-10.6122
▁ingles	-10.6122
▁fraco	-10.6122
▁estoque	-10.6122
▁tortura	-10.6122
▁Louis	-10.6122
Cola	-10.6122
▁Preta	-10.6122
▁Indicado	-10.6122
▁presidenciais	-10.6122
▁Caminho	-10.6122
▁Quanto	-10.6122
▁compromisso	-10.6123
▁Assad	-10.6123
▁Biografia	-10.6123
▁identi	-10.6123
▁CNJ	-10.6123
▁Pequim	-10.6123
▁Cresce	-10.6123
ustria	-10.6123
▁usina	-10.6123
▁revoga	-10.6123
ideologia	-10.6123
▁United	-10.6123
▁desenhos	-10.6123
▁taxistas	-10.6123
profunda	-10.6124
▁moradia	-10.6124
▁Final	-10.6124
▁chacina	-10.6124
▁Vereador	-10.6124
▁Avião	-10.6124
▁ambi	-10.6124
▁soluções	-10.6124
agner	-10.6124
▁notifica	-10.6124
clipe	-10.6125
▁Cesar	-10.6125
▁Exportaç	-10.6125
▁cessar	-10.6125
▁ferro	-10.6125
▁Polônia	-10.6125
▁apps	-10.6125
▁Olímpia	-10.6125
▁sustentável	-10.6126
▁peruan	-10.6126
▁trauma	-10.6127
▁Nicol	-10.6127
▁patina	-10.6127
▁Busca	-10.6127
▁Erro	-10.6127
beth	-10.6128
▁jato	-10.613
Jorna	-10.613
▁Agente	-10.613
▁2020	-10.6131
▁tenho	-10.6132
▁município	-10.6134
pedala	-10.6134
▁apela	-10.6135
▁operações	-10.6136
▁Ford	-10.6137
▁Angeles	-10.6137
▁tomba	-10.6137
▁triste	-10.6138
▁amarel	-10.614
istência	-10.6141
▁beira	-10.6142
▁Costa	-10.6142
▁Wars	-10.6142
▁Elias	-10.6144
rátis	-10.6145
▁Frio	-10.6146
produ	-10.6146
▁TJ	-10.6146
▁Anna	-10.6146
▁Massa	-10.6148
▁Juventu	-10.6148
▁Murer	-10.615
mpasse	-10.615
▁tenha	-10.6151
▁sentido	-10.6155
▁mau	-10.6155
▁Republicano	-10.6159
▁foge	-10.616
Agora	-10.616
▁cansa	-10.6161
▁História	-10.6163
▁ganhou	-10.6165
▁muro	-10.6166
▁Marcela	-10.6169
▁Lat	-10.6173
▁Hil	-10.6176
▁Len	-10.6177
▁Alvo	-10.618
▁Cine	-10.6181
▁Hora	-10.6182
▁gramado	-10.6186
▁marco	-10.6187
▁gerações	-10.619
▁Polo	-10.6197
▁exclui	-10.6203
▁pente	-10.6204
dã	-10.6206
olução	-10.6209
▁açúcar	-10.6217
▁reais	-10.6217
▁novamente	-10.6221
▁braço	-10.6229
▁import	-10.6231
ego	-10.6235
▁pratic	-10.6243
▁Delegado	-10.6244
quecimento	-10.6248
▁cantora	-10.6253
▁viva	-10.6255
▁trilha	-10.6265
▁Carta	-10.6266
▁fé	-10.6269
▁Cara	-10.6271
-20	-10.6283
▁antecipada	-10.6284
Alice	-10.6284
▁Marca	-10.6294
▁federação	-10.6299
▁Panam	-10.6314
▁fornecedor	-10.6321
▁1,1	-10.6323
▁ocupação	-10.6338
▁inova	-10.6346
▁autorização	-10.6352
▁Confederaç	-10.6355
▁preocupação	-10.637
▁dita	-10.6372
▁Seren	-10.6373
▁Tele	-10.6376
▁processar	-10.6377
▁inspirada	-10.6391
▁Astro	-10.6391
▁arre	-10.6398
▁lota	-10.6405
utoridades	-10.6409
▁cortado	-10.642
▁Ang	-10.6425
▁deporta	-10.6447
UT	-10.645
ville	-10.6452
▁achada	-10.6466
chanceler	-10.6469
reitor	-10.6488
▁Vin	-10.649
kun	-10.6491
▁discuti	-10.6502
▁Mac	-10.6502
▁360	-10.6515
▁Som	-10.6546
itado	-10.6549
Mad	-10.6551
▁aprende	-10.6561
cione	-10.6574
▁atu	-10.6591
▁Bast	-10.6595
curso	-10.6605
▁tal	-10.6614
▁Bela	-10.6629
▁formato	-10.6629
lógico	-10.6631
▁criado	-10.6654
cept	-10.6681
▁Tale	-10.6685
14	-10.669
▁Minh	-10.6692
▁game	-10.672
▁Ok	-10.6725
▁recus	-10.6725
tent	-10.6728
▁arena	-10.6732
cionista	-10.6735
queira	-10.6746
▁diferente	-10.6768
▁2,2	-10.6771
trizes	-10.6774
▁Fundo	-10.6782
anz	-10.6809
▁Homen	-10.6852
▁67	-10.6866
ombo	-10.6876
▁1,4	-10.6878
▁irmã	-10.6898
itta	-10.693
Panam	-10.6952
éli	-10.6953
manhã	-10.6955
bandeira	-10.6955
americana	-10.6957
líder	-10.6958
trono	-10.6958
segurança	-10.6958
▁operar	-10.6971
Para	-10.6973
▁Mour	-10.6994
▁mel	-10.7004
▁Segund	-10.7022
▁54	-10.7034
come	-10.704
▁Robert	-10.704
▁Fortale	-10.705
▁2,5	-10.7054
▁Silv	-10.7054
▁ganho	-10.7074
gráfico	-10.7076
▁Band	-10.7079
uventude	-10.7092
▁juíz	-10.7098
pino	-10.7108
▁Design	-10.7111
▁Fra	-10.7112
▁flor	-10.7114
▁rebaixa	-10.7115
funcionário	-10.7115
orrupção	-10.7116
oland	-10.7117
imples	-10.7118
vidência	-10.7118
▁brasile	-10.7119
organiza	-10.712
aponês	-10.7122
George	-10.7122
ômetro	-10.7122
▁14,25%	-10.7122
▁Academia	-10.7122
▁Adolescente	-10.7122
▁Airbnb	-10.7122
▁Ameaça	-10.7122
▁Assessor	-10.7122
▁Cavaliers	-10.7122
▁Cingapura	-10.7122
▁Criminoso	-10.7122
▁Democrata	-10.7122
▁Favorito	-10.7122
▁Federer	-10.7122
▁Florianópolis	-10.7122
▁Higienópolis	-10.7122
▁Igreja	-10.7122
▁Instagram	-10.7122
▁Ipiranga	-10.7122
▁Legislativ	-10.7122
▁Minister	-10.7122
▁Muylaert	-10.7122
▁Pernambuco	-10.7122
▁Político	-10.7122
▁Sindicato	-10.7122
▁Sistema	-10.7122
▁Tatuapé	-10.7122
▁Terremoto	-10.7122
▁Testemunha	-10.7122
▁Universitári	-10.7122
▁acessórios	-10.7122
▁agradece	-10.7122
▁bastidores	-10.7122
▁básica	-10.7122
▁cachorro	-10.7122
▁chocolate	-10.7122
▁circuito	-10.7122
▁conselheiro	-10.7122
▁corrupto	-10.7122
▁desaparecida	-10.7122
▁descumpr	-10.7122
▁desfalca	-10.7122
▁digitais	-10.7122
▁dramaturg	-10.7122
▁esforço	-10.7122
▁estrangeiras	-10.7122
▁expulsão	-10.7122
▁fortalece	-10.7122
▁intensifica	-10.7122
▁liquidação	-10.7122
▁mérito	-10.7122
▁personalidade	-10.7122
▁planeta	-10.7122
▁polêmico	-10.7122
▁privatização	-10.7122
▁reencontra	-10.7122
▁reestrutura	-10.7122
▁religioso	-10.7122
▁repercussão	-10.7122
▁rúgbi	-10.7122
▁sofri	-10.7122
▁televisão	-10.7122
▁traduz	-10.7122
▁truque	-10.7122
▁urgente	-10.7122
▁venezuelana	-10.7122
▁zagueiro	-10.7122
gressões	-10.7122
nônimo	-10.7122
▁Arquivo	-10.7122
▁Suécia	-10.7122
▁assunto	-10.7122
▁brincadeira	-10.7122
▁coopera	-10.7122
▁independência	-10.7122
▁radicais	-10.7122
▁turca	-10.7122
▁Estilista	-10.7122
▁belga	-10.7122
▁expande	-10.7122
▁utiliza	-10.7122
▁PUC	-10.7122
▁pizza	-10.7122
▁Pablo	-10.7122
▁desastre	-10.7122
▁diesel	-10.7122
▁equipamentos	-10.7122
▁repudia	-10.7122
▁Hick	-10.7122
▁fruto	-10.7122
▁grampo	-10.7122
▁repensa	-10.7122
▁Jaguar	-10.7122
▁minoria	-10.7122
▁nacionais	-10.7122
▁Ciclo	-10.7122
▁Wood	-10.7122
▁Campeão	-10.7122
▁Importa	-10.7122
▁espelho	-10.7122
▁ANP	-10.7122
▁Maluf	-10.7122
▁Montadora	-10.7122
▁Argel	-10.7122
▁pedaladas	-10.7122
vaquinha	-10.7122
▁Campinas	-10.7122
▁ultrapassa	-10.7122
▁grife	-10.7122
▁artificia	-10.7122
▁direta	-10.7122
▁Figueir	-10.7122
▁ideal	-10.7122
▁helicóptero	-10.7122
▁infecç	-10.7122
retrocesso	-10.7122
▁mescla	-10.7122
▁áudio	-10.7122
NBB	-10.7122
▁túne	-10.7122
▁rigor	-10.7122
▁adquir	-10.7122
▁balanço	-10.7122
▁rosto	-10.7122
▁vício	-10.7122
ilhete	-10.7122
▁River	-10.7123
▁esquece	-10.7123
▁temporário	-10.7123
▁pastor	-10.7123
▁ousadia	-10.7123
▁Medalha	-10.7123
tígio	-10.7123
way	-10.7123
▁combina	-10.7123
▁xinga	-10.7123
▁Leonard	-10.7123
▁Drama	-10.7123
▁Cristo	-10.7123
▁rádio	-10.7123
▁Mello	-10.7124
▁Rival	-10.7124
▁furta	-10.7124
▁frequent	-10.7124
▁kg	-10.7124
▁adesão	-10.7124
▁enterrado	-10.7125
▁Tony	-10.7125
▁Bank	-10.7125
▁apaixonado	-10.7126
▁Bandeira	-10.7126
▁promotor	-10.7126
▁banho	-10.7127
cepção	-10.7127
▁garantia	-10.7127
▁ilustra	-10.7127
▁Cobertura	-10.7128
▁carteira	-10.7128
▁auge	-10.7128
▁folha	-10.7128
▁hipismo	-10.7129
▁Mooca	-10.7129
▁dedicado	-10.7129
▁padrão	-10.7129
▁Haram	-10.713
▁criatividade	-10.713
▁Allen	-10.713
▁Sesc	-10.7131
▁Start	-10.7131
▁196	-10.7131
▁mestre	-10.7132
▁desaba	-10.7132
▁ABC	-10.7132
dista	-10.7133
▁Gasto	-10.7133
▁Penha	-10.7134
▁Procon	-10.7134
▁envolvidos	-10.7134
▁envio	-10.7135
▁aquece	-10.7135
▁MBA	-10.7135
burg	-10.7136
▁Magal	-10.7136
▁designer	-10.7137
▁Theatr	-10.7137
▁cabe	-10.7137
▁costas	-10.7137
▁Produtor	-10.7138
▁2004	-10.7138
▁aposentados	-10.7138
▁Greg	-10.7138
ncial	-10.7139
▁Bayern	-10.714
▁Terra	-10.7141
▁alguma	-10.7141
▁Chica	-10.7141
SN	-10.7143
oronel	-10.7144
▁vou	-10.7144
▁pressa	-10.7144
ovic	-10.7146
▁abala	-10.7147
nstein	-10.7148
gringo	-10.7148
▁100%	-10.7148
▁obstru	-10.7149
capacidade	-10.7151
▁DF	-10.7152
▁Dado	-10.7154
passo	-10.7159
▁25%	-10.7159
ocracia	-10.7159
Agenda	-10.7161
▁namorad	-10.7163
▁Shi	-10.7164
▁ferida	-10.7168
▁Peix	-10.717
▁Miran	-10.7177
▁Bob	-10.7183
▁delatores	-10.7186
▁ouça	-10.7188
▁gene	-10.7189
▁Carne	-10.719
▁previsto	-10.7191
leber	-10.7191
▁estações	-10.7192
▁Paz	-10.7195
▁sanção	-10.7204
▁canção	-10.7207
▁Fach	-10.7208
▁Regi	-10.7209
▁Nome	-10.7217
▁editora	-10.722
▁explode	-10.7228
▁Loca	-10.7232
▁atores	-10.7237
ditador	-10.7238
▁MC	-10.7238
▁cana	-10.7242
▁natal	-10.7255
▁balada	-10.726
ffe	-10.7275
▁coleta	-10.7282
▁pote	-10.7282
prime	-10.7284
▁operadora	-10.7285
▁errou	-10.7285
▁agredido	-10.7294
fest	-10.732
▁canto	-10.7325
▁compartilhado	-10.7327
80	-10.7334
▁Coca	-10.7335
▁contratação	-10.7349
▁encontrada	-10.7351
▁Miss	-10.7367
▁Radi	-10.7385
ási	-10.739
ceno	-10.7409
▁Rui	-10.7412
▁Samu	-10.7435
Tem	-10.7441
constitucional	-10.7442
azi	-10.7465
▁paisage	-10.7471
▁relembra	-10.7482
anjo	-10.7493
▁Muit	-10.7495
gross	-10.7502
▁liberada	-10.7504
tiveram	-10.7536
▁roubado	-10.7543
rtida	-10.7555
18	-10.7596
17	-10.7604
▁barrado	-10.7616
▁reuni	-10.7623
▁devolve	-10.7639
▁informal	-10.7645
▁confirmado	-10.7656
▁direto	-10.7696
▁localiza	-10.7698
táveis	-10.7723
▁evangélico	-10.773
▁58	-10.7731
▁Cre	-10.7738
▁36	-10.774
▁Nove	-10.7744
▁substituir	-10.7764
▁aprend	-10.7808
OL	-10.7813
▁Explos	-10.7818
▁venezuelano	-10.7826
▁minuto	-10.7833
▁aluno	-10.7839
▁organizado	-10.7847
▁derrub	-10.7869
▁Goleir	-10.7889
▁estudante	-10.7905
▁92	-10.7919
▁reabert	-10.7939
▁57	-10.7958
▁estaciona	-10.7973
▁Maj	-10.7984
▁sint	-10.7984
▁197	-10.7998
nstru	-10.8006
▁corredor	-10.8008
▁BB	-10.8019
▁procurado	-10.8022
Que	-10.8067
deputado	-10.8068
▁armado	-10.8068
prefeito	-10.8068
mulher	-10.807
▁caus	-10.8084
TV	-10.8088
▁dupl	-10.8095
▁Tel	-10.8099
▁divers	-10.8105
PR	-10.8106
Esqu	-10.8115
▁Rafael	-10.8121
Garot	-10.8133
▁migra	-10.8138
▁44	-10.8144
▁Hond	-10.8152
cident	-10.8169
▁74	-10.8172
▁simula	-10.8173
▁tradiciona	-10.8197
▁acompanha	-10.8201
▁Centra	-10.8205
ogra	-10.8211
▁consultor	-10.8218
▁Promotor	-10.8218
▁adult	-10.8219
itude	-10.822
quita	-10.8222
atriz	-10.8223
equência	-10.8226
erimônia	-10.8227
▁Medal	-10.8233
scrição	-10.8233
ópolis	-10.8233
▁insufici	-10.8233
▁contêiner	-10.8233
Against	-10.8233
Stairway	-10.8233
conhecimento	-10.8233
relógio	-10.8233
tórica	-10.8233
▁Agricultura	-10.8233
▁Ativista	-10.8233
▁Attack	-10.8233
▁Babenco	-10.8233
▁Bangladesh	-10.8233
▁Boulevard	-10.8233
▁Bruxelas	-10.8233
▁Correios	-10.8233
▁Croácia	-10.8233
▁Crítico	-10.8233
▁Engenhão	-10.8233
▁Espanhol	-10.8233
▁Esquema	-10.8233
▁Fabricante	-10.8233
▁Horizonte	-10.8233
▁Ipanema	-10.8233
▁Isinbaieva	-10.8233
▁MTST	-10.8233
▁Maravilha	-10.8233
▁McCartney	-10.8233
▁Mercury	-10.8233
▁Paralímpico	-10.8233
▁Pedalada	-10.8233
▁Perdizes	-10.8233
▁Planejamento	-10.8233
▁Plebiscito	-10.8233
▁Segredo	-10.8233
▁Snapchat	-10.8233
▁Suprema	-10.8233
▁Swimmer	-10.8233
▁Temperatura	-10.8233
▁Ucrânia	-10.8233
▁Vaticano	-10.8233
▁Wimbledon	-10.8233
▁ansiedade	-10.8233
▁bilheteria	-10.8233
▁bitcoin	-10.8233
▁clássica	-10.8233
▁democrático	-10.8233
▁desocupa	-10.8233
▁divergência	-10.8233
▁enfraquece	-10.8233
▁esclarec	-10.8233
▁extremista	-10.8233
▁filósof	-10.8233
▁garrafa	-10.8233
▁governista	-10.8233
▁inscrever	-10.8233
▁instituições	-10.8233
▁janeiro	-10.8233
▁janela	-10.8233
▁matemática	-10.8233
▁mínimo	-10.8233
▁quinto	-10.8233
▁restringe	-10.8233
▁sequestrado	-10.8233
▁2019	-10.8233
▁Hitler	-10.8233
▁Joesley	-10.8233
▁cruza	-10.8233
▁demonstra	-10.8233
▁resistir	-10.8233
▁saneamento	-10.8233
▁triplica	-10.8233
▁mistério	-10.8233
▁transtorno	-10.8233
▁Chinesa	-10.8233
▁Jazz	-10.8233
▁automático	-10.8233
▁repelente	-10.8233
▁vizinha	-10.8233
▁Comédia	-10.8233
▁Construtora	-10.8233
▁concedid	-10.8233
▁infância	-10.8233
▁selfie	-10.8233
rquestra	-10.8233
▁espacia	-10.8233
degustação	-10.8233
▁Entidade	-10.8233
▁IOC	-10.8233
▁demitido	-10.8233
▁síria	-10.8233
▁vermelho	-10.8233
▁Destaque	-10.8233
▁Convenç	-10.8233
▁Trek	-10.8233
▁Tunga	-10.8233
▁Temporada	-10.8233
▁conexão	-10.8233
▁comportamento	-10.8233
▁crônica	-10.8233
▁Green	-10.8233
roféu	-10.8233
▁Lady	-10.8233
▁Estrela	-10.8233
▁Longa	-10.8233
▁Pezão	-10.8233
▁piloto	-10.8233
▁Mediterrâneo	-10.8233
▁Padre	-10.8233
▁brecha	-10.8233
▁polariza	-10.8233
▁coleciona	-10.8233
▁ordena	-10.8233
▁seletiva	-10.8233
▁rural	-10.8233
▁Simone	-10.8233
▁Selic	-10.8233
▁confunde	-10.8233
▁PSOL	-10.8233
▁Briga	-10.8233
litze	-10.8233
tivesse	-10.8233
▁breve	-10.8233
▁Sonho	-10.8233
▁creche	-10.8233
▁Government	-10.8233
▁credores	-10.8233
▁transexua	-10.8233
▁Taxa	-10.8233
▁Escritor	-10.8233
Ensaio	-10.8233
▁objetivo	-10.8233
▁supermercado	-10.8233
▁contamina	-10.8233
▁limpo	-10.8233
▁curios	-10.8234
▁cheio	-10.8234
▁Passageiro	-10.8234
▁bilionário	-10.8234
▁seleções	-10.8234
▁sínd	-10.8234
▁Reuni	-10.8234
▁ingres	-10.8234
▁fique	-10.8234
▁sopa	-10.8234
▁Apoi	-10.8234
visibilidade	-10.8234
▁aderir	-10.8234
▁tropa	-10.8234
paulo	-10.8235
▁Ponto	-10.8235
▁Cervejaria	-10.8235
cioso	-10.8235
▁pesca	-10.8235
▁possibilidade	-10.8235
▁grego	-10.8235
▁varanda	-10.8235
▁resolver	-10.8235
▁Sucesso	-10.8235
▁quadrinhos	-10.8236
▁cheia	-10.8236
▁Suzan	-10.8236
▁empresta	-10.8236
Café	-10.8236
▁Polic	-10.8237
▁Paulinho	-10.8237
lhão	-10.8237
▁intima	-10.8238
▁atrito	-10.8238
▁Beach	-10.8238
▁Qa	-10.8239
▁Curt	-10.8239
ossível	-10.8239
ordices	-10.8239
▁Poeta	-10.8239
▁sorteio	-10.824
▁mensagens	-10.824
voz	-10.8242
▁Funar	-10.8243
▁lenta	-10.8243
▁Funarte	-10.8243
▁fuga	-10.8244
▁3.000	-10.8244
rmínio	-10.8246
▁cabelo	-10.8246
▁Guga	-10.8246
Mauá	-10.8246
▁Guns	-10.8247
▁radar	-10.8248
▁Principal	-10.8248
▁consultoria	-10.8248
guaio	-10.825
▁convidados	-10.825
▁Deficit	-10.825
queiro	-10.825
▁poste	-10.8251
▁familiares	-10.8252
▁Bibi	-10.8252
▁Mauric	-10.8253
▁1.000	-10.8254
exager	-10.8254
▁83	-10.8255
▁perseguição	-10.8255
▁Paraty	-10.8255
eyer	-10.8256
africano	-10.8257
▁pessoais	-10.8257
specto	-10.8257
▁vibra	-10.8257
▁Varejão	-10.8258
▁Alex	-10.8258
▁cotidiano	-10.8258
ilhares	-10.8258
▁diplomata	-10.8259
▁trabalhador	-10.8259
▁Verde	-10.826
prima	-10.8261
▁Teste	-10.8264
▁Suspens	-10.8264
▁Forma	-10.8268
▁varia	-10.827
▁Get	-10.8273
▁Compet	-10.8276
ificado	-10.8277
▁Prova	-10.8279
elembr	-10.8282
sustentabilidade	-10.8282
▁ocupações	-10.8295
▁governadores	-10.8296
▁baseada	-10.83
▁Ilha	-10.83
▁bateria	-10.8305
▁entrave	-10.8308
grega	-10.8309
léri	-10.8311
aratona	-10.8313
▁mexicano	-10.8315
▁Quart	-10.8315
▁Cerc	-10.8323
NS	-10.8338
renal	-10.8338
▁Juro	-10.8344
▁GO	-10.8344
▁fue	-10.8355
rejo	-10.8364
▁Esper	-10.8369
▁foca	-10.8371
▁disc	-10.8376
▁Ly	-10.8377
▁transferido	-10.8384
▁Já	-10.8385
▁Kah	-10.8389
nterior	-10.8398
preende	-10.8406
pert	-10.8418
▁Fun	-10.8441
▁doces	-10.8449
otéis	-10.846
▁mina	-10.8489
▁invenci	-10.849
▁Ayr	-10.8494
aliada	-10.8503
▁adaptado	-10.8505
nô	-10.8521
▁salta	-10.8522
▁cotado	-10.8532
▁Trabalhador	-10.8546
artilha	-10.8695
▁caminh	-10.8719
▁800	-10.8726
▁Nig	-10.8734
Lobos	-10.8743
▁Leandr	-10.8755
dução	-10.8765
▁substitui	-10.8812
box	-10.8815
▁Marin	-10.8856
stádio	-10.8861
arry	-10.8861
▁Már	-10.8864
tonel	-10.8879
sraelense	-10.8902
▁repeti	-10.8903
atleta	-10.8911
▁Moto	-10.8921
▁cumpri	-10.893
dge	-10.8932
▁ousa	-10.8944
tenso	-10.896
▁finalista	-10.8962
▁Soni	-10.897
▁homenagead	-10.8982
fera	-10.9001
vasão	-10.9018
▁frase	-10.9078
▁pênalti	-10.9079
▁usuário	-10.908
▁pobre	-10.9082
▁idoso	-10.9085
▁turista	-10.9089
▁bolsa	-10.9089
▁audi	-10.9095
▁colega	-10.9098
▁autoriz	-10.91
▁ferido	-10.9112
aven	-10.9122
funk	-10.9123
legado	-10.9158
▁golf	-10.9161
baixo	-10.9163
NE	-10.921
ízes	-10.9229
▁Holand	-10.9235
Harr	-10.9253
cabou	-10.9308
Guia	-10.9314
▁transferi	-10.9315
Y	-10.9317
doença	-10.9317
construção	-10.9317
cabeça	-10.9317
senador	-10.9319
série	-10.9319
Brasil	-10.932
poder	-10.9321
RJ	-10.9327
▁vesti	-10.9328
▁editor	-10.9361
fensores	-10.937
quebra	-10.9379
Ben	-10.9381
▁1,8	-10.9386
água	-10.9387
Uni	-10.9394
ntegra	-10.9416
▁assum	-10.9417
ferta	-10.9419
ficial	-10.9421
▁perfei	-10.9423
▁Mik	-10.9426
▁sustenta	-10.9427
▁dirige	-10.9434
▁Banc	-10.9435
▁Fáb	-10.9437
▁torno	-10.9438
▁Fei	-10.944
mbros	-10.9444
ógrafo	-10.9452
▁rejei	-10.9458
▁Varej	-10.9459
▁investidor	-10.9459
▁restaura	-10.947
residência	-10.9471
omércio	-10.9477
etróleo	-10.9479
onfiança	-10.9479
inanciamento	-10.9479
▁Pré	-10.9482
▁ilumina	-10.9483
▁improvisa	-10.9483
▁marginal	-10.9483
▁significa	-10.9483
▁típic	-10.9483
Eletronuclear	-10.9483
olocausto	-10.9483
sustentáveis	-10.9483
utomóvel	-10.9483
voluntário	-10.9483
▁Anfavea	-10.9483
▁Análise	-10.9483
▁Araújo	-10.9483
▁Argentino	-10.9483
▁Broadway	-10.9483
▁Cantareira	-10.9483
▁Cavendish	-10.9483
▁Colombiano	-10.9483
▁Confronto	-10.9483
▁Corrêa	-10.9483
▁Crítica	-10.9483
▁Deputada	-10.9483
▁Fallujah	-10.9483
▁Guantánamo	-10.9483
▁Hacker	-10.9483
▁Inspirado	-10.9483
▁Negócio	-10.9483
▁Pampulha	-10.9483
▁Paralympic	-10.9483
▁Parlamentar	-10.9483
▁Paschoal	-10.9483
▁Pivô	-10.9483
▁Sharapova	-10.9483
▁Ticket	-10.9483
▁Vôlei	-10.9483
▁alavanca	-10.9483
▁alegria	-10.9483
▁bagunça	-10.9483
▁bilionária	-10.9483
▁básico	-10.9483
▁clínica	-10.9483
▁criminoso	-10.9483
▁currículo	-10.9483
▁desaparece	-10.9483
▁desaparecido	-10.9483
▁descoberta	-10.9483
▁difíceis	-10.9483
▁diplomático	-10.9483
▁economizar	-10.9483
▁emergentes	-10.9483
▁empreendimento	-10.9483
▁evidencia	-10.9483
▁finanças	-10.9483
▁franceses	-10.9483
▁frauda	-10.9483
▁frutas	-10.9483
▁fôlego	-10.9483
▁gastronômica	-10.9483
▁gastronômico	-10.9483
▁ginasta	-10.9483
▁historiador	-10.9483
▁húngar	-10.9483
▁improváve	-10.9483
▁incorpora	-10.9483
▁independente	-10.9483
▁instituto	-10.9483
▁jacaré	-10.9483
▁japoneses	-10.9483
▁junina	-10.9483
▁minimalista	-10.9483
▁necessária	-10.9483
▁oficiais	-10.9483
▁palhaço	-10.9483
▁pedofilia	-10.9483
▁perspectiva	-10.9483
▁plástica	-10.9483
▁plástico	-10.9483
▁privatizações	-10.9483
▁pronunciamento	-10.9483
▁publicitário	-10.9483
▁recebida	-10.9483
▁religiosa	-10.9483
▁restrições	-10.9483
▁saudita	-10.9483
▁sospechoso	-10.9483
▁streaming	-10.9483
▁turística	-10.9483
▁urgência	-10.9483
▁utilitário	-10.9483
▁veterano	-10.9483
▁álcool	-10.9483
Ilustrad	-10.9483
aiwan	-10.9483
▁2010	-10.9483
▁Executivo	-10.9483
▁FGV	-10.9483
▁Frank	-10.9483
▁Iêmen	-10.9483
▁Jundiaí	-10.9483
▁VIP	-10.9483
▁Weekend	-10.9483
▁critério	-10.9483
▁dezembro	-10.9483
▁machismo	-10.9483
▁resíduos	-10.9483
▁Deodoro	-10.9483
▁Inverno	-10.9483
▁Preven	-10.9483
▁computador	-10.9483
▁desconfiança	-10.9483
▁polui	-10.9483
▁Palocci	-10.9483
▁Pioneiro	-10.9483
▁skate	-10.9483
▁repressão	-10.9483
▁Beatle	-10.9483
▁Lançamento	-10.9483
▁desvenda	-10.9483
field	-10.9483
▁Pequena	-10.9483
▁conceito	-10.9483
▁esbarra	-10.9483
▁minério	-10.9483
▁Porchat	-10.9483
▁Publicitári	-10.9483
▁excedente	-10.9483
▁oculta	-10.9483
▁espiona	-10.9483
▁humanitári	-10.9483
▁populista	-10.9483
▁regiões	-10.9483
▁recall	-10.9483
▁ópera	-10.9483
▁turbina	-10.9483
▁Cartola	-10.9483
▁acampamento	-10.9483
▁executa	-10.9483
▁descobri	-10.9483
▁ressaca	-10.9483
▁Berlim	-10.9483
▁caipira	-10.9483
▁inteiro	-10.9483
▁Vencedor	-10.9483
▁alcald	-10.9483
óloga	-10.9483
▁brilho	-10.9483
▁desgaste	-10.9483
▁Gestor	-10.9483
▁sapato	-10.9483
▁MIS	-10.9483
ulgamento	-10.9483
▁regulamenta	-10.9483
▁encanta	-10.9483
▁Estadua	-10.9483
▁desbanca	-10.9483
▁Amaral	-10.9483
lobby	-10.9483
▁Play	-10.9483
▁prazer	-10.9483
▁cavalo	-10.9483
▁dramátic	-10.9483
▁Sabesp	-10.9483
▁Praz	-10.9483
▁comentário	-10.9483
▁flexível	-10.9483
▁pintor	-10.9483
▁Samsun	-10.9483
▁magn	-10.9484
privatizar	-10.9484
▁Gene	-10.9484
▁contradiz	-10.9484
▁anual	-10.9484
▁soci	-10.9484
▁abraça	-10.9484
▁Teresa	-10.9484
▁atitude	-10.9484
▁choca	-10.9484
Diretas	-10.9484
▁naturais	-10.9484
▁restrit	-10.9484
▁reabri	-10.9484
Black	-10.9484
▁violento	-10.9484
▁varejo	-10.9485
▁best	-10.9485
▁estudanti	-10.9485
▁Sexo	-10.9485
▁desejo	-10.9485
Down	-10.9485
▁violenta	-10.9485
▁domínio	-10.9486
▁semifinais	-10.9486
▁parceiros	-10.9486
▁versões	-10.9486
▁Francesa	-10.9486
▁calcula	-10.9486
▁rampa	-10.9486
▁montadoras	-10.9486
▁Trein	-10.9487
▁extens	-10.9487
▁Príncipe	-10.9487
▁ficha	-10.9487
▁banal	-10.9487
▁Longe	-10.9487
▁Biles	-10.9487
▁calçad	-10.9487
▁Doping	-10.9488
▁Village	-10.9488
▁deserto	-10.9488
salvou	-10.9488
▁Roteiro	-10.9489
▁detalha	-10.9489
▁Shel	-10.9489
▁sangr	-10.9489
▁evoca	-10.9489
work	-10.9489
▁coletiva	-10.9489
▁laudo	-10.9489
▁emplaca	-10.949
▁Menina	-10.949
▁coragem	-10.949
padre	-10.9491
▁MPB	-10.9491
▁rebaixamento	-10.9491
▁Baiano	-10.9491
guês	-10.9492
▁Garcia	-10.9492
▁Camil	-10.9492
▁diversifica	-10.9493
▁Mônica	-10.9493
▁edita	-10.9493
qualifica	-10.9494
▁Hip	-10.9494
▁Holland	-10.9494
▁Cenário	-10.9494
▁sombra	-10.9494
▁apelo	-10.9494
quinho	-10.9494
▁Alison	-10.9495
▁perigoso	-10.9495
Macbeth	-10.9495
▁agita	-10.9495
▁motiva	-10.9496
▁Mayor	-10.9496
▁Belém	-10.9496
▁favorita	-10.9497
▁Waldi	-10.9497
▁desabamento	-10.9497
▁Richa	-10.9498
▁produzido	-10.9498
▁engana	-10.9498
▁incerto	-10.9498
▁Efeito	-10.9498
▁nuve	-10.9499
▁levantamento	-10.9499
▁belo	-10.95
▁altura	-10.9501
▁nomeações	-10.9501
▁2009	-10.9502
ogue	-10.9502
ianista	-10.9503
▁87	-10.9503
▁Ivan	-10.9504
fecho	-10.9504
▁podre	-10.9505
▁Quebra	-10.9506
Torre	-10.9506
▁depósito	-10.9506
▁dividid	-10.9507
▁Fox	-10.9507
minário	-10.9507
rizon	-10.9508
▁Pires	-10.951
▁consol	-10.951
▁recib	-10.9511
▁fabricante	-10.9512
ilândia	-10.9512
▁Nory	-10.9513
▁acirrada	-10.9514
▁Profissional	-10.9515
ector	-10.9515
▁aciona	-10.9516
▁negativa	-10.9516
gênio	-10.9517
▁consig	-10.9519
▁traça	-10.9519
▁emenda	-10.9521
▁Orient	-10.9521
▁parlamentares	-10.9521
▁Marinha	-10.9522
▁estende	-10.9523
▁maneira	-10.9523
▁lavar	-10.9524
▁64	-10.9524
aína	-10.9525
▁duro	-10.9527
▁saque	-10.9528
▁atribui	-10.953
▁Povo	-10.9535
preta	-10.9536
▁camb	-10.9537
▁fiz	-10.9542
▁cultiv	-10.9543
▁Grava	-10.9544
digna	-10.9544
▁oitav	-10.9548
▁53	-10.9549
▁13%	-10.9552
▁simulado	-10.9556
▁Ney	-10.956
▁maquiage	-10.9562
▁pano	-10.9562
▁hostilizado	-10.9565
abul	-10.9573
▁Seul	-10.9574
▁prega	-10.9577
quista	-10.9578
papo	-10.9581
NYT	-10.9587
▁perna	-10.9594
idt	-10.9598
▁recei	-10.9601
anti	-10.9602
▁Tira	-10.9605
▁sobrevivente	-10.9606
▁Lista	-10.9614
▁rito	-10.9626
igno	-10.9638
▁Cout	-10.9643
engan	-10.9648
▁Volta	-10.9649
iliar	-10.9658
▁resta	-10.9663
▁trato	-10.9676
avier	-10.9678
▁Quest	-10.968
▁Valor	-10.9688
▁Atriz	-10.969
bandido	-10.9717
▁Alt	-10.977
Gusta	-10.9772
abá	-10.978
▁Fonte	-10.9795
▁ouvido	-10.9807
boom	-10.9828
lém	-10.9865
▁There	-10.9868
íba	-10.9936
ET	-10.9949
▁naturaliza	-10.9969
▁surd	-11.0049
98	-11.0074
invest	-11.0081
▁Bach	-11.01
▁Anast	-11.0101
▁Laur	-11.0184
▁ignor	-11.0219
▁IP	-11.0245
popul	-11.0259
Home	-11.0304
▁Dun	-11.0306
Charl	-11.0313
▁Constru	-11.0341
dutor	-11.0346
▁inspir	-11.0367
Big	-11.0372
▁Mark	-11.0446
Crime	-11.0478
visões	-11.0482
▁lanc	-11.0491
inici	-11.0493
▁paciente	-11.0505
▁despesa	-11.0508
▁republicano	-11.0509
▁analista	-11.0511
▁pequeno	-11.0511
▁desculpa	-11.0511
▁conjunt	-11.0532
▁2,8	-11.0538
▁140	-11.0552
▁Eleit	-11.0559
▁pod	-11.0585
▁infla	-11.0609
Quan	-11.0643
organ	-11.0675
▁investig	-11.0683
▁Protest	-11.0688
abafar	-11.0699
▁Delega	-11.0732
núncio	-11.0735
volta	-11.0738
defini	-11.0738
Z	-11.0741
braço	-11.0744
executivo	-11.0744
New	-11.0745
candidato	-11.0747
Arte	-11.0749
juste	-11.0753
muito	-11.076
venida	-11.0779
liança	-11.0785
Nun	-11.0788
▁Ministr	-11.079
Doi	-11.0821
▁Brun	-11.0838
▁repatria	-11.0871
▁Profissiona	-11.0875
▁President	-11.0878
▁entregue	-11.0881
▁hostiliza	-11.0882
▁Fór	-11.0883
▁Quadr	-11.0885
▁familiar	-11.0887
▁cult	-11.0893
limpíada	-11.0894
enúncia	-11.0903
ustentável	-11.0905
▁insatisf	-11.0908
▁fraca	-11.0909
esultado	-11.0909
▁ciclo	-11.091
▁desigual	-11.091
mprensa	-11.091
Procura	-11.091
ênis	-11.0911
▁Public	-11.0911
▁desvaloriza	-11.0911
▁empolga	-11.0911
armacêutica	-11.0911
ncógnita	-11.0911
scravidão	-11.0911
ágrimas	-11.0911
▁Adversário	-11.0911
▁Android	-11.0911
▁Biblioteca	-11.0911
▁Britto	-11.0911
▁Butantã	-11.0911
▁CPMF	-11.0911
▁Cachoeira	-11.0911
▁Caminhão	-11.0911
▁Chevrolet	-11.0911
▁Constituinte	-11.0911
▁Corregedor	-11.0911
▁Diferente	-11.0911
▁Dirigente	-11.0911
▁Garrincha	-11.0911
▁Ingresso	-11.0911
▁Júpiter	-11.0911
▁Leopoldina	-11.0911
▁Miguel	-11.0911
▁Música	-11.0911
▁Nicarágua	-11.0911
▁Participa	-11.0911
▁Pinacoteca	-11.0911
▁Sebasti	-11.0911
▁Somália	-11.0911
▁Tapajós	-11.0911
▁agressiv	-11.0911
▁agricultura	-11.0911
▁aquático	-11.0911
▁assembleia	-11.0911
▁australiano	-11.0911
▁automóveis	-11.0911
▁biblioteca	-11.0911
▁blindado	-11.0911
▁bombardeio	-11.0911
▁cocaína	-11.0911
▁combustíveis	-11.0911
▁competições	-11.0911
▁compromete	-11.0911
▁contemporânea	-11.0911
▁cosméticos	-11.0911
▁cumpre	-11.0911
▁divórcio	-11.0911
▁eficiência	-11.0911
▁eficácia	-11.0911
▁endereço	-11.0911
▁endivida	-11.0911
▁endurece	-11.0911
▁expandi	-11.0911
▁fraqueza	-11.0911
▁gourmet	-11.0911
▁holandes	-11.0911
▁homologa	-11.0911
▁imediata	-11.0911
▁intolerância	-11.0911
▁menciona	-11.0911
▁offshore	-11.0911
▁policía	-11.0911
▁primavera	-11.0911
▁projeções	-11.0911
▁pássaro	-11.0911
▁quadrilha	-11.0911
▁química	-11.0911
▁reavalia	-11.0911
▁refrigerante	-11.0911
▁regionais	-11.0911
▁retrospectiva	-11.0911
▁seguridad	-11.0911
▁smartphone	-11.0911
▁socorre	-11.0911
▁sorvete	-11.0911
▁sátira	-11.0911
▁sítio	-11.0911
▁tablets	-11.0911
▁tolerância	-11.0911
▁tornozeleira	-11.0911
▁turma	-11.0911
▁uniforme	-11.0911
▁utopia	-11.0911
disciplina	-11.0911
▁Arnaldo	-11.0911
▁Autódromo	-11.0911
▁HIV	-11.0911
▁Saraiva	-11.0911
▁Street	-11.0911
▁absolut	-11.0911
▁absurd	-11.0911
▁burocracia	-11.0911
▁centenári	-11.0911
▁contemporâneo	-11.0911
▁controvérsia	-11.0911
▁envelheci	-11.0911
▁extremo	-11.0911
▁frágil	-11.0911
▁imagina	-11.0911
▁iraniano	-11.0911
▁islã	-11.0911
▁origens	-11.0911
▁papéis	-11.0911
▁petroleir	-11.0911
▁plataforma	-11.0911
▁remunera	-11.0911
▁revanche	-11.0911
▁triunf	-11.0911
fluxo	-11.0911
▁Receive	-11.0911
▁Toronto	-11.0911
▁VLT	-11.0911
▁Week	-11.0911
▁Young	-11.0911
▁almoça	-11.0911
▁centenas	-11.0911
▁cidadão	-11.0911
▁cubana	-11.0911
▁desmatamento	-11.0911
▁sertanej	-11.0911
▁sétim	-11.0911
▁tatuage	-11.0911
▁Consumidor	-11.0911
▁arrepende	-11.0911
▁equivale	-11.0911
▁mágica	-11.0911
▁mágico	-11.0911
▁Bronze	-11.0911
▁Médio	-11.0911
▁competitiv	-11.0911
▁rompi	-11.0911
▁Consultor	-11.0911
▁Conversa	-11.0911
▁Humanos	-11.0911
▁empregado	-11.0911
▁terapia	-11.0911
▁empurr	-11.0911
▁transplant	-11.0911
▁Cineasta	-11.0911
▁TCE	-11.0911
▁conforto	-11.0911
▁feijão	-11.0911
▁pessimis	-11.0911
▁Bagdá	-11.0912
▁Group	-11.0912
▁persiste	-11.0912
▁intervenç	-11.0912
▁Esquerd	-11.0912
▁Paraíso	-11.0912
▁buraco	-11.0912
▁travesti	-11.0912
▁Editora	-11.0912
▁modifica	-11.0912
▁Bryan	-11.0912
▁Oswald	-11.0912
▁barriga	-11.0912
pecuária	-11.0912
Mercad	-11.0912
▁CEO	-11.0912
▁Snow	-11.0912
▁resume	-11.0912
▁reitera	-11.0912
▁boneco	-11.0912
▁infern	-11.0912
▁OMC	-11.0912
▁circo	-11.0912
▁firme	-11.0912
▁Galeria	-11.0912
▁agiliza	-11.0912
▁embarca	-11.0912
▁útil	-11.0912
▁Chinese	-11.0912
▁Volks	-11.0912
▁baleada	-11.0912
▁trípl	-11.0912
▁concilia	-11.0912
▁crack	-11.0912
▁Retiro	-11.0912
▁catalã	-11.0912
▁linguage	-11.0912
▁impressiona	-11.0912
▁empresarial	-11.0912
▁superior	-11.0912
▁conscient	-11.0912
▁Veloso	-11.0912
frango	-11.0912
▁Suicid	-11.0912
▁hábito	-11.0912
▁ensaia	-11.0912
▁admitir	-11.0912
▁Kong	-11.0912
▁ampla	-11.0912
▁sugeri	-11.0912
▁Galeão	-11.0912
Mágic	-11.0912
▁Opini	-11.0912
▁leilões	-11.0912
▁roedor	-11.0912
▁Azul	-11.0912
▁catador	-11.0912
solitário	-11.0912
▁Baixa	-11.0912
▁cartola	-11.0912
▁brasa	-11.0912
.500	-11.0913
▁queijo	-11.0913
Mídia	-11.0913
▁lenti	-11.0913
▁pretens	-11.0913
▁Macron	-11.0913
▁Russa	-11.0913
▁fuzi	-11.0913
▁militante	-11.0913
▁exceção	-11.0913
▁foragido	-11.0913
▁bagage	-11.0913
▁Justic	-11.0913
▁tradução	-11.0913
▁fórmula	-11.0913
▁Girl	-11.0914
▁gafe	-11.0914
▁impossível	-11.0914
▁Blair	-11.0914
uditoria	-11.0914
▁Romero	-11.0914
álogo	-11.0914
▁Prévia	-11.0914
▁Aposentadoria	-11.0914
▁chut	-11.0914
▁fashion	-11.0914
▁1950	-11.0914
▁grade	-11.0914
▁paraíso	-11.0914
▁fast	-11.0914
▁isenta	-11.0914
▁existi	-11.0914
▁PSD	-11.0914
▁CNN	-11.0914
ltima	-11.0914
▁minera	-11.0915
▁Atala	-11.0915
▁ronda	-11.0915
▁Farias	-11.0915
▁lento	-11.0915
▁estampa	-11.0915
▁esgotados	-11.0915
▁obrigatório	-11.0915
▁Gerais	-11.0915
▁Risco	-11.0916
▁famosa	-11.0916
▁Analista	-11.0916
▁desenha	-11.0916
▁Imagens	-11.0916
edágio	-11.0916
▁seringa	-11.0916
▁Lenk	-11.0916
villa	-11.0917
▁requer	-11.0917
▁Whi	-11.0917
▁secreto	-11.0917
▁Bauru	-11.0917
▁Light	-11.0917
estresse	-11.0917
▁certa	-11.0917
▁1990	-11.0917
▁omite	-11.0917
▁lhe	-11.0918
lefante	-11.0918
▁entrou	-11.0918
▁incita	-11.0919
▁Torch	-11.0919
▁bandidos	-11.0919
▁Integra	-11.0919
▁galinha	-11.0919
▁barragem	-11.0919
streante	-11.0921
▁tempero	-11.0921
▁extradi	-11.0921
▁baiano	-11.0921
▁biografia	-11.0922
▁mental	-11.0922
▁conservadorismo	-11.0922
-12	-11.0922
▁Verdade	-11.0922
▁revend	-11.0923
▁Neuro	-11.0923
▁sindical	-11.0923
▁simpati	-11.0923
▁Clari	-11.0923
▁montanha	-11.0924
▁Impac	-11.0924
▁plat	-11.0925
▁Vento	-11.0926
▁indefiniç	-11.0927
▁malha	-11.0927
▁Jô	-11.0928
▁pronta	-11.0928
▁Marvel	-11.0928
▁horr	-11.0928
▁iniciativa	-11.0928
▁assim	-11.0929
ônico	-11.0929
▁2008	-11.093
▁domic	-11.093
ranja	-11.0932
▁Cantor	-11.0933
▁susto	-11.0933
▁geno	-11.0933
▁Brás	-11.0933
▁Water	-11.0934
▁2005	-11.0935
scuro	-11.0936
▁atualidade	-11.0937
▁bela	-11.0938
▁craque	-11.0938
loys	-11.0939
▁89	-11.0939
ngola	-11.094
anking	-11.094
▁virtu	-11.0941
▁agir	-11.0943
▁Enche	-11.0944
▁gira	-11.0946
▁treinamento	-11.0946
▁hit	-11.0947
▁Image	-11.0949
▁operári	-11.095
▁Posse	-11.095
▁senso	-11.0952
▁cego	-11.0953
inense	-11.0953
▁Tour	-11.0958
▁raio	-11.0962
nternet	-11.0963
▁Off	-11.0967
▁Chamad	-11.0968
▁Hort	-11.0969
lagoa	-11.0979
▁torcedor	-11.0985
covard	-11.0985
udô	-11.0988
▁Paol	-11.1007
coreana	-11.1011
▁adere	-11.1011
informado	-11.1026
construído	-11.1029
▁Objet	-11.1043
▁Angel	-11.1045
▁operador	-11.1046
▁luto	-11.106
▁Kob	-11.1082
▁expressiv	-11.1085
selle	-11.1088
▁Rég	-11.1099
illion	-11.1116
modi	-11.1117
Bron	-11.1128
hip	-11.1133
assado	-11.114
pression	-11.1151
▁surt	-11.1163
rreal	-11.1186
▁fome	-11.1191
Mille	-11.1236
acionamento	-11.1249
▁Inscri	-11.1259
▁atualiza	-11.1265
▁hospitalizad	-11.1271
Velho	-11.1297
▁equip	-11.1305
struir	-11.1318
▁Rub	-11.1327
▁materia	-11.1343
▁Luga	-11.136
▁curador	-11.141
▁ironi	-11.1457
omance	-11.1515
cunh	-11.1544
▁1,7	-11.1609
▁gesto	-11.1615
▁Fiscal	-11.1628
▁Organizador	-11.1632
Quero	-11.1684
▁Maur	-11.1722
habe	-11.1763
Perdi	-11.1847
▁estupra	-11.1921
▁denunci	-11.1933
▁0,5	-11.1955
ecológic	-11.1983
▁defensor	-11.2074
▁transform	-11.2139
▁enterr	-11.2178
▁droga	-11.2181
▁refugiado	-11.2184
▁Club	-11.223
▁provis	-11.2304
▁churrasc	-11.2306
▁inscriç	-11.235
▁legisla	-11.2388
tribut	-11.2398
çúcar	-11.2399
rquitetura	-11.2401
luguel	-11.2405
pública	-11.2408
Social	-11.2409
articula	-11.241
positivo	-11.2411
propaganda	-11.2413
Mulher	-11.2413
preço	-11.2414
mercado	-11.2414
Cunha	-11.2416
tudo	-11.2421
▁atingid	-11.2422
▁exclu	-11.2423
governo	-11.2425
100	-11.2426
Minh	-11.2427
▁Terceir	-11.2432
drama	-11.2438
gund	-11.2439
Chor	-11.2442
éticos	-11.245
guerra	-11.245
▁grama	-11.2464
▁troc	-11.2487
▁Manifesta	-11.249
ntim	-11.251
▁feri	-11.2524
▁licita	-11.2538
eterminado	-11.2539
▁mensal	-11.2551
▁feminis	-11.2563
omunicação	-11.2573
▁judici	-11.2573
atrimônio	-11.2574
rópria	-11.2574
▁France	-11.2574
iroteio	-11.2575
aduto	-11.2577
ofobia	-11.2578
ódromo	-11.2578
▁personaliza	-11.2578
-2008	-11.2578
Nenhum	-11.2578
Sustentabilidade	-11.2578
Vaccari	-11.2578
atlântic	-11.2578
gnóstico	-11.2578
tesoureiro	-11.2578
utocrítica	-11.2578
ânimo	-11.2578
▁Acrônimo	-11.2578
▁Advogada	-11.2578
▁Afeganistão	-11.2578
▁Ambiente	-11.2578
▁Aquático	-11.2578
▁Blogueir	-11.2578
▁Britânico	-11.2578
▁Capanema	-11.2578
▁Condomínios	-11.2578
▁Coritiba	-11.2578
▁Dinamarca	-11.2578
▁Dumont	-11.2578
▁Escobar	-11.2578
▁Esgrim	-11.2578
▁Faculdade	-11.2578
▁Finish	-11.2578
▁Franquia	-11.2578
▁Gaspari	-11.2578
▁Giovann	-11.2578
▁Iguatemi	-11.2578
▁InBev	-11.2578
▁Inadimpl	-11.2578
▁Investidor	-11.2578
▁Laboratório	-11.2578
▁Literatura	-11.2578
▁Noruega	-11.2578
▁Pitanguy	-11.2578
▁Pressionado	-11.2578
▁Prioridade	-11.2578
▁Problema	-11.2578
▁Quênia	-11.2578
▁Riviera	-11.2578
▁Rocinha	-11.2578
▁Sobrevivente	-11.2578
▁Tiririca	-11.2578
▁Veterano	-11.2578
▁Virgin	-11.2578
▁acréscimos	-11.2578
▁artístico	-11.2578
▁assaltados	-11.2578
▁assegura	-11.2578
▁bêbado	-11.2578
▁caipirinha	-11.2578
▁cesárea	-11.2578
▁chavista	-11.2578
▁coalizão	-11.2578
▁conspira	-11.2578
▁controvers	-11.2578
▁democrática	-11.2578
▁diferencia	-11.2578
▁encomenda	-11.2578
▁envelhece	-11.2578
▁escancara	-11.2578
▁esgrima	-11.2578
▁evolui	-11.2578
▁festeja	-11.2578
▁físicos	-11.2578
▁habitantes	-11.2578
▁humilha	-11.2578
▁imaginário	-11.2578
▁imperial	-11.2578
▁incendiado	-11.2578
▁inelegível	-11.2578
▁intelectual	-11.2578
▁islâmico	-11.2578
▁juniores	-11.2578
▁manifesto	-11.2578
▁marginais	-11.2578
▁maternidade	-11.2578
▁mergulh	-11.2578
▁máximo	-11.2578
▁princesa	-11.2578
▁psicológic	-11.2578
▁publicitária	-11.2578
▁químico	-11.2578
▁refugiada	-11.2578
▁religião	-11.2578
▁responsáveis	-11.2578
▁revitaliza	-11.2578
▁sanduíche	-11.2578
▁slogan	-11.2578
▁velocista	-11.2578
Palavra	-11.2578
trégua	-11.2578
▁Carvalho	-11.2578
▁Curry	-11.2578
▁Estupro	-11.2578
▁Jaqueline	-11.2578
▁Kafka	-11.2578
▁Muricy	-11.2578
▁NBC	-11.2578
▁bicampeã	-11.2578
▁colorir	-11.2578
▁complementar	-11.2578
▁construções	-11.2578
▁desespero	-11.2578
▁esportiva	-11.2578
▁extorsão	-11.2578
▁favoritismo	-11.2578
▁preventiva	-11.2578
▁reféns	-11.2578
▁torneira	-11.2578
mizade	-11.2578
▁2021	-11.2578
▁Infrae	-11.2578
▁Lindberg	-11.2578
▁Negocia	-11.2578
▁amazônic	-11.2578
▁corrigi	-11.2578
▁estranho	-11.2578
▁exílio	-11.2578
▁neutra	-11.2578
▁nordestin	-11.2578
▁pioneira	-11.2578
▁plural	-11.2578
▁rendimento	-11.2578
▁resort	-11.2578
▁ruins	-11.2578
▁vitrine	-11.2578
▁Brook	-11.2578
▁Celular	-11.2578
▁Criticado	-11.2578
▁Italiano	-11.2578
▁Itaquera	-11.2578
▁arrisca	-11.2578
▁inocente	-11.2578
▁partidária	-11.2578
▁tapete	-11.2578
eviravolta	-11.2578
▁Trecho	-11.2578
▁idiota	-11.2578
▁paciência	-11.2578
Playboy	-11.2578
▁Usuário	-11.2578
▁genética	-11.2578
▁invadir	-11.2578
blindar	-11.2578
▁pecados	-11.2578
▁psiqui	-11.2578
▁revisto	-11.2578
▁Pizza	-11.2578
▁Sírio	-11.2578
▁legenda	-11.2578
▁Centenári	-11.2578
▁Joyce	-11.2578
▁TAM	-11.2578
▁desponta	-11.2578
▁legais	-11.2578
▁Defini	-11.2578
▁estabiliza	-11.2578
▁impacta	-11.2578
▁picape	-11.2578
▁MAC	-11.2578
▁partidário	-11.2578
bondades	-11.2578
▁Jamaica	-11.2578
▁abastec	-11.2578
▁descoberto	-11.2578
▁vertical	-11.2578
▁Furnas	-11.2578
▁bombeiro	-11.2578
▁Informa	-11.2578
▁Piloto	-11.2578
▁Paciente	-11.2578
▁monumento	-11.2578
▁Murilo	-11.2578
indícios	-11.2578
▁apreens	-11.2578
▁assassinado	-11.2578
▁drive	-11.2578
▁Convoca	-11.2578
▁Steven	-11.2578
▁milagre	-11.2578
▁pressões	-11.2578
▁multinaciona	-11.2578
▁Funai	-11.2578
▁degrada	-11.2578
▁Aguiar	-11.2578
▁arruma	-11.2578
▁substituto	-11.2578
▁Dudu	-11.2578
▁Rivais	-11.2578
▁Urban	-11.2578
▁parcial	-11.2578
ctual	-11.2578
ijão	-11.2579
▁plena	-11.2579
▁desligado	-11.2579
▁Celg	-11.2579
▁Duarte	-11.2579
▁Poderes	-11.2579
▁fisco	-11.2579
ênia	-11.2579
▁assistência	-11.2579
▁Gramado	-11.2579
▁Plate	-11.2579
▁Necess	-11.2579
locutor	-11.2579
▁vegetarian	-11.2579
▁sentença	-11.2579
▁afegã	-11.2579
▁chope	-11.2579
▁terreno	-11.2579
▁Prepar	-11.2579
▁Roubo	-11.2579
▁desperta	-11.2579
▁acredito	-11.2579
▁acalma	-11.2579
▁Judoca	-11.2579
▁transferência	-11.2579
▁romântico	-11.2579
▁Cardoso	-11.2579
Titã	-11.2579
▁enchente	-11.2579
▁Famosa	-11.2579
▁grafite	-11.258
▁Existe	-11.258
▁Moore	-11.258
hippie	-11.258
fona	-11.258
▁vigor	-11.258
▁Delegation	-11.258
▁impuls	-11.258
▁sentado	-11.258
Mogli	-11.258
▁instrumento	-11.258
▁geladeira	-11.258
▁horta	-11.258
▁Chapo	-11.258
▁vocali	-11.258
▁veio	-11.258
íbli	-11.2581
▁Vander	-11.2581
▁Troca	-11.2581
▁Vasco	-11.2581
▁milionário	-11.2581
▁antiterrorismo	-11.2581
▁Arrest	-11.2581
cópi	-11.2581
▁Serginho	-11.2581
▁ameniza	-11.2581
▁Restri	-11.2581
▁cambistas	-11.2581
▁Festa	-11.2581
▁Marisa	-11.2581
▁preferência	-11.2582
▁desfaze	-11.2582
▁Exame	-11.2582
▁Luís	-11.2582
▁dispon	-11.2582
▁largo	-11.2582
▁chilen	-11.2582
▁ferrovia	-11.2582
▁céu	-11.2582
lusco	-11.2582
▁deseja	-11.2582
▁enriquece	-11.2582
▁conferência	-11.2583
▁zera	-11.2583
▁mape	-11.2583
▁laranja	-11.2583
▁confisc	-11.2583
▁mapa	-11.2583
▁balança	-11.2583
ondenado	-11.2584
▁disposição	-11.2584
olégio	-11.2584
▁opostos	-11.2584
▁ressur	-11.2585
▁Roll	-11.2585
▁vital	-11.2585
paixão	-11.2585
▁Balanç	-11.2585
▁preparo	-11.2585
▁Bangu	-11.2585
▁1960	-11.2586
▁letal	-11.2586
▁desarma	-11.2586
▁tinta	-11.2586
nning	-11.2586
▁alonga	-11.2586
▁fogue	-11.2587
▁Andre	-11.2587
▁cartel	-11.2587
▁chão	-11.2588
▁Control	-11.2589
sumir	-11.2589
▁ausente	-11.2591
surge	-11.2591
erícia	-11.2592
vocaci	-11.2592
axistas	-11.2592
▁gelad	-11.2593
etroviário	-11.2595
inventa	-11.2603
antagem	-11.2606
▁Membro	-11.2606
▁Denis	-11.2608
▁Passage	-11.2608
▁madur	-11.2609
▁neto	-11.2609
▁torre	-11.2611
castig	-11.2613
▁Zag	-11.2615
pausa	-11.2615
▁deixe	-11.2617
▁convert	-11.2617
▁Perfi	-11.262
Ensino	-11.2622
▁Azer	-11.2641
▁Picc	-11.2642
▁atesta	-11.2645
▁sext	-11.2654
▁detento	-11.2656
árb	-11.2657
▁unifica	-11.2659
▁monot	-11.2671
abell	-11.2676
▁danific	-11.2677
▁adiciona	-11.2679
▁Filh	-11.2694
▁Azev	-11.2698
▁contraband	-11.27
▁frit	-11.2712
cool	-11.2744
eaks	-11.2748
Oeste	-11.275
Querem	-11.2755
▁Distri	-11.2766
onés	-11.2777
azamento	-11.2779
raft	-11.278
2,6	-11.2822
▁0,4	-11.2822
▁desabafa	-11.2843
delma	-11.2932
roeste	-11.2937
▁radicaliza	-11.2973
sóc	-11.2998
iplomacia	-11.3027
BBC	-11.3032
▁poétic	-11.3035
ntorno	-11.3168
ferência	-11.3179
Poder	-11.3194
▁Abb	-11.3198
▁estuprador	-11.3221
fatiamento	-11.3252
agiu	-11.3282
plac	-11.3323
rovisória	-11.3328
▁Have	-11.3334
▁esquecida	-11.3392
Divi	-11.3452
lgoz	-11.3559
▁patr	-11.3619
▁orient	-11.3667
▁afet	-11.369
nvolvida	-11.3705
▁entend	-11.3717
▁hav	-11.3734
cômodo	-11.3897
▁fabrica	-11.391
ológica	-11.3996
stabilidade	-11.4017
▁inovador	-11.4025
▁conserva	-11.4039
psi	-11.4056
ensamento	-11.4092
▁4,5	-11.4105
lvin	-11.4118
▁prejudic	-11.4183
▁ameaç	-11.4202
venturas	-11.426
mbaixador	-11.4299
Pica	-11.4307
▁Suspeit	-11.4338
ditorial	-11.4389
▁Marcel	-11.4391
xercício	-11.4391
xpectativa	-11.4393
spetáculo	-11.4393
▁bloc	-11.4398
enciamento	-11.4403
fastamento	-11.4405
tletismo	-11.4406
nistia	-11.4407
justiça	-11.4408
Pepp	-11.4411
assessor	-11.4412
turismo	-11.4412
▁flecha	-11.4412
milita	-11.4413
preocupa	-11.4414
economia	-11.4414
Jogos	-11.4415
à	-11.4415
coloca	-11.4416
ajuda	-11.4418
jogador	-11.442
struído	-11.442
extraordinária	-11.4424
legal	-11.4424
▁mexican	-11.4426
▁mostr	-11.4429
▁maquia	-11.4448
▁suíç	-11.4455
▁roteir	-11.4458
▁Secretári	-11.4496
▁Barros	-11.4501
▁acirra	-11.4528
stitui	-11.4534
▁persegui	-11.4537
▁globa	-11.454
▁trimestr	-11.4541
Precis	-11.4545
▁Proje	-11.4555
▁Garc	-11.4565
substitu	-11.4567
objeto	-11.4572
âncer	-11.4573
residencial	-11.4574
ashion	-11.4575
iscussão	-11.4576
iversidade	-11.4576
nquérito	-11.4577
▁propaga	-11.4577
▁vegeta	-11.4577
▁flex	-11.4578
club	-11.4578
lâmpa	-11.4578
▁agricultor	-11.4578
▁coordena	-11.4578
▁desperdiça	-11.4578
▁hospeda	-11.4578
▁ministeri	-11.4578
Corintiano	-11.4578
MasterChef	-11.4578
Privatização	-11.4578
Vaquinha	-11.4578
ambiarra	-11.4578
condicionado	-11.4578
desconhecido	-11.4578
inviabiliza	-11.4578
juvenil	-11.4578
layground	-11.4578
mprevisível	-11.4578
oletânea	-11.4578
royalties	-11.4578
rtilheiro	-11.4578
ruculência	-11.4578
sucedida	-11.4578
▁Ambev	-11.4578
▁Antunes	-11.4578
▁Arquiteta	-11.4578
▁Australian	-11.4578
▁Bittencourt	-11.4578
▁Bordeaux	-11.4578
▁Cachorro	-11.4578
▁Candidata	-11.4578
▁Carandiru	-11.4578
▁Clássico	-11.4578
▁Fabíola	-11.4578
▁Floresta	-11.4578
▁Guardiola	-11.4578
▁Hiroshima	-11.4578
▁Incerteza	-11.4578
▁Jurerê	-11.4578
▁Júnior	-11.4578
▁Kiarostami	-11.4578
▁Knausg	-11.4578
▁Liverpool	-11.4578
▁Madrugada	-11.4578
▁Montenegro	-11.4578
▁Músico	-11.4578
▁Oficina	-11.4578
▁Orkut	-11.4578
▁Pacífico	-11.4578
▁Peemedebista	-11.4578
▁Persegui	-11.4578
▁Preocupa	-11.4578
▁Próxima	-11.4578
▁Rihanna	-11.4578
▁Rodoanel	-11.4578
▁Santiago	-11.4578
▁Spotify	-11.4578
▁Símbolo	-11.4578
▁Tietê	-11.4578
▁Tunísia	-11.4578
▁Vietnã	-11.4578
▁Wolf	-11.4578
▁Zimbábue	-11.4578
▁acostuma	-11.4578
▁advertência	-11.4578
▁advogada	-11.4578
▁agrícola	-11.4578
▁alfineta	-11.4578
▁aplaudid	-11.4578
▁aplauso	-11.4578
▁aquática	-11.4578
▁assaltante	-11.4578
▁austeridade	-11.4578
▁automotiva	-11.4578
▁canguru	-11.4578
▁carnaval	-11.4578
▁cidadania	-11.4578
▁coadjuvante	-11.4578
▁consecutiva	-11.4578
▁criminaliza	-11.4578
▁crucial	-11.4578
▁desclassifica	-11.4578
▁desvincula	-11.4578
▁diplomática	-11.4578
▁dirigid	-11.4578
▁empreiteiro	-11.4578
▁esmiúça	-11.4578
▁estereótipo	-11.4578
▁garimpa	-11.4578
▁gobierno	-11.4578
▁gratuita	-11.4578
▁guerrilha	-11.4578
▁gêmeo	-11.4578
▁hambúrguer	-11.4578
▁ilícito	-11.4578
▁imobiliária	-11.4578
▁incentivo	-11.4578
▁interrompido	-11.4578
▁jamaican	-11.4578
▁jardim	-11.4578
▁laboratório	-11.4578
▁legumes	-11.4578
▁língua	-11.4578
▁líquido	-11.4578
▁lógica	-11.4578
▁medicamentos	-11.4578
▁metrópole	-11.4578
▁misterios	-11.4578
▁multiúso	-11.4578
▁muçulmana	-11.4578
▁míssil	-11.4578
▁opiniões	-11.4578
▁orgulho	-11.4578
▁originais	-11.4578
▁palmeirense	-11.4578
▁peemedebista	-11.4578
▁perfume	-11.4578
▁politicamente	-11.4578
▁poluentes	-11.4578
▁profissão	-11.4578
▁prometida	-11.4578
▁proprietário	-11.4578
▁prostituta	-11.4578
▁página	-11.4578
▁rebelião	-11.4578
▁retrô	-11.4578
▁revestimento	-11.4578
▁subsídio	-11.4578
▁trajeto	-11.4578
▁ucranian	-11.4578
▁vanguard	-11.4578
▁varejista	-11.4578
▁velejador	-11.4578
▁videogame	-11.4578
▁zoológico	-11.4578
▁árabe	-11.4578
artaruga	-11.4578
▁DRU	-11.4578
▁Econômic	-11.4578
▁Niterói	-11.4578
▁Paisagista	-11.4578
▁Planeta	-11.4578
▁Transpetro	-11.4578
▁Unibanco	-11.4578
▁autoritária	-11.4578
▁bailarin	-11.4578
▁ciclismo	-11.4578
▁educador	-11.4578
▁egípci	-11.4578
▁emissora	-11.4578
▁herdeiro	-11.4578
▁ideológica	-11.4578
▁idioma	-11.4578
▁ilimitad	-11.4578
▁inacabad	-11.4578
▁intimidar	-11.4578
▁loucura	-11.4578
▁maestro	-11.4578
▁medalla	-11.4578
▁planea	-11.4578
▁reaproveita	-11.4578
▁relaxar	-11.4578
▁releitura	-11.4578
▁respeitar	-11.4578
▁rígid	-11.4578
▁vegana	-11.4578
Tráfico	-11.4578
dignidade	-11.4578
▁DVD	-11.4578
▁Service	-11.4578
▁Thaís	-11.4578
▁adubo	-11.4578
▁agride	-11.4578
▁extingui	-11.4578
▁fumaça	-11.4578
▁inútil	-11.4578
▁provável	-11.4578
▁teaser	-11.4578
centrão	-11.4578
utobiografia	-11.4578
▁Cabeça	-11.4578
▁Veículo	-11.4578
▁colorido	-11.4578
▁dispersa	-11.4578
▁europeia	-11.4578
▁ostentação	-11.4578
▁pedaço	-11.4578
▁prolonga	-11.4578
▁simpatizante	-11.4578
▁Jeff	-11.4578
▁recruta	-11.4578
▁Copom	-11.4578
▁Foragido	-11.4578
▁Mandamentos	-11.4578
▁Sarah	-11.4578
▁arranca	-11.4578
▁banqueiro	-11.4578
▁território	-11.4578
▁Emílio	-11.4578
▁Independência	-11.4578
▁Podemos	-11.4578
▁Selvage	-11.4578
▁literário	-11.4578
fidelidade	-11.4578
▁Before	-11.4578
▁Eremil	-11.4578
▁Poliana	-11.4578
▁consulado	-11.4578
▁Aragão	-11.4578
▁Avianca	-11.4578
▁apagão	-11.4578
▁penúltim	-11.4578
▁produtiva	-11.4578
▁Memória	-11.4578
▁acomoda	-11.4578
▁instável	-11.4578
▁cinza	-11.4578
▁gentil	-11.4578
▁primári	-11.4578
▁UTI	-11.4578
▁apelido	-11.4578
▁barulho	-11.4578
▁decisiva	-11.4578
▁CVC	-11.4578
▁companheir	-11.4578
▁completo	-11.4578
▁emboscad	-11.4578
▁vazia	-11.4578
▁Empreg	-11.4578
▁Cumbi	-11.4578
▁alugar	-11.4578
▁ambulante	-11.4578
▁desmonta	-11.4578
▁erguida	-11.4578
jardin	-11.4578
▁Declaraç	-11.4578
▁Carioca	-11.4578
▁Ferrari	-11.4578
▁Diniz	-11.4578
▁Elimina	-11.4578
▁estrago	-11.4578
íssimo	-11.4578
▁honra	-11.4578
▁precoce	-11.4578
▁estagnad	-11.4578
▁suporte	-11.4578
▁depreda	-11.4578
pacifica	-11.4578
▁bonita	-11.4578
▁joelho	-11.4578
▁similar	-11.4578
▁ferroviári	-11.4578
▁lobista	-11.4578
▁paradoxo	-11.4578
▁With	-11.4578
Julieta	-11.4578
▁expedi	-11.4578
supersalário	-11.4578
▁modalidades	-11.4578
▁encosta	-11.4578
▁tumor	-11.4578
▁Limite	-11.4578
▁blue	-11.4578
▁convicç	-11.4578
▁ruído	-11.4578
▁velhi	-11.4578
▁Fracass	-11.4578
▁consequência	-11.4578
▁Estoque	-11.4578
▁invisíve	-11.4578
▁Detran	-11.4578
▁cardíac	-11.4578
▁Universidade	-11.4578
▁falsifica	-11.4578
bobagem	-11.4579
▁Story	-11.4579
▁reconstitui	-11.4579
▁cordial	-11.4579
▁traço	-11.4579
▁pneumonia	-11.4579
▁inibe	-11.4579
▁branda	-11.4579
▁abdica	-11.4579
▁oceano	-11.4579
▁Modern	-11.4579
▁primo	-11.4579
▁surgi	-11.4579
▁Narrador	-11.4579
▁temporária	-11.4579
▁Bloco	-11.4579
▁beij	-11.4579
▁intervir	-11.4579
▁Texto	-11.4579
▁erudit	-11.4579
camarote	-11.4579
▁viciado	-11.4579
▁estrear	-11.4579
▁miséria	-11.4579
▁Sousa	-11.4579
Selfie	-11.4579
▁deposita	-11.4579
▁sueca	-11.4579
▁crueldade	-11.4579
▁fundação	-11.4579
▁armário	-11.4579
▁prótese	-11.458
▁Cemi	-11.458
▁Retoma	-11.458
cocô	-11.458
tético	-11.458
▁Boxe	-11.458
▁elogio	-11.458
▁reedita	-11.458
▁General	-11.458
▁otimista	-11.458
▁Rodrigues	-11.458
▁reagir	-11.458
▁ultra	-11.458
▁pneu	-11.458
▁cadastro	-11.458
▁cometido	-11.458
▁reativa	-11.458
▁desabou	-11.458
lícias	-11.458
olônia	-11.458
▁pedestre	-11.4581
▁rastro	-11.4581
▁temporal	-11.4581
▁Voz	-11.4581
▁Usina	-11.4581
▁Claudi	-11.4581
▁apure	-11.4581
▁clara	-11.4581
▁ioga	-11.4581
▁lesões	-11.4582
▁Klein	-11.4582
▁dissid	-11.4582
▁Marques	-11.4582
▁descola	-11.4582
▁Master	-11.4583
▁Clara	-11.4583
point	-11.4583
ejei	-11.4584
▁Castel	-11.4584
▁adept	-11.4584
agilidade	-11.4584
▁eterno	-11.4584
▁Adrian	-11.4584
▁desfila	-11.4585
falhou	-11.4586
ujeira	-11.4586
▁icônic	-11.4586
Destino	-11.4587
oportun	-11.4587
▁Glori	-11.4587
▁Termin	-11.4587
▁chato	-11.4588
▁boicot	-11.4588
▁Harris	-11.4588
▁video	-11.4589
Resident	-11.4589
▁abusa	-11.4589
▁erótic	-11.459
ombardi	-11.459
▁caseiro	-11.4591
▁Olivi	-11.4592
▁comunic	-11.4593
▁invalid	-11.4594
Total	-11.4597
▁Supl	-11.4599
▁cristã	-11.46
desmonte	-11.4601
etorno	-11.4604
néis	-11.4607
▁Strong	-11.4612
eficaz	-11.4614
▁golea	-11.4617
▁cristali	-11.4626
▁sucat	-11.4627
argent	-11.4656
ábrica	-11.4657
▁Mensage	-11.4666
▁Sabe	-11.4667
▁3,6	-11.4671
House	-11.4671
Morr	-11.4678
▁Bull	-11.4683
▁Eric	-11.4683
▁atribu	-11.4707
▁magi	-11.472
▁Plac	-11.4732
ecreto	-11.4743
▁porteir	-11.4746
▁gerencia	-11.4764
ênio	-11.4777
▁Arouc	-11.48
▁humaniza	-11.4811
oldado	-11.4821
▁futur	-11.4831
▁cheiro	-11.4895
ochil	-11.4986
ensão	-11.5006
▁0,7	-11.5019
rafite	-11.5098
▁propost	-11.5154
polit	-11.517
ixeir	-11.5197
▁afog	-11.52
▁7,2	-11.534
Velha	-11.5358
assinado	-11.5361
▁populariza	-11.5407
▁7,3	-11.5424
▁Defensor	-11.5433
negociação	-11.5458
aceleração	-11.5474
órdi	-11.559
▁Vizinh	-11.5625
Economist	-11.5635
quart	-11.565
comporta	-11.5665
▁Fantasma	-11.5701
▁mantid	-11.5788
▁julgad	-11.586
Janis	-11.5863
governado	-11.5894
aporte	-11.5897
lobalização	-11.5962
▁estiver	-11.6043
▁Instituiç	-11.6093
somem	-11.6109
▁confederaç	-11.6183
▁posicion	-11.6482
▁fornece	-11.6507
▁antecip	-11.6508
tribuição	-11.6544
onsiderado	-11.6547
▁Secreta	-11.6667
▁urban	-11.6784
▁explod	-11.6797
patia	-11.6837
▁descart	-11.684
bjetiv	-11.6844
▁Govern	-11.6855
▁Empresári	-11.6905
compensa	-11.6909
secretária	-11.6909
American	-11.691
Diário	-11.691
feliz	-11.6911
Hamilton	-11.6911
desemprego	-11.6912
Hoje	-11.6914
grande	-11.6914
policial	-11.6914
controle	-11.6914
Grande	-11.6915
brasileira	-11.6915
Governo	-11.6915
Justiça	-11.6915
ivraria	-11.6928
▁colombian	-11.6931
▁sozinh	-11.6945
▁garant	-11.6952
▁reinven	-11.6954
▁Históri	-11.6957
▁hostil	-11.6959
▁reportage	-11.6966
▁Médic	-11.6985
▁record	-11.6998
adicional	-11.7035
▁Principa	-11.7042
president	-11.7046
▁Especial	-11.7048
▁possíve	-11.705
▁protagonis	-11.7053
▁Restaura	-11.7056
acredit	-11.7069
ríncipe	-11.707
▁presidenci	-11.707
ilionário	-11.7071
parceiro	-11.7072
úpula	-11.7072
andidatura	-11.7073
ociedade	-11.7073
process	-11.7073
onteúdo	-11.7073
▁Aposentado	-11.7073
▁Cerveja	-11.7074
▁antiterror	-11.7074
instrument	-11.7075
ossibilidade	-11.7075
iév	-11.7076
hinês	-11.7076
cirurgi	-11.7076
surpres	-11.7076
▁cruel	-11.7077
ênero	-11.7077
▁Crowd	-11.7078
▁impopular	-11.7078
▁inocenta	-11.7078
▁protagoniz	-11.7078
Cloverfield	-11.7078
esqueletos	-11.7078
graduação	-11.7078
inaceitável	-11.7078
legítimo	-11.7078
lternativos	-11.7078
mofóbic	-11.7078
pocalipse	-11.7078
pêndulo	-11.7078
ridículo	-11.7078
tecnológica	-11.7078
tropical	-11.7078
utêntico	-11.7078
íduo	-11.7078
úrgico	-11.7078
▁Aerosmith	-11.7078
▁Aparecida	-11.7078
▁Auschwitz	-11.7078
▁Auxílio	-11.7078
▁Bactéria	-11.7078
▁Beethoven	-11.7078
▁Bombardeio	-11.7078
▁Celebra	-11.7078
▁Champion	-11.7078
▁Clínica	-11.7078
▁Colorado	-11.7078
▁Comercial	-11.7078
▁Complain	-11.7078
▁Concessões	-11.7078
▁Conflito	-11.7078
▁Conselheir	-11.7078
▁Construction	-11.7078
▁Dickens	-11.7078
▁Dortmund	-11.7078
▁Dramaturg	-11.7078
▁Eastwood	-11.7078
▁Emissora	-11.7078
▁Empreiteira	-11.7078
▁Escândalo	-11.7078
▁Estratégia	-11.7078
▁Fechado	-11.7078
▁Harvard	-11.7078
▁Historiador	-11.7078
▁Inglesa	-11.7078
▁Jersey	-11.7078
▁Jerusalém	-11.7078
▁Jonathan	-11.7078
▁Judicial	-11.7078
▁Kicks	-11.7078
▁LinkedIn	-11.7078
▁Lázaro	-11.7078
▁Mangueira	-11.7078
▁Mexican	-11.7078
▁Minnesota	-11.7078
▁Mustang	-11.7078
▁Pantanal	-11.7078
▁Performance	-11.7078
▁Philip	-11.7078
▁Piracicaba	-11.7078
▁Primária	-11.7078
▁Problems	-11.7078
▁Propaganda	-11.7078
▁Raimundo	-11.7078
▁Reforço	-11.7078
▁Renault	-11.7078
▁Ribeiro	-11.7078
▁Sapopemba	-11.7078
▁Skidmore	-11.7078
▁Streep	-11.7078
▁Suspect	-11.7078
▁Woolf	-11.7078
▁Zavascki	-11.7078
▁adversária	-11.7078
▁agressor	-11.7078
▁alegóric	-11.7078
▁aprimorar	-11.7078
▁arquibancada	-11.7078
▁assassinada	-11.7078
▁assassino	-11.7078
▁atropelo	-11.7078
▁australiana	-11.7078
▁bactéria	-11.7078
▁barbárie	-11.7078
▁brasilianista	-11.7078
▁cabeleireiro	-11.7078
▁capítulo	-11.7078
▁churrasqu	-11.7078
▁cinebiografia	-11.7078
▁ciúme	-11.7078
▁consciência	-11.7078
▁consecutivo	-11.7078
▁contempla	-11.7078
▁cozinheira	-11.7078
▁credibilidade	-11.7078
▁desbloquei	-11.7078
▁descomplicada	-11.7078
▁diagnostica	-11.7078
▁diminuem	-11.7078
▁drible	-11.7078
▁embaixada	-11.7078
▁empobrece	-11.7078
▁energétic	-11.7078
▁engatinha	-11.7078
▁esfaquead	-11.7078
▁estratégic	-11.7078
▁eutanásia	-11.7078
▁fantástic	-11.7078
▁filosófic	-11.7078
▁flamenguista	-11.7078
▁geométrico	-11.7078
▁hidrata	-11.7078
▁hipocrisia	-11.7078
▁imediato	-11.7078
▁improviso	-11.7078
▁incapaz	-11.7078
▁influente	-11.7078
▁infrator	-11.7078
▁iraquiano	-11.7078
▁islâmica	-11.7078
▁linchamento	-11.7078
▁londrino	-11.7078
▁líquida	-11.7078
▁noturna	-11.7078
▁noturno	-11.7078
▁ofensivo	-11.7078
▁oferecid	-11.7078
▁orgânica	-11.7078
▁ornamentais	-11.7078
▁orçamentária	-11.7078
▁outdoor	-11.7078
▁paradigma	-11.7078
▁prateleira	-11.7078
▁precipit	-11.7078
▁prisioneir	-11.7078
▁privilégio	-11.7078
▁psicanalista	-11.7078
▁pátria	-11.7078
▁péssimo	-11.7078
▁reabilita	-11.7078
▁reconhecido	-11.7078
▁reencontro	-11.7078
▁reformula	-11.7078
▁regional	-11.7078
▁repercute	-11.7078
▁residenciais	-11.7078
▁satélite	-11.7078
▁sequestrada	-11.7078
▁siderúrgica	-11.7078
▁simbólica	-11.7078
▁sincronizado	-11.7078
▁solucionar	-11.7078
▁sonegação	-11.7078
▁subsidiária	-11.7078
▁suplementa	-11.7078
▁tailandes	-11.7078
▁universal	-11.7078
▁vigilância	-11.7078
▁vulnerável	-11.7078
▁youtuber	-11.7078
▁ângulo	-11.7078
Fantástico	-11.7078
holofote	-11.7078
illennial	-11.7078
sconforto	-11.7078
ufrágio	-11.7078
▁Controladoria	-11.7078
▁Desfalcad	-11.7078
▁Esportivo	-11.7078
▁Feriado	-11.7078
▁Goiânia	-11.7078
▁Kombi	-11.7078
▁Ortega	-11.7078
▁Rebelde	-11.7078
▁Suspende	-11.7078
▁Suárez	-11.7078
▁Táxi	-11.7078
▁Vacina	-11.7078
▁Weverton	-11.7078
▁Zumbi	-11.7078
▁acentua	-11.7078
▁arqueológic	-11.7078
▁arquitetônic	-11.7078
▁autobiográfic	-11.7078
▁certifica	-11.7078
▁concessionári	-11.7078
▁delivery	-11.7078
▁desnecessári	-11.7078
▁despedir	-11.7078
▁figura	-11.7078
▁fofoca	-11.7078
▁furacão	-11.7078
▁habitaciona	-11.7078
▁homofobia	-11.7078
▁incomplet	-11.7078
▁iraniana	-11.7078
▁lanterna	-11.7078
▁mosquito	-11.7078
▁panflet	-11.7078
▁perpetuar	-11.7078
▁problemátic	-11.7078
▁propriedade	-11.7078
▁rastrea	-11.7078
▁ratifica	-11.7078
▁reembols	-11.7078
▁reerguer	-11.7078
▁refinaria	-11.7078
▁ressarci	-11.7078
▁riqueza	-11.7078
▁rodeio	-11.7078
▁semelhante	-11.7078
▁semáforo	-11.7078
▁sofá	-11.7078
▁submarino	-11.7078
▁vontade	-11.7078
inossauro	-11.7078
órcio	-11.7078
▁Joplin	-11.7078
▁KGB	-11.7078
▁Ocidental	-11.7078
▁Sommeli	-11.7078
▁Trabuco	-11.7078
▁argolas	-11.7078
▁colorida	-11.7078
▁distorções	-11.7078
▁dobradinha	-11.7078
▁enxerga	-11.7078
▁facilidade	-11.7078
▁invasões	-11.7078
▁máscara	-11.7078
▁sushi	-11.7078
Serafina	-11.7078
▁Cuenca	-11.7078
▁desaloja	-11.7078
▁gangue	-11.7078
▁inquieta	-11.7078
▁perfura	-11.7078
▁trágic	-11.7078
▁Duterte	-11.7078
▁Fratus	-11.7078
▁Gisele	-11.7078
▁Gordon	-11.7078
▁Paraisópolis	-11.7078
▁Parceria	-11.7078
▁Recupera	-11.7078
▁Unasul	-11.7078
▁credencia	-11.7078
▁diabetes	-11.7078
▁Dubai	-11.7078
▁Feijão	-11.7078
▁Felício	-11.7078
▁Mentira	-11.7078
▁Petroleir	-11.7078
▁Tatiana	-11.7078
▁arquivo	-11.7078
▁embarque	-11.7078
▁moderado	-11.7078
Cinquent	-11.7078
▁Bellini	-11.7078
▁Carlinhos	-11.7078
▁caracter	-11.7078
▁cômico	-11.7078
▁descanso	-11.7078
▁fúria	-11.7078
▁discreto	-11.7078
▁editoriais	-11.7078
▁extinto	-11.7078
▁Emicida	-11.7078
▁bizarra	-11.7078
▁engorda	-11.7078
▁fratura	-11.7078
▁honesto	-11.7078
▁manchete	-11.7078
▁tributário	-11.7078
speculação	-11.7078
â	-12.9108
õ	-12.9109
q	-12.911
ç	-12.9111
