<unk>	0
<s>	0
</s>	0
▁	-1.54714
▁de	-3.3988
s	-3.61563
,	-3.98593
▁e	-4.28166
▁a	-4.53342
▁em	-4.5475
▁do	-4.56383
▁da	-4.63746
r	-4.69361
'	-4.7154
a	-4.73717
m	-4.77678
▁para	-4.78092
o	-5.01369
▁no	-5.02113
▁na	-5.06106
▁que	-5.06972
▁com	-5.19845
▁diz	-5.20477
▁'	-5.31254
▁é	-5.4487
▁o	-5.58624
-	-5.64885
u	-5.66856
▁A	-5.70475
▁por	-5.70536
do	-5.82181
da	-5.88733
▁Rio	-5.97477
ção	-5.98829
▁se	-6.03362
e	-6.04021
▁não	-6.05737
▁Brasil	-6.07521
▁ao	-6.12377
pós	-6.12616
▁sobre	-6.15102
l	-6.1758
▁mais	-6.21296
▁à	-6.2357
▁Temer	-6.27625
▁tem	-6.2963
es	-6.31694
▁SP	-6.32052
ão	-6.3733
▁R	-6.38005
▁contra	-6.3811
▁dos	-6.42423
;	-6.44212
p	-6.44409
$	-6.49552
▁Paulo	-6.52005
os	-6.52423
▁São	-6.55434
ou	-6.5866
c	-6.59426
to	-6.61471
▁O	-6.63565
t	-6.67526
ca	-6.67973
▁C	-6.69402
▁anos	-6.74254
▁um	-6.74468
▁ser	-6.76845
i	-6.77104
▁Em	-6.78409
ta	-6.7978
▁Dilma	-6.79988
▁como	-6.81607
▁pode	-6.82052
▁Com	-6.82446
▁EUA	-6.83092
re	-6.87503
:	-6.89465
▁mas	-6.89497
te	-6.90645
de	-6.90768
g	-6.91282
▁vai	-6.91784
dos	-6.92584
á	-6.93404
n	-6.97016
y	-6.97119
▁são	-6.97735
is	-6.99075
ra	-7.00556
das	-7.01438
rá	-7.0235
▁nos	-7.04734
▁faz	-7.05873
▁governo	-7.09232
f	-7.0928
▁deve	-7.09598
ar	-7.09745
la	-7.11249
ia	-7.12516
▁impeachment	-7.12954
?	-7.18134
co	-7.19975
▁Cunha	-7.2096
▁Olimpíada	-7.21102
▁quer	-7.21281
as	-7.21473
▁novo	-7.21518
em	-7.21771
▁sem	-7.22073
▁S	-7.22445
al	-7.22587
ce	-7.24083
▁entre	-7.24665
▁Trump	-7.25244
▁in	-7.25336
▁1	-7.26868
▁P	-7.27549
▁pela	-7.27924
na	-7.28637
ções	-7.28796
-2016	-7.29069
▁E	-7.29441
▁Jogos	-7.29542
até	-7.30893
▁pede	-7.31786
uma	-7.32007
▁Justiça	-7.32367
d	-7.32424
▁ter	-7.32676
va	-7.34547
▁Jato	-7.36784
▁casa	-7.38045
▁veja	-7.39361
▁Governo	-7.3968
▁pelo	-7.40067
vi	-7.40236
▁Lav	-7.40902
en	-7.4134
▁ex	-7.41559
▁foi	-7.42368
ir	-7.42744
é	-7.42819
▁os	-7.43109
le	-7.43206
que	-7.4427
in	-7.4587
▁T	-7.46348
ndo	-7.46979
▁volta	-7.47061
▁seleção	-7.47569
▁ano	-7.47636
er	-7.48464
▁Para	-7.48817
"	-7.48958
▁país	-7.49539
▁STF	-7.50462
h	-7.50853
▁está	-7.51399
di	-7.51439
▁Lula	-7.51964
í	-7.5216
no	-7.5301
▁mostra	-7.5373
▁re	-7.53977
▁De	-7.54046
se	-7.55461
!	-7.5609
me	-7.5619
b	-7.56916
ti	-7.57302
▁I	-7.57873
z	-7.5825
▁nova	-7.5881
li	-7.60011
▁deixa	-7.60108
ó	-7.61084
▁2	-7.61142
O	-7.63026
▁sua	-7.63891
▁Câmara	-7.64631
▁crise	-7.64633
ro	-7.64674
terá	-7.64939
▁presidente	-7.66429
pa	-7.67189
nte	-7.67403
será	-7.67528
▁Veja	-7.67635
lo	-7.68895
▁G	-7.69931
▁Bolsa	-7.71636
ci	-7.71766
▁Re	-7.72349
▁busca	-7.72548
P	-7.7255
ri	-7.73019
▁mil	-7.73089
C	-7.7312
pe	-7.73226
bo	-7.73402
▁dia	-7.73733
▁vence	-7.74049
ga	-7.75187
▁Na	-7.75977
fa	-7.7672
ne	-7.77447
▁menos	-7.78199
▁vira	-7.78248
▁TV	-7.7968
ba	-7.7976
ram	-7.79846
▁afirma	-7.8066
▁ganha	-7.81081
▁Ex	-7.82192
mento	-7.82338
▁seu	-7.82387
▁3	-7.82446
▁tenta	-7.8314
A	-7.8332
▁con	-7.8376
ado	-7.8496
▁cai	-7.85144
▁Folha	-7.85222
idade	-7.85381
tra	-7.8564
dá	-7.86285
ma	-7.86521
ação	-7.87052
res	-7.87058
▁Qu	-7.87714
vo	-7.88804
an	-7.89013
▁No	-7.89116
▁final	-7.90008
ria	-7.90399
▁B	-7.90421
▁maior	-7.90469
ve	-7.90879
▁melhor	-7.91115
▁brasileira	-7.91127
ul	-7.9119
▁já	-7.9166
▁nas	-7.92094
▁fim	-7.9237
▁só	-7.92882
go	-7.93196
am	-7.93215
▁fazer	-7.93499
▁política	-7.94032
▁leva	-7.94439
S	-7.94454
▁futebol	-7.94462
▁Haddad	-7.95608
▁nesta	-7.9562
on	-7.95825
têm	-7.96186
▁Senado	-7.96499
▁Polícia	-7.96767
▁Palmeiras	-7.96767
v	-7.96961
▁ouro	-7.96991
0	-7.97204
▁H	-7.97454
▁Sem	-7.9786
▁cria	-7.98261
▁Se	-7.98425
▁5	-7.98447
x	-7.98534
▁semana	-7.9863
▁campanha	-7.99127
▁Vila	-7.99175
▁D	-7.99239
▁chega	-7.99548
▁milhões	-7.99726
▁mundo	-7.99727
ter	-7.99756
▁anuncia	-7.99955
logia	-8.00688
▁sobe	-8.00907
▁China	-8.00944
▁PT	-8.01007
2	-8.01244
ver	-8.01264
▁critica	-8.01318
▁Corinthians	-8.01544
▁Doria	-8.01568
▁Nova	-8.01652
▁2016	-8.03344
▁Hillary	-8.03396
▁estreia	-8.03396
▁mi	-8.03907
▁defende	-8.03962
ada	-8.04691
pi	-8.05127
bi	-8.05568
▁"	-8.06002
ões	-8.06391
▁perde	-8.06909
▁brasileiro	-8.07789
3	-8.08628
T	-8.08847
▁La	-8.0905
▁Ca	-8.09365
▁dois	-8.09365
▁pre	-8.09423
adrinhos	-8.09524
▁of	-8.10332
k	-8.10804
▁US	-8.11147
fi	-8.11336
▁ajuda	-8.11515
▁aprova	-8.11814
▁história	-8.11856
im	-8.11961
1	-8.1207
▁Por	-8.12636
▁Olímpicos	-8.12713
▁dizem	-8.13296
▁ainda	-8.13344
▁fora	-8.1365
po	-8.13834
▁morte	-8.13993
▁ministro	-8.14338
▁Petrobras	-8.14592
▁acordo	-8.14674
los	-8.15075
▁Estado	-8.15434
▁4	-8.1558
▁F	-8.15946
▁2017	-8.15997
▁Astro	-8.16095
ni	-8.16794
▁Santos	-8.1713
▁Argentina	-8.17419
ur	-8.17594
▁pessoas	-8.17607
io	-8.17723
▁empresas	-8.17827
▁Brasileiro	-8.17904
▁Estados	-8.17996
ista	-8.18007
▁leitor	-8.18385
▁marca	-8.18474
dor	-8.18549
▁primeiro	-8.18863
▁debate	-8.19499
ing	-8.19728
▁M	-8.19929
▁zona	-8.21069
▁Lei	-8.22056
4	-8.22363
qui	-8.22398
or	-8.2251
▁Mortes	-8.22567
▁Co	-8.23062
st	-8.2325
▁queda	-8.23964
ismo	-8.24092
▁nega	-8.24092
▁10	-8.24142
▁brasileiros	-8.24167
▁livro	-8.24482
ência	-8.24646
▁votação	-8.24915
▁BC	-8.24925
urante	-8.25514
it	-8.25864
us	-8.26132
▁V	-8.2635
▁en	-8.26409
▁primeira	-8.26414
▁Casa	-8.26452
▁lança	-8.26468
▁alta	-8.26515
▁fica	-8.26742
▁d	-8.26746
.	-8.27122
▁In	-8.27888
▁conta	-8.28399
▁Novo	-8.28853
▁olímpica	-8.29317
▁segurança	-8.29823
vão	-8.29836
▁disputa	-8.29998
per	-8.30215
ns	-8.30806
▁faze	-8.30954
▁carro	-8.31015
ntes	-8.31081
▁antes	-8.31151
▁vôlei	-8.31234
▁Renan	-8.31234
▁aponta	-8.31235
▁dias	-8.31432
▁vez	-8.31522
5	-8.31539
il	-8.31642
▁vida	-8.3181
▁bi	-8.3205
▁reúne	-8.32061
cha	-8.32422
E	-8.3265
▁as	-8.32688
bu	-8.32802
▁Venezuela	-8.32894
▁recebe	-8.33051
man	-8.33532
▁lei	-8.3369
▁PF	-8.33791
tro	-8.34012
el	-8.34333
▁saúde	-8.34582
▁mulher	-8.34651
▁apresenta	-8.34719
▁podem	-8.3506
▁meses	-8.35442
▁vê	-8.35539
ú	-8.35617
▁abre	-8.35982
D	-8.36139
estão	-8.37088
ente	-8.37125
▁venda	-8.37135
▁reforma	-8.3714
▁apoio	-8.37169
▁três	-8.37174
▁neste	-8.3718
▁pedido	-8.37295
▁abertura	-8.37517
gi	-8.37938
▁jogo	-8.38009
▁ameaça	-8.38045
▁precisa	-8.38066
▁há	-8.38096
▁confirma	-8.38183
ina	-8.3864
mo	-8.39574
▁7	-8.39651
9	-8.39731
dores	-8.3981
▁bilhões	-8.39823
▁ataque	-8.39845
mar	-8.40079
ino	-8.40717
▁Presidente	-8.40745
▁bate	-8.40807
▁Fa	-8.41191
ais	-8.416
▁dólar	-8.41633
▁exterior	-8.41633
▁eleição	-8.41634
▁público	-8.41672
▁man	-8.41937
lho	-8.42134
▁trabalho	-8.4255
▁zika	-8.4255
▁falta	-8.42551
▁recorde	-8.42599
▁K	-8.42736
iz	-8.43379
▁Copa	-8.43539
mente	-8.43883
I	-8.44066
nça	-8.44163
▁vitória	-8.44413
▁traz	-8.44439
▁quem	-8.45074
ja	-8.45334
▁França	-8.45354
▁Odebrecht	-8.45354
▁filme	-8.45521
▁mercado	-8.4582
▁crianças	-8.45969
tos	-8.46024
▁Ministério	-8.46307
▁começa	-8.46939
ário	-8.46963
car	-8.46976
▁Um	-8.47186
▁Le	-8.47328
ido	-8.47568
si	-8.47602
be	-8.48129
▁passa	-8.48172
▁Como	-8.48177
▁prisão	-8.48243
▁tempo	-8.4888
ardo	-8.49143
▁Ministro	-8.49317
▁atletas	-8.49317
▁avança	-8.49345
▁show	-8.49503
tém	-8.49548
▁série	-8.5021
▁risco	-8.50258
-16	-8.50262
the	-8.50556
▁cidade	-8.50568
▁caso	-8.50607
6	-8.50699
▁espaço	-8.5121
R	-8.51459
▁segunda	-8.5222
▁revela	-8.52222
▁Me	-8.52555
▁Unido	-8.52621
▁Ba	-8.52657
▁cresce	-8.52771
▁ação	-8.52977
▁Rússia	-8.5324
▁Obama	-8.5324
▁prepara	-8.53248
▁UE	-8.53263
▁saída	-8.53357
▁ficar	-8.53485
▁fala	-8.53634
w	-8.53808
tura	-8.53938
▁dez	-8.53953
▁Dólar	-8.54271
▁dinheiro	-8.54277
ha	-8.54353
▁bem	-8.54498
tor	-8.54518
▁empresa	-8.54721
▁menor	-8.55117
▁11	-8.55181
lha	-8.55265
▁segundo	-8.55313
▁olímpico	-8.55402
▁troca	-8.56096
▁espera	-8.5611
at	-8.56131
tar	-8.56183
▁dicas	-8.56374
▁cinco	-8.56384
dão	-8.56427
ol	-8.56671
▁J	-8.56757
▁Rein	-8.57241
▁Empresa	-8.57429
▁compra	-8.57492
▁mulheres	-8.57674
ut	-8.57932
cer	-8.58298
▁20	-8.583
fo	-8.58479
▁Uber	-8.5852
che	-8.5858
▁causa	-8.58819
▁Mo	-8.58851
▁novos	-8.59298
▁Grupo	-8.59591
B	-8.59733
ad	-8.59787
▁pro	-8.59828
mos	-8.59926
za	-8.60048
▁plano	-8.60185
▁Mar	-8.60204
▁medalha	-8.60205
du	-8.60647
▁fiscal	-8.60678
▁América	-8.6069
▁Livro	-8.6069
▁PM	-8.60762
quase	-8.60806
▁sob	-8.6091
▁morre	-8.60955
▁mortos	-8.61115
▁projeto	-8.61334
▁preso	-8.61372
rem	-8.61455
gue	-8.61629
bra	-8.61648
▁Tite	-8.61865
vê	-8.61869
par	-8.61888
▁meta	-8.61939
▁Vi	-8.62006
cor	-8.6207
▁mata	-8.62516
▁morto	-8.62525
▁12	-8.63104
▁Be	-8.63629
feira	-8.63672
▁Paulista	-8.63759
ed	-8.6379
▁Alemanha	-8.64061
▁registra	-8.64061
▁promete	-8.64061
▁Turquia	-8.64062
▁Neymar	-8.64063
um	-8.64065
▁estudo	-8.64068
▁Moro	-8.64119
▁Seleç	-8.64233
▁indica	-8.64375
ida	-8.64565
he	-8.64655
▁grupo	-8.64779
▁político	-8.64829
▁corrupção	-8.65214
▁recua	-8.65215
▁delação	-8.65265
▁evitar	-8.65761
nd	-8.6589
▁pesquisa	-8.66165
▁estupro	-8.66374
▁obras	-8.66662
▁Al	-8.67011
▁U	-8.67496
▁festa	-8.67551
▁internet	-8.67552
▁economia	-8.67812
▁aposta	-8.67952
G	-8.67985
▁golpe	-8.68169
est	-8.68228
nha	-8.68248
▁for	-8.6825
▁pagar	-8.68317
F	-8.68657
▁força	-8.6874
▁suspende	-8.6874
▁decisão	-8.68741
▁propina	-8.68742
▁Janot	-8.68742
▁quatro	-8.68752
▁uso	-8.68837
▁mal	-8.68946
▁obra	-8.69046
▁carros	-8.69081
mor	-8.69082
▁PMDB	-8.69238
▁6	-8.69278
▁mudar	-8.69383
tica	-8.69852
▁centro	-8.69945
▁pró	-8.6995
▁alvo	-8.69987
▁Bo	-8.70145
ke	-8.70226
▁conquista	-8.7042
▁Ju	-8.70647
L	-8.70693
▁dívida	-8.70916
inha	-8.71027
▁devem	-8.71037
M	-8.71077
hi	-8.71215
▁Pa	-8.71582
presidente	-8.72149
▁técnico	-8.72158
▁diretor	-8.72196
▁usa	-8.72256
▁anti	-8.72297
▁Alckmin	-8.72399
▁domingo	-8.724
▁PSDB	-8.72401
▁forma	-8.72483
cia	-8.72528
tas	-8.72641
▁arte	-8.72701
▁Grande	-8.72725
▁setor	-8.72781
ira	-8.73116
▁filho	-8.73475
iro	-8.73486
▁ataques	-8.7363
▁sociais	-8.73649
▁Juegos	-8.73649
▁ônibus	-8.7365
▁violência	-8.73657
▁meio	-8.7367
▁mesmo	-8.73722
ício	-8.73755
▁Marta	-8.73776
▁muda	-8.74225
▁100	-8.74334
▁área	-8.74775
▁Festival	-8.74915
▁oferece	-8.74915
▁defesa	-8.74916
con	-8.74916
ária	-8.75658
▁fecha	-8.75991
▁Olympic	-8.76083
▁vaga	-8.7612
▁Mai	-8.76145
▁família	-8.76197
▁Banco	-8.76248
7	-8.76719
▁derrota	-8.76984
▁la	-8.77492
▁base	-8.77538
▁Que	-8.77599
ven	-8.78027
▁Li	-8.78285
tão	-8.78292
Não	-8.78653
▁música	-8.78723
▁2018	-8.78815
▁divulga	-8.78817
▁trimestre	-8.78831
▁El	-8.78884
▁João	-8.78917
▁Edu	-8.78941
▁Do	-8.7904
▁far	-8.79395
▁Con	-8.79423
ic	-8.79518
▁processo	-8.80104
▁Russomanno	-8.80145
▁polícia	-8.80146
▁Confir	-8.8015
ela	-8.8018
▁USP	-8.80244
ministro	-8.80254
gu	-8.80456
nta	-8.80542
▁Não	-8.8056
teve	-8.8103
▁W	-8.81373
▁suspeita	-8.81496
ie	-8.8174
istas	-8.81974
▁Mi	-8.81997
sal	-8.82235
sta	-8.82472
▁vive	-8.82569
un	-8.82651
las	-8.82665
▁Go	-8.82778
▁Ma	-8.82802
▁Paraolimpíada	-8.82866
▁Previdência	-8.82866
▁basquete	-8.82866
▁eleições	-8.82867
▁evento	-8.82871
▁Crise	-8.82885
▁praia	-8.82903
▁protesto	-8.8294
▁atrai	-8.82961
▁hora	-8.82989
▁9	-8.83415
ber	-8.83466
ável	-8.83516
▁reduz	-8.83708
▁manter	-8.84026
▁50	-8.84206
▁eleitoral	-8.84256
▁confira	-8.8426
▁União	-8.84279
▁Contra	-8.84417
▁outros	-8.84972
▁dua	-8.8527
▁programa	-8.85534
▁Londres	-8.85664
▁título	-8.85664
▁operação	-8.85664
▁futuro	-8.85721
▁vídeo	-8.85772
seus	-8.86057
▁Lu	-8.86079
▁adia	-8.86363
jo	-8.86614
cio	-8.86686
▁nome	-8.86734
ei	-8.86947
▁15	-8.87039
onheça	-8.87063
N	-8.87078
▁deixar	-8.8708
▁sexta	-8.87094
▁Japão	-8.87094
▁cassação	-8.87127
▁gestão	-8.87139
▁gastos	-8.87143
▁aumenta	-8.87312
▁sul	-8.87315
ita	-8.87401
j	-8.87602
▁juros	-8.8763
▁guerra	-8.87816
▁cada	-8.8782
ix	-8.88498
aço	-8.88519
▁declara	-8.88546
via	-8.88648
▁nacional	-8.88703
▁pior	-8.88869
▁Fi	-8.8894
for	-8.89565
▁sofre	-8.89811
▁cobra	-8.90011
▁energia	-8.90012
▁prêmio	-8.90024
▁Europa	-8.90033
▁tocha	-8.90062
▁vice	-8.90085
rea	-8.90137
▁time	-8.90226
▁13	-8.90279
▁Di	-8.90577
▁Oi	-8.90867
▁vir	-8.91104
▁parti	-8.91202
ô	-8.91318
▁feminina	-8.91505
▁torcida	-8.91509
▁atinge	-8.91512
▁decide	-8.91518
th	-8.91538
▁mês	-8.91569
▁água	-8.91728
▁estar	-8.91789
▁pública	-8.91816
▁segue	-8.91851
penas	-8.91862
▁rua	-8.91881
ton	-8.91914
col	-8.92037
▁líder	-8.922
▁Des	-8.9228
▁era	-8.92361
eira	-8.92504
▁estuda	-8.92945
▁Meirelles	-8.9302
▁aumento	-8.93037
▁inflação	-8.93057
ch	-8.93119
▁novas	-8.93161
up	-8.93204
▁Ha	-8.93239
▁investiga	-8.93266
▁investigação	-8.93275
▁afeta	-8.93296
inho	-8.93309
▁libera	-8.93338
▁quarta	-8.93382
▁suspeito	-8.93394
▁sair	-8.93598
▁acidente	-8.93701
ten	-8.93752
ê	-8.93775
▁supera	-8.93981
▁prende	-8.94002
▁usar	-8.94053
▁CBF	-8.94558
▁petróleo	-8.94561
▁parte	-8.94611
▁Man	-8.94857
▁alto	-8.94913
▁lista	-8.95304
▁países	-8.95379
ge	-8.95508
onde	-8.95522
▁entra	-8.9556
▁Ra	-8.95619
U	-8.95633
ico	-8.95703
▁muito	-8.95773
et	-8.95845
tivo	-8.96016
▁cinema	-8.96121
▁sucesso	-8.96124
▁pré	-8.9613
▁poder	-8.96177
tri	-8.9621
▁querem	-8.96471
▁L	-8.96699
fica	-8.96874
V	-8.96908
pesar	-8.96915
▁gera	-8.96917
▁Congresso	-8.97708
▁também	-8.97708
Coleção	-8.97709
▁interior	-8.97712
▁norte	-8.97756
ito	-8.97905
les	-8.97931
▁8	-8.98076
▁19	-8.98094
▁Sul	-8.98109
son	-8.98301
▁bom	-8.98355
▁festival	-8.99321
▁visita	-8.99321
▁ingressos	-8.99322
▁críticas	-8.99333
▁rejeita	-8.99351
▁Serra	-8.99356
▁14	-8.99544
dia	-8.99878
▁Dia	-8.999
dora	-8.99976
▁voto	-8.9998
▁30	-9.00011
▁realiza	-9.00088
▁rede	-9.00259
▁gol	-9.00493
▁200	-9.00942
▁BNDES	-9.0096
▁Michel	-9.00971
▁regras	-9.00972
▁Opera	-9.01014
▁prova	-9.01399
▁vende	-9.01458
▁proposta	-9.01577
▁enfrenta	-9.01634
▁chama	-9.01646
▁problemas	-9.02039
▁Ar	-9.02211
▁Maia	-9.02213
▁horas	-9.02534
▁Força	-9.02627
▁Gabriel	-9.02627
▁COI	-9.02627
▁agora	-9.02631
▁Río	-9.02632
▁Público	-9.02644
▁discurso	-9.02646
▁Federal	-9.02692
▁doping	-9.02901
iva	-9.03285
ante	-9.03467
dura	-9.03515
▁ruas	-9.0395
ck	-9.04156
▁sai	-9.04225
nes	-9.04257
▁Itália	-9.04322
▁social	-9.04322
▁jovens	-9.04322
▁quinta	-9.04329
▁depois	-9.0433
▁luta	-9.04331
▁Nacional	-9.04334
bri	-9.04547
▁su	-9.04945
vel	-9.05001
ana	-9.05296
▁shows	-9.05548
▁americano	-9.05649
mon	-9.05696
▁receber	-9.0572
▁redes	-9.05743
ex	-9.06019
▁40	-9.06109
tiva	-9.06142
▁ato	-9.06192
▁turistas	-9.06407
ze	-9.06521
▁mãe	-9.06615
tes	-9.06632
▁and	-9.06687
ização	-9.06813
rio	-9.06965
▁liderança	-9.07266
▁pai	-9.07467
▁Uma	-9.07724
▁lado	-9.07792
▁Datafolha	-9.078
▁Libertadores	-9.078
▁Machado	-9.078
▁terça	-9.078
▁luxo	-9.078
▁internacional	-9.07802
▁Paris	-9.07836
▁Del	-9.07921
uro	-9.08037
▁refugiados	-9.0807
aiba	-9.08329
ador	-9.0836
▁preços	-9.08499
▁contas	-9.08526
▁ele	-9.09175
nos	-9.09184
lar	-9.09577
▁2015	-9.09586
▁Olímpica	-9.09586
▁francês	-9.09586
▁número	-9.09586
▁CPI	-9.09586
▁Espanha	-9.09586
▁Aécio	-9.09586
▁equipe	-9.09588
▁último	-9.09588
▁produção	-9.09595
▁po	-9.09692
▁ajudar	-9.09782
nt	-9.10007
▁18	-9.1017
▁políticos	-9.10183
▁ensina	-9.10294
▁Sal	-9.10361
▁secretário	-9.1067
posição	-9.1076
▁Ne	-9.10782
H	-9.11094
▁entrega	-9.11169
▁Colômbia	-9.11404
▁denuncia	-9.11404
▁Flip	-9.11405
▁Prefeitura	-9.11405
▁Síria	-9.11405
▁teatro	-9.11409
▁clima	-9.11417
▁Procuradoria	-9.11432
▁paz	-9.1146
lan	-9.1147
▁dis	-9.11557
▁Fo	-9.11688
2%	-9.11695
▁levar	-9.1226
▁clássico	-9.12389
fu	-9.12494
▁Te	-9.1276
Est	-9.12774
▁boa	-9.13115
▁Mercosul	-9.13256
▁ONU	-9.13256
▁WhatsApp	-9.13256
▁celebra	-9.13256
▁cenário	-9.13256
▁Aviso	-9.13256
▁homem	-9.13257
▁caixa	-9.13258
▁julho	-9.13261
▁fez	-9.13269
▁Morre	-9.13271
▁Sob	-9.13317
▁escola	-9.13363
▁outra	-9.13371
▁grandes	-9.13581
▁natação	-9.13807
▁medalhas	-9.14082
▁banco	-9.14326
▁teste	-9.14329
gen	-9.14694
▁Ni	-9.14747
▁lugar	-9.14947
line	-9.14987
tion	-9.14992
▁paga	-9.15091
Pokémon	-9.15143
▁York	-9.15143
▁agosto	-9.15143
▁econômica	-9.15143
▁mundial	-9.15143
▁semestre	-9.15143
▁protesta	-9.15155
▁per	-9.1521
20	-9.15476
▁Ro	-9.15535
▁alunos	-9.15592
▁manda	-9.15656
▁suas	-9.15976
▁inicia	-9.16049
▁Car	-9.16112
▁fr	-9.16585
não	-9.16796
Brexit	-9.16875
▁24	-9.17025
▁Conselho	-9.17066
▁shopping	-9.17066
▁Janeiro	-9.17069
▁Norte	-9.17069
▁Homem	-9.17076
▁terrorismo	-9.17082
▁fase	-9.17127
▁jogos	-9.17156
▁acha	-9.17223
nem	-9.17354
▁pedir	-9.1746
8	-9.17513
▁acusa	-9.17602
▁Sa	-9.17722
▁tentar	-9.1777
▁presos	-9.17882
▁comida	-9.1805
▁chance	-9.18197
▁policial	-9.1841
lia	-9.18493
▁bar	-9.18535
ju	-9.18656
3%	-9.18876
▁Comitê	-9.19027
▁Planalto	-9.19027
▁feminino	-9.19027
▁imóveis	-9.19027
▁policiais	-9.19027
▁Po	-9.1906
▁envia	-9.19093
▁ver	-9.19172
▁Brexit	-9.19222
▁preço	-9.19256
▁medo	-9.19337
▁dados	-9.19366
▁torna	-9.19429
ent	-9.19463
▁Maria	-9.19506
▁corre	-9.19593
▁estrangeiros	-9.19604
▁americana	-9.19687
▁melhores	-9.19719
▁avalia	-9.19906
bre	-9.20003
▁paulistanos	-9.20273
▁peça	-9.20337
▁quebra	-9.20338
▁negócio	-9.2034
▁destaque	-9.20376
▁tri	-9.20557
▁Cultura	-9.20813
▁todos	-9.20926
▁controle	-9.20947
▁câncer	-9.21027
▁Jesus	-9.21027
▁cancela	-9.21027
▁preciso	-9.21027
Donald	-9.21027
▁Silva	-9.21027
▁modelo	-9.21027
▁aceita	-9.21028
▁agência	-9.2103
▁papel	-9.2103
▁destino	-9.21032
▁carreira	-9.21033
der	-9.21058
▁forte	-9.21424
▁seis	-9.21478
▁autoriza	-9.21563
ler	-9.2173
amento	-9.21789
▁medidas	-9.21811
▁comprar	-9.21876
▁matar	-9.21958
rói	-9.22296
▁filmes	-9.22713
▁inter	-9.2288
▁lidera	-9.23047
▁Google	-9.23068
▁Rodrig	-9.23068
▁britânica	-9.23068
▁reunião	-9.23068
▁Bolt	-9.23068
▁emprego	-9.23071
▁judicial	-9.23083
▁frente	-9.23099
▁recuperação	-9.23187
▁coloca	-9.23207
ces	-9.23349
▁deveria	-9.23431
▁candidatos	-9.23717
▁escolas	-9.2397
ssa	-9.24068
ã	-9.2419
ac	-9.24292
ist	-9.24435
▁denúncia	-9.24511
▁En	-9.24534
▁Olímpico	-9.24568
gem	-9.24638
▁Su	-9.24818
Dilma	-9.24844
▁voltar	-9.24978
▁Da	-9.24985
▁protestos	-9.2504
▁Islâmico	-9.25151
▁Líder	-9.25151
▁metrô	-9.25151
▁permite	-9.25151
▁pódio	-9.25162
▁rival	-9.25166
▁Projeto	-9.25175
▁custo	-9.2518
▁esta	-9.25221
ntenda	-9.25269
cas	-9.25435
▁Cor	-9.25739
fer	-9.25742
▁Jove	-9.25841
▁falar	-9.26064
▁candidato	-9.26105
▁livros	-9.26183
tá	-9.26422
▁negócios	-9.26757
ático	-9.26864
▁vítimas	-9.26884
Uni	-9.27163
▁amplia	-9.27164
▁cara	-9.27237
▁Brasília	-9.27279
▁Macri	-9.27279
▁Partido	-9.27279
▁férias	-9.27279
▁reajuste	-9.27279
▁opções	-9.27298
▁Jo	-9.27516
gan	-9.27614
▁campo	-9.27629
SP	-9.27684
▁moda	-9.27726
por	-9.27886
ran	-9.27947
san	-9.28088
lin	-9.28169
▁lojas	-9.28206
nto	-9.28247
adores	-9.28454
▁planeja	-9.28573
dade	-9.28644
▁Mu	-9.28834
▁vender	-9.28842
▁restaurante	-9.28932
▁preocupa	-9.29001
▁mar	-9.2919
cre	-9.29204
▁jornal	-9.29255
▁partido	-9.29322
▁trans	-9.29422
▁Produ	-9.29438
▁Fazenda	-9.29452
▁cozinha	-9.29452
▁encontro	-9.29452
▁sistema	-9.29452
▁você	-9.29452
▁Fernand	-9.29453
▁greve	-9.29453
▁Maduro	-9.29453
▁baixa	-9.29453
▁inquérito	-9.29454
▁Teori	-9.29455
▁NBA	-9.29455
▁relação	-9.29456
▁Venda	-9.29456
▁briga	-9.2947
▁Is	-9.29523
▁indicações	-9.29585
tin	-9.29708
1%	-9.29781
▁Paes	-9.29807
▁verba	-9.29945
▁17	-9.30544
▁To	-9.3065
▁fotos	-9.30656
▁suspeitos	-9.31126
▁mudança	-9.31256
dio	-9.3147
▁jogar	-9.31479
▁An	-9.3148
od	-9.3161
▁Família	-9.31675
▁democracia	-9.31675
▁médico	-9.31675
▁bairro	-9.31675
▁lucro	-9.31675
▁região	-9.31675
▁argentino	-9.31675
▁Caixa	-9.31675
▁argentina	-9.31675
▁junho	-9.31675
▁Messi	-9.31676
▁inaugura	-9.31865
▁mira	-9.31909
▁Qua	-9.32267
▁produtos	-9.3231
▁16	-9.32401
eiro	-9.3243
▁Can	-9.32622
ados	-9.3264
cos	-9.3271
▁convoca	-9.32712
▁continua	-9.32732
▁Os	-9.32735
ações	-9.3277
▁evita	-9.32877
ula	-9.33507
▁pouco	-9.33517
▁cargo	-9.33547
▁chegar	-9.33811
▁serviços	-9.33908
▁fundo	-9.33942
▁difícil	-9.33947
▁completa	-9.33947
▁celular	-9.33948
▁prazo	-9.33948
▁presidência	-9.33953
▁comissão	-9.33961
▁frio	-9.34005
▁decoração	-9.34069
▁Liga	-9.34125
▁direitos	-9.3416
enso	-9.34249
▁Maior	-9.34304
▁mudanças	-9.34417
▁passar	-9.34427
▁Per	-9.34627
▁Vale	-9.34654
▁derruba	-9.34671
tação	-9.34679
ng	-9.34735
▁eleva	-9.34856
▁encontra	-9.3495
▁Fu	-9.35052
elo	-9.35388
▁onda	-9.35411
ini	-9.35513
▁casos	-9.35601
agem	-9.35684
▁recursos	-9.35749
▁grande	-9.35782
▁esporte	-9.35864
▁termina	-9.36007
▁combate	-9.36243
▁criar	-9.36265
▁educação	-9.36273
▁próxima	-9.36273
▁jovem	-9.36273
▁Atlético	-9.36273
▁sugere	-9.36273
▁escolhe	-9.36275
▁alerta	-9.36275
▁crédito	-9.36281
▁Cannes	-9.36287
▁viagem	-9.36295
▁moradores	-9.36296
▁Parque	-9.36299
▁quando	-9.36328
▁Bar	-9.3637
▁joga	-9.3642
▁abrir	-9.3646
ment	-9.36495
▁disco	-9.36512
▁deputados	-9.36555
▁sete	-9.3664
▁Peru	-9.36693
▁Marco	-9.36731
ica	-9.36852
▁Cidade	-9.36896
▁real	-9.37017
ot	-9.37317
▁tudo	-9.37487
▁Comiss	-9.37492
ncia	-9.37621
▁Pro	-9.38037
▁tira	-9.38111
▁prefeito	-9.38177
ía	-9.38224
ner	-9.38265
▁polêmica	-9.38323
▁Hoje	-9.38565
▁global	-9.38615
ando	-9.38617
▁Austrália	-9.38654
▁Isaquias	-9.38654
▁admite	-9.38654
▁livre	-9.38654
▁culpa	-9.38654
▁lembra	-9.38654
▁reclama	-9.38654
▁última	-9.38655
▁questiona	-9.38655
▁desiste	-9.38657
enta	-9.38661
▁Série	-9.38663
▁tentativa	-9.3871
▁delega	-9.38711
rito	-9.38895
cima	-9.38897
▁estádio	-9.38996
▁feridos	-9.39157
▁peças	-9.39483
era	-9.39943
▁Ch	-9.39983
eba	-9.40205
▁Unidos	-9.40228
▁alemã	-9.40416
▁chefe	-9.40491
▁cita	-9.40683
▁autor	-9.4085
▁Diretor	-9.41093
▁Reforma	-9.41093
▁tecnologia	-9.41093
▁feita	-9.41093
▁Coreia	-9.41094
▁caminho	-9.41094
▁taxa	-9.41095
▁investe	-9.41095
▁Ataque	-9.41096
ano	-9.41272
▁Filho	-9.41328
una	-9.41543
MG	-9.416
▁Pi	-9.41724
ndia	-9.41737
▁lançamentos	-9.41815
▁testa	-9.42084
▁veículos	-9.42091
▁hospital	-9.42131
▁projetos	-9.42132
▁cair	-9.42294
▁pensa	-9.42357
fin	-9.42724
ly	-9.4278
▁corta	-9.42786
▁ba	-9.42874
▁favela	-9.43206
▁qua	-9.43225
The	-9.43254
ampeonato	-9.43389
▁especialista	-9.43447
▁Clinton	-9.43593
▁Europeia	-9.43593
▁bilhão	-9.43593
▁álbum	-9.43593
▁Receita	-9.43593
▁própria	-9.43598
▁atrasa	-9.43601
▁Presidência	-9.43608
▁julgamento	-9.4361
▁possível	-9.43619
▁atletismo	-9.43741
▁militares	-9.43769
oito	-9.43785
▁Olympics	-9.43817
▁eleito	-9.4384
▁caem	-9.43857
▁garante	-9.43958
▁direito	-9.43968
▁geração	-9.44027
▁deputado	-9.44154
▁tema	-9.44169
▁procurador	-9.44426
4%	-9.44927
▁Bu	-9.45178
▁maio	-9.45216
▁perder	-9.45652
com	-9.45706
▁pontos	-9.45757
▁britânico	-9.46009
▁próximo	-9.46018
▁aeroporto	-9.46037
▁prédio	-9.46064
▁jornalista	-9.46073
▁anima	-9.46077
▁gasto	-9.46094
▁Escola	-9.46157
▁Portugal	-9.46157
▁hoje	-9.46157
▁Cristina	-9.46157
▁pressão	-9.46158
▁chinês	-9.4616
▁agenda	-9.46164
▁aproxima	-9.46165
▁anula	-9.46174
▁Pedr	-9.46177
▁Oscar	-9.46195
▁Central	-9.46204
▁carta	-9.46241
▁oferta	-9.46262
▁retira	-9.46303
▁Fe	-9.46355
▁funciona	-9.46452
▁veta	-9.46567
▁acusado	-9.46705
missão	-9.46747
▁demissão	-9.46851
▁ministros	-9.46896
ite	-9.46933
port	-9.46973
▁Ja	-9.47001
▁N	-9.47138
▁vale	-9.47208
▁reduzir	-9.47256
ger	-9.47562
▁condena	-9.47791
ux	-9.47949
op	-9.48033
▁ações	-9.48042
▁Du	-9.48207
▁teto	-9.48341
▁armas	-9.48587
▁investimento	-9.48735
▁crítica	-9.48769
▁regra	-9.4877
▁Cientista	-9.48789
▁Facebook	-9.48789
▁Mundial	-9.48789
▁Phelps	-9.48789
▁Saúde	-9.48789
▁Supremo	-9.48789
▁Vídeo	-9.48789
▁bronze	-9.48789
▁trabalhista	-9.48789
▁sonho	-9.48789
▁temporada	-9.48791
▁ensino	-9.48793
▁imagem	-9.48796
▁coletivo	-9.48797
▁posse	-9.48806
impeachment	-9.48828
gio	-9.48829
▁Nice	-9.48891
▁propõe	-9.48894
ério	-9.48969
▁pressiona	-9.48989
▁cultura	-9.49008
▁ob	-9.49055
▁expõe	-9.49089
▁liga	-9.49166
▁avaliação	-9.49252
▁pena	-9.49655
▁Ka	-9.49923
▁Si	-9.50276
▁rec	-9.50336
bal	-9.50361
▁crescer	-9.50451
▁pais	-9.50455
▁caro	-9.50458
ez	-9.50942
▁transforma	-9.51046
▁receitas	-9.51301
▁especial	-9.51444
▁atentado	-9.5149
ância	-9.51491
▁Bienal	-9.51491
▁ONG	-9.51491
▁Tribuna	-9.51491
▁capital	-9.51491
▁explora	-9.51491
▁federal	-9.51491
▁imóvel	-9.51491
▁TCU	-9.51491
▁abuso	-9.51493
▁matou	-9.51494
▁crescimento	-9.515
▁Bernardo	-9.515
▁serviço	-9.51539
▁realidade	-9.51541
▁Campos	-9.51545
▁resultado	-9.51553
▁trem	-9.51588
▁Leitor	-9.51632
▁25	-9.51638
▁mesa	-9.5164
▁tiro	-9.51771
5%	-9.51809
ata	-9.5184
▁filhos	-9.5189
▁Games	-9.51992
▁Ric	-9.52011
essa	-9.52024
▁saber	-9.52191
▁foram	-9.52286
▁destaques	-9.5244
▁imp	-9.52497
ura	-9.53307
ilha	-9.53572
end	-9.53635
▁Ao	-9.53801
▁aumentar	-9.53841
irá	-9.54068
▁linha	-9.54072
▁militar	-9.54148
▁encerra	-9.54229
▁Maranhão	-9.54269
▁Mercado	-9.54269
▁Netflix	-9.54269
▁Ribeirão	-9.54269
▁cerveja	-9.54269
▁determina	-9.54269
▁histórico	-9.54269
▁virtual	-9.54269
▁Marcelo	-9.54269
▁Daniel	-9.5427
▁Jucá	-9.5427
▁entrevista	-9.5427
▁longa	-9.5427
▁comemora	-9.5427
▁dispara	-9.54277
▁exige	-9.54278
▁Mendes	-9.54279
▁Gilmar	-9.54285
▁Luiz	-9.54318
▁inédito	-9.54351
▁participação	-9.54437
▁jogadores	-9.54452
▁define	-9.54465
▁especialistas	-9.54476
▁EI	-9.54491
▁ajuste	-9.54507
▁Empresário	-9.54529
▁vagas	-9.54535
▁Ana	-9.54545
▁superar	-9.54848
geral	-9.54874
▁adota	-9.55018
vam	-9.55079
▁seria	-9.55083
stro	-9.55293
des	-9.55331
▁70	-9.55342
J	-9.5538
▁valor	-9.55521
lí	-9.55566
smo	-9.56117
cidente	-9.56131
lista	-9.56839
lica	-9.56858
▁Men	-9.56916
▁ocupa	-9.56927
▁semi	-9.56977
▁23	-9.5699
▁toma	-9.56997
nia	-9.57069
▁tiros	-9.57085
▁FHC	-9.57126
▁Francisco	-9.57126
▁México	-9.57126
▁Thiago	-9.57126
▁musical	-9.57126
▁prejuízo	-9.57126
▁reforça	-9.57126
▁sexual	-9.57126
▁MinC	-9.57126
▁Pelé	-9.57127
▁abandona	-9.57127
▁quarto	-9.57129
▁candidatura	-9.57129
▁Mostra	-9.57129
▁indústria	-9.57145
▁filha	-9.57165
▁vivo	-9.572
▁opção	-9.57221
▁renda	-9.57251
▁leve	-9.57286
▁clube	-9.57294
▁parque	-9.57316
cho	-9.57345
▁multa	-9.5735
▁receita	-9.57356
▁Ouro	-9.57366
ka	-9.57406
▁vendas	-9.57411
▁perto	-9.57431
id	-9.57501
▁combater	-9.57553
ron	-9.57573
▁PP	-9.5763
Fora	-9.57672
▁Real	-9.57708
▁retoma	-9.57767
tório	-9.57831
vas	-9.57994
Ma	-9.58011
▁arma	-9.58089
▁virar	-9.58214
▁explica	-9.58229
tent	-9.58591
▁integra	-9.58729
▁Y	-9.58738
▁Esp	-9.58773
▁vencer	-9.58794
inco	-9.58804
▁aliados	-9.58958
▁chef	-9.59049
▁desta	-9.5926
▁mortes	-9.59719
deste	-9.59751
▁Pe	-9.59847
sso	-9.59857
▁Tu	-9.59962
pas	-9.60027
▁guarda	-9.60045
▁Eletrobras	-9.60067
▁Maracanã	-9.60067
▁Orlando	-9.60067
▁discute	-9.60067
▁esquerda	-9.60067
▁ginástica	-9.60067
▁prefeitura	-9.60067
▁humor	-9.60068
▁repasse	-9.60068
▁média	-9.60068
▁Filme	-9.60068
▁esquema	-9.60068
▁inverno	-9.60068
▁revista	-9.60068
▁Jornalista	-9.60068
▁Paraná	-9.60068
▁provoca	-9.60069
bilidade	-9.60069
▁principais	-9.60071
▁relata	-9.60072
▁presente	-9.60081
▁avião	-9.60087
▁Santa	-9.60111
▁leste	-9.60114
▁verdade	-9.60117
▁peso	-9.60177
▁Say	-9.60208
▁Tra	-9.60209
▁morta	-9.60212
▁funcionários	-9.60215
▁salto	-9.60226
▁fraude	-9.60306
▁crime	-9.60383
▁momento	-9.60404
▁pop	-9.60507
▁Ver	-9.60548
vin	-9.6055
▁canta	-9.60561
▁22	-9.6058
▁edição	-9.60778
▁organiza	-9.60905
▁Pinheiros	-9.61194
▁elogia	-9.61289
▁mora	-9.61298
▁disputar	-9.61603
ion	-9.61635
fund	-9.61756
gado	-9.61858
▁mo	-9.61869
▁Lo	-9.61908
▁votos	-9.62053
▁cidades	-9.62178
▁quanto	-9.62576
▁ho	-9.62587
ín	-9.62619
▁on	-9.62763
▁tirar	-9.6286
▁favor	-9.6301
▁Cruz	-9.63071
▁Andrade	-9.63098
▁Bolsonaro	-9.63098
▁Cardozo	-9.63098
▁Erundina	-9.63098
▁Lochte	-9.63098
▁ambiente	-9.63098
▁homens	-9.63098
▁masculina	-9.63098
▁masculino	-9.63098
▁merenda	-9.63098
▁temperatura	-9.63098
▁trecho	-9.63098
▁Nordeste	-9.63098
▁milhão	-9.63098
▁Educação	-9.63099
▁imprensa	-9.63102
▁tênis	-9.63102
▁cerimônia	-9.63105
▁limita	-9.63107
▁hotel	-9.63111
▁museu	-9.63112
▁cuida	-9.63116
▁corpo	-9.63173
▁importante	-9.63338
▁Mãe	-9.63355
▁defender	-9.6339
▁fechar	-9.63428
▁assumir	-9.63471
▁desafio	-9.63471
▁sempre	-9.6348
▁acusação	-9.635
▁corte	-9.636
▁Dono	-9.63636
▁acesso	-9.6372
▁dívidas	-9.63725
▁serve	-9.63753
▁atuação	-9.63758
▁Porto	-9.63816
▁vezes	-9.63853
▁comando	-9.63857
▁apoia	-9.64121
ré	-9.64213
▁parece	-9.64266
▁sala	-9.64283
eiros	-9.64288
ide	-9.64447
▁aulas	-9.64627
▁votar	-9.64679
nc	-9.64772
unidade	-9.6481
▁Hu	-9.6484
tel	-9.64911
ível	-9.65046
▁Z	-9.65052
▁americanos	-9.65117
▁Cam	-9.65183
▁terremoto	-9.65252
▁participar	-9.65435
nico	-9.65463
lio	-9.65465
Game	-9.65652
▁Rede	-9.65672
ty	-9.65686
tentam	-9.6577
▁nada	-9.65852
▁bala	-9.65937
▁terror	-9.6616
▁acontece	-9.66223
▁bloqueio	-9.66223
▁espanhol	-9.66223
▁parceria	-9.66223
▁Samarco	-9.66223
▁TSE	-9.66223
▁reserva	-9.66223
▁Delcídio	-9.66225
▁longe	-9.66228
▁juiz	-9.66228
▁comércio	-9.6623
▁judô	-9.6623
▁depende	-9.66231
▁gás	-9.66231
▁Depoi	-9.66233
▁empata	-9.66234
▁Brazil	-9.66235
▁dentro	-9.66238
▁premiê	-9.66242
▁Especialista	-9.66256
▁romance	-9.66262
▁ranking	-9.66264
▁Fifa	-9.66312
▁prédios	-9.66356
tico	-9.66399
iano	-9.66438
▁Enem	-9.66471
▁tom	-9.66488
▁descarta	-9.66549
bomba	-9.66569
▁consumidor	-9.66579
▁Obra	-9.6663
▁motorista	-9.66711
▁ponto	-9.6674
▁fundos	-9.66893
▁pega	-9.67183
▁vem	-9.67328
▁atual	-9.67531
▁negocia	-9.67569
7%	-9.67668
▁Mulher	-9.67684
▁rouba	-9.67793
▁contrata	-9.67848
▁propaganda	-9.67884
▁feito	-9.67915
lidade	-9.6792
▁cu	-9.68022
ato	-9.68054
▁empresários	-9.6814
vido	-9.68243
▁versão	-9.6831
▁Jos	-9.68416
0%	-9.6842
tina	-9.68752
▁500	-9.68753
ine	-9.6879
▁erros	-9.68792
len	-9.68847
▁baixo	-9.68988
zar	-9.69016
▁Inter	-9.69099
izado	-9.69346
vida	-9.69346
▁NY	-9.69431
▁Defesa	-9.69449
▁Número	-9.69449
▁central	-9.69449
▁conflito	-9.69449
▁plebiscito	-9.69449
▁proíbe	-9.69449
▁Bauza	-9.69449
▁Cristian	-9.69449
▁Globo	-9.69449
▁escolha	-9.69449
▁nunca	-9.69449
▁grava	-9.69449
▁pacote	-9.69449
▁Iraque	-9.69449
▁curti	-9.69449
▁promove	-9.6945
▁retrata	-9.6945
▁vírus	-9.6945
▁luz	-9.6945
▁fábrica	-9.69451
▁Cuba	-9.69452
▁único	-9.69455
▁Minas	-9.69456
▁Artista	-9.69464
▁palco	-9.69473
▁domina	-9.69488
▁pagamento	-9.69519
▁Mundo	-9.69538
▁vista	-9.69543
▁Euro	-9.69553
▁redu	-9.69591
▁Bruno	-9.69593
▁rebate	-9.69652
▁avenida	-9.69727
▁bens	-9.69762
▁pé	-9.69764
▁metade	-9.69765
tim	-9.69818
▁sessão	-9.69843
▁ganhar	-9.69896
▁super	-9.6991
▁salário	-9.70003
▁Sete	-9.7002
ry	-9.70027
▁vítima	-9.70053
cula	-9.70236
▁condenado	-9.70371
▁oposição	-9.70397
▁The	-9.70413
▁maiores	-9.70668
▁bancos	-9.70871
ow	-9.70892
rd	-9.70984
▁barrar	-9.71329
▁todo	-9.71406
▁ataca	-9.71408
▁professor	-9.71666
▁Gol	-9.71844
sia	-9.71953
▁quartas	-9.71982
let	-9.72031
Se	-9.72196
entes	-9.72246
cla	-9.72277
▁importa	-9.72373
fre	-9.72438
▁passo	-9.72456
▁discutir	-9.72529
6%	-9.7266
▁Advogado	-9.72782
▁Dirceu	-9.72782
▁Erdogan	-9.72782
▁Ronaldo	-9.72782
▁fácil	-9.72782
▁litoral	-9.72782
▁tragédia	-9.72782
▁tucano	-9.72782
▁André	-9.72782
▁PIB	-9.72782
▁consegue	-9.72782
▁movimento	-9.72782
▁externo	-9.72782
▁Dunga	-9.72782
▁convenção	-9.72782
▁comitê	-9.72783
▁estilo	-9.72785
▁País	-9.72786
▁imagens	-9.72787
▁atraso	-9.72789
▁larga	-9.72806
▁Vai	-9.72828
▁Arena	-9.72867
▁senadores	-9.72944
▁Manifestante	-9.7295
ki	-9.72952
▁mega	-9.73018
▁abaixo	-9.73152
▁porta	-9.73156
▁compara	-9.73246
governador	-9.73246
▁drogas	-9.73303
▁viaja	-9.73437
▁vota	-9.73441
▁advogado	-9.73454
▁ideia	-9.7349
▁falha	-9.73513
▁gay	-9.73611
sab	-9.73632
▁desconto	-9.73677
▁seja	-9.73716
▁ref	-9.73763
▁noite	-9.73774
▁popular	-9.73905
pol	-9.73973
sse	-9.74163
by	-9.74255
▁boas	-9.7448
▁inspira	-9.74521
tinha	-9.74599
ética	-9.74819
▁investigar	-9.74909
▁Mal	-9.74956
nda	-9.75253
▁Dias	-9.75334
▁falhas	-9.75508
▁cabeça	-9.75519
9%	-9.75581
tenção	-9.75591
▁bomba	-9.75951
nde	-9.7602
fil	-9.76211
▁Carnaval	-9.7623
▁Equador	-9.7623
▁Municipal	-9.7623
▁adolescente	-9.7623
▁censura	-9.7623
▁concentra	-9.7623
▁concessões	-9.7623
▁consumo	-9.7623
▁elétrico	-9.7623
▁oportunidade	-9.7623
▁principal	-9.7623
▁maconha	-9.7623
▁chuva	-9.7623
▁estrela	-9.7623
▁menino	-9.76231
▁depoimento	-9.76231
▁Natal	-9.76233
▁gênero	-9.76233
▁pensão	-9.76234
▁ditadura	-9.76234
bandeira	-9.76248
▁acerta	-9.76258
▁povo	-9.76341
▁21	-9.76344
▁Lima	-9.76348
▁Morador	-9.76359
▁prata	-9.76363
▁culturais	-9.76366
▁carne	-9.7637
Super	-9.76384
▁atua	-9.76476
▁disse	-9.76495
▁Gra	-9.76539
▁Aliado	-9.76543
▁salvar	-9.76559
▁monta	-9.76585
▁dança	-9.76586
▁Gui	-9.76898
vest	-9.77059
▁terrorista	-9.77072
▁recurso	-9.77146
aco	-9.7716
▁meu	-9.77197
▁procura	-9.77229
imento	-9.77293
izar	-9.77301
▁passado	-9.77322
▁sub	-9.77421
▁esc	-9.77507
▁Impeachment	-9.77716
▁90	-9.77998
tic	-9.78332
▁negros	-9.78554
▁Gal	-9.78699
▁teme	-9.78758
ard	-9.78823
certo	-9.78898
▁contratos	-9.79296
▁Ti	-9.79305
▁Pesquisa	-9.79357
▁Brasileira	-9.79365
adora	-9.79539
▁oficial	-9.79541
iga	-9.7962
Me	-9.79731
gui	-9.79777
▁elimina	-9.79793
Aquarius	-9.79802
▁Flamengo	-9.79802
▁JBS	-9.79802
▁democrata	-9.79802
▁digital	-9.79802
▁econômico	-9.79802
▁financeira	-9.79802
▁móveis	-9.79802
▁privado	-9.79802
▁Tóquio	-9.79802
▁relatório	-9.79802
▁próprio	-9.79802
▁treino	-9.79802
▁exibi	-9.79802
▁invade	-9.79803
▁Agência	-9.79803
▁única	-9.79807
▁aberta	-9.79811
▁poupa	-9.79814
▁encara	-9.79816
▁boxe	-9.79817
▁Latina	-9.79838
▁algu	-9.79891
▁Falta	-9.79906
▁Nero	-9.79907
▁assume	-9.79949
▁Marina	-9.79963
▁cerca	-9.79972
▁Roberto	-9.80021
▁classifica	-9.80079
▁cena	-9.80094
▁mandato	-9.80115
▁60	-9.80122
voz	-9.80192
tista	-9.80198
▁veto	-9.80241
▁áreas	-9.80257
▁dupla	-9.80276
▁maioria	-9.80409
▁além	-9.80449
▁cargos	-9.8047
▁rever	-9.80474
ren	-9.80542
▁cal	-9.80547
▁Só	-9.80548
rês	-9.80584
curso	-9.80633
▁jogador	-9.8064
rei	-9.80654
▁ministério	-9.80706
▁aplicativo	-9.80716
▁diferentes	-9.8077
▁prote	-9.8082
▁elege	-9.8088
estado	-9.80997
▁previs	-9.81012
mais	-9.81115
▁acaba	-9.8122
dice	-9.81348
▁Conta	-9.81411
▁artistas	-9.81695
▁olho	-9.81909
▁ma	-9.82181
▁ator	-9.82265
▁apoiar	-9.82326
▁Ab	-9.82357
▁cor	-9.82425
ficam	-9.82498
▁Bom	-9.825
▁acabar	-9.8257
▁mão	-9.82646
▁públicas	-9.82729
▁sol	-9.82814
▁sabe	-9.82898
▁35	-9.82971
gua	-9.83086
▁nu	-9.83168
La	-9.83335
posta	-9.83358
ndústria	-9.83481
▁Apple	-9.83505
▁Havelange	-9.83505
▁Itamaraty	-9.83505
▁Rouanet	-9.83505
▁acumula	-9.83505
▁confronto	-9.83505
▁francesa	-9.83505
▁identifica	-9.83505
▁industrial	-9.83505
▁infantil	-9.83505
▁aposentadoria	-9.83505
▁conselho	-9.83505
▁impacto	-9.83505
▁prorroga	-9.83505
▁sigilo	-9.83505
▁racismo	-9.83505
▁setembro	-9.83505
▁turco	-9.83505
▁Sanders	-9.83506
▁desafia	-9.83506
▁exibe	-9.83506
▁instala	-9.83507
▁samba	-9.83507
▁órgão	-9.83508
▁oeste	-9.83527
▁cães	-9.83529
▁Cruzeiro	-9.83539
doença	-9.83542
▁Funda	-9.8355
▁subir	-9.83595
evolução	-9.83609
▁pago	-9.83611
▁seguir	-9.83629
▁exposição	-9.8364
▁papa	-9.83652
▁ambiental	-9.83677
ves	-9.83725
▁processa	-9.83731
▁Tri	-9.83732
▁Mulheres	-9.83744
▁afastamento	-9.83768
▁aluguel	-9.83777
▁Corte	-9.83783
▁terceir	-9.83861
Star	-9.83955
▁emociona	-9.84019
▁Aprend	-9.84048
▁destaca	-9.84053
▁recorre	-9.8414
usam	-9.84152
enho	-9.84165
▁guia	-9.84217
▁melhora	-9.84302
▁Ban	-9.84451
▁entrada	-9.84459
▁Mon	-9.84562
▁inédita	-9.8457
top	-9.84678
▁investigado	-9.84882
▁som	-9.84929
▁atleta	-9.84958
au	-9.84989
tan	-9.85073
▁Lucr	-9.85079
▁renova	-9.85149
one	-9.85476
▁perdeu	-9.85555
val	-9.85632
té	-9.85743
van	-9.85817
▁afasta	-9.85822
tela	-9.86327
meia	-9.86346
áveis	-9.86355
▁jornalistas	-9.86361
ted	-9.86403
▁campeão	-9.86478
▁virada	-9.86577
▁renegocia	-9.86957
▁programas	-9.87001
▁multas	-9.87051
▁Papa	-9.87055
▁Wa	-9.87105
▁Gar	-9.87228
▁STJ	-9.87327
▁Aplicativo	-9.87351
▁Barcelona	-9.87351
▁Domingo	-9.87351
▁Exército	-9.87351
▁Incêndio	-9.87351
▁Kirchner	-9.87351
▁Metrô	-9.87351
▁Morumbi	-9.87351
▁Preço	-9.87351
▁Salvador	-9.87351
▁experiência	-9.87351
▁italiano	-9.87351
▁tratamento	-9.87352
▁turno	-9.87352
direita	-9.87352
▁Micale	-9.87352
▁aparece	-9.87352
▁retorna	-9.87352
▁promessa	-9.87352
▁Branca	-9.87352
▁obriga	-9.87352
▁Sába	-9.87352
▁Plano	-9.87355
▁Farc	-9.87357
▁abril	-9.87358
▁atrações	-9.87358
▁responde	-9.87361
▁viagens	-9.87363
▁Decis	-9.87365
▁legado	-9.87368
▁Restaurante	-9.87373
▁nível	-9.87376
▁visto	-9.87377
▁vantagem	-9.87378
▁posto	-9.87402
▁Zé	-9.87429
▁chefia	-9.87465
▁Thro	-9.8747
▁gasta	-9.87511
▁ampliar	-9.8756
▁professores	-9.87579
▁reformas	-9.87702
▁Deus	-9.87723
▁Fr	-9.87786
▁verde	-9.8784
▁RN	-9.87845
▁cortar	-9.87872
▁líderes	-9.87875
▁antecipa	-9.87881
▁perda	-9.87924
▁verão	-9.87964
ui	-9.87991
aga	-9.88004
▁usado	-9.88074
▁atividade	-9.88253
▁site	-9.88525
▁limite	-9.8856
▁imposto	-9.88597
▁atenção	-9.88822
ér	-9.89011
▁apartamento	-9.89189
Arte	-9.89426
eiras	-9.89524
erro	-9.8956
▁Deputados	-9.89845
▁Israel	-9.89936
▁extra	-9.89947
▁russos	-9.89958
bate	-9.90166
ias	-9.90273
▁Chef	-9.903
lima	-9.9038
iana	-9.90442
▁morrem	-9.9045
▁divide	-9.90481
▁cole	-9.90481
▁construção	-9.90614
diante	-9.90631
agra	-9.90847
▁desafios	-9.90859
▁brasileiras	-9.90967
lhe	-9.90978
▁nota	-9.90981
▁Gu	-9.90987
▁crimes	-9.90999
ulo	-9.91008
zinho	-9.9111
nica	-9.91117
▁públicos	-9.91176
▁paulista	-9.91217
▁ligado	-9.91257
rêmio	-9.91268
▁resultados	-9.91312
▁distribui	-9.91351
▁2014	-9.91351
▁Economia	-9.91351
▁Nuzman	-9.91351
▁cracolândia	-9.91351
▁diminui	-9.91351
▁incêndio	-9.91351
▁privada	-9.91351
▁suposto	-9.91351
▁Imposto	-9.91352
▁externa	-9.91352
▁carioca	-9.91352
▁Cielo	-9.91352
▁rivais	-9.91352
▁Preto	-9.91354
▁ordem	-9.91354
▁muita	-9.91354
▁fracasso	-9.91354
▁conteúdo	-9.91356
▁desempenho	-9.91357
▁empate	-9.91362
▁profissionais	-9.91362
▁altera	-9.91363
▁Cuca	-9.91363
▁entidade	-9.9137
▁renúncia	-9.91404
▁bons	-9.91407
▁maratona	-9.91407
▁Técnico	-9.91408
▁fogo	-9.91411
▁un	-9.91411
▁bal	-9.91412
▁conheça	-9.91434
▁antigo	-9.91457
▁brinca	-9.91466
▁veem	-9.91474
▁Gil	-9.91526
▁27	-9.91533
▁aeroportos	-9.9154
▁espetáculo	-9.91565
▁nadadores	-9.91566
▁Elei	-9.91615
▁sinaliza	-9.91616
▁Vice	-9.91645
logo	-9.91703
▁Fies	-9.91728
▁rodada	-9.91844
▁Caso	-9.91895
▁programação	-9.92093
▁Ali	-9.92104
ém	-9.92145
▁premiada	-9.92211
esmo	-9.92327
▁restaurantes	-9.92347
antes	-9.92371
▁assessor	-9.92378
▁pra	-9.92533
▁profissional	-9.92539
▁russo	-9.92766
▁negro	-9.92771
▁irmão	-9.92781
▁problema	-9.92795
cto	-9.92951
▁criança	-9.92955
gas	-9.93034
▁Autor	-9.93155
▁planos	-9.93239
▁toda	-9.9332
▁contrato	-9.93441
▁amigos	-9.936
unda	-9.93627
▁resgata	-9.93746
▁erro	-9.93756
▁Am	-9.93757
▁auto	-9.93767
▁Mur	-9.93855
▁elevar	-9.93964
▁gols	-9.9401
▁Preso	-9.94171
▁impostos	-9.94185
▁indicam	-9.94462
ega	-9.94587
land	-9.94652
▁produtor	-9.94714
▁tornar	-9.94721
Eu	-9.94723
▁pesquisador	-9.94883
ssões	-9.94889
▁motoristas	-9.94901
executivo	-9.94948
▁toca	-9.95139
isco	-9.95172
ara	-9.95184
unem	-9.95188
▁delator	-9.9533
▁salva	-9.95333
▁precisam	-9.95415
▁indicia	-9.95493
▁Cristóvão	-9.95518
▁escândalo	-9.95518
▁fronteira	-9.95518
▁projeta	-9.95518
▁turismo	-9.95518
▁EBC	-9.95518
▁Ganso	-9.95518
▁Guerra	-9.95518
▁Movimento	-9.95518
▁alcança	-9.95518
▁Brazilian	-9.95518
▁gigante	-9.95518
▁passageiros	-9.95519
▁menina	-9.95519
▁texto	-9.95519
▁Prass	-9.9552
▁português	-9.9552
▁licitação	-9.95531
▁houve	-9.95532
▁favorito	-9.95538
▁condições	-9.95538
▁referendo	-9.95539
▁ilegal	-9.95541
▁pratos	-9.95544
▁Promotoria	-9.95548
▁Chile	-9.95548
▁motivo	-9.95552
▁fatura	-9.95556
▁ciência	-9.95571
▁milhares	-9.95576
▁Renda	-9.95583
▁Museu	-9.95608
▁Pres	-9.9568
▁investigações	-9.95714
▁réu	-9.95723
ión	-9.95733
feito	-9.95764
chave	-9.95794
▁via	-9.95795
▁expectativa	-9.95808
▁separa	-9.95827
▁Rafaela	-9.95845
▁assina	-9.95933
▁considera	-9.95974
▁He	-9.96006
▁Belo	-9.96152
lei	-9.96165
▁trava	-9.96197
▁Medi	-9.96342
▁relato	-9.96344
▁3,2	-9.96433
▁civil	-9.96477
▁caos	-9.96478
▁participa	-9.96481
▁pu	-9.96527
▁Sergi	-9.96581
lismo	-9.96601
▁alemão	-9.96698
▁RS	-9.96832
▁encontrado	-9.9684
▁Jam	-9.97039
▁economista	-9.9707
▁Deputado	-9.97113
▁aliado	-9.97141
▁paulistano	-9.97194
▁Bi	-9.97437
ence	-9.97438
▁treina	-9.97925
cci	-9.97939
agens	-9.98147
▁desacelera	-9.98191
▁Nos	-9.98225
▁atriz	-9.98242
▁Senador	-9.98274
▁fecham	-9.98317
▁fic	-9.98548
▁apura	-9.98652
▁recupera	-9.98671
ena	-9.98705
▁Fal	-9.98756
▁senador	-9.98877
▁assalto	-9.99284
ória	-9.99299
▁mercados	-9.99367
inhos	-9.99585
▁proibi	-9.99606
▁custa	-9.99706
▁nomes	-9.99846
candidata	-9.99866
▁Assembleia	-9.99866
▁Caetano	-9.99866
▁Djokovic	-9.99866
▁FMI	-9.99866
▁Fotógraf	-9.99866
▁Futebol	-9.99866
▁Shopping	-9.99866
▁Suíça	-9.99866
▁cobertura	-9.99866
▁handebol	-9.99866
▁madrugada	-9.99866
▁periferia	-9.99866
▁população	-9.99866
▁suspensa	-9.99866
▁titular	-9.99866
▁técnica	-9.99866
▁bloquea	-9.99866
▁indeniza	-9.99866
▁inglês	-9.99866
▁presença	-9.99866
desemprego	-9.99866
▁racial	-9.99866
▁século	-9.99866
▁conversa	-9.99866
▁estatais	-9.99866
▁roteiro	-9.99866
▁Centro	-9.99866
▁interesse	-9.99866
táxi	-9.99867
▁fãs	-9.99867
▁devolve	-9.99867
▁seguida	-9.99868
▁Virada	-9.99869
▁tensão	-9.99869
▁liberdade	-9.99872
▁Bueno	-9.99873
▁Bill	-9.99876
▁imigrantes	-9.99878
rega	-9.9988
▁esconde	-9.99888
▁lixo	-9.99906
▁elite	-9.99908
▁Grêmio	-9.99921
▁Sér	-9.9994
▁ativos	-9.99964
▁Exposição	-9.99966
▁objetos	-9.99983
▁paraolímpico	-9.9999
▁servidor	-10.0003
▁Mariana	-10.0005
▁permiti	-10.0006
▁servidores	-10.0008
▁quente	-10.0008
▁May	-10.0017
▁atrás	-10.0025
▁queima	-10.0029
▁entende	-10.0034
▁antiga	-10.0035
▁amor	-10.0039
assalto	-10.0045
▁At	-10.005
▁Mich	-10.0051
prova	-10.0051
pí	-10.0052
quanto	-10.0064
▁doação	-10.0067
▁publicado	-10.0074
▁formação	-10.0079
▁prejudica	-10.0079
▁Sol	-10.0081
▁recuperar	-10.0082
PR	-10.0095
▁surpreende	-10.0096
▁Protesto	-10.0102
▁Chefe	-10.0109
▁minha	-10.0111
Temer	-10.0112
▁atos	-10.0134
negociação	-10.015
vez	-10.0159
▁analisa	-10.0163
iam	-10.0165
▁empresário	-10.0167
esp	-10.0171
▁Bal	-10.0185
▁feira	-10.0185
▁Santo	-10.0187
▁clássicos	-10.0196
▁esperado	-10.0227
▁aéreas	-10.0232
▁Ze	-10.0234
▁Ad	-10.0247
▁Cade	-10.026
▁propostas	-10.0272
gest	-10.0274
ny	-10.0276
lson	-10.0278
▁voos	-10.0286
▁voo	-10.0288
ães	-10.029
▁roda	-10.0315
▁efeito	-10.0327
▁pen	-10.0343
▁ideias	-10.0348
%	-10.0352
▁viajar	-10.0356
▁local	-10.0364
▁New	-10.0366
dido	-10.0385
legal	-10.0385
nada	-10.039
▁partida	-10.0413
Sena	-10.0432
▁histórias	-10.0432
K	-10.0433
▁arquiva	-10.0437
fusão	-10.0438
nflação	-10.0439
articula	-10.0441
Programa	-10.0441
▁2012	-10.0441
▁Amazônia	-10.0441
▁Bernardinho	-10.0441
▁Campeões	-10.0441
▁Civil	-10.0441
▁Pacaembu	-10.0441
▁Peça	-10.0441
▁Política	-10.0441
▁República	-10.0441
▁Segurança	-10.0441
▁Zanetti	-10.0441
▁assédio	-10.0441
▁autônomo	-10.0441
▁ciclovia	-10.0441
▁estrutura	-10.0441
▁eventua	-10.0441
▁gastronomia	-10.0441
▁gratuito	-10.0441
▁homenageia	-10.0441
▁homenagem	-10.0441
▁impulsiona	-10.0441
▁microcefalia	-10.0441
▁piscina	-10.0441
▁preconceito	-10.0441
▁publicidade	-10.0441
▁reconhece	-10.0441
▁revezamento	-10.0441
▁silêncio	-10.0441
▁sábado	-10.0441
▁véspera	-10.0441
▁Celso	-10.0441
▁Mudança	-10.0441
▁alimenta	-10.0441
▁Jorge	-10.0441
▁espalha	-10.0441
▁Motorista	-10.0441
▁Dupla	-10.0441
▁OAS	-10.0441
▁escritor	-10.0441
▁direção	-10.0441
▁Putin	-10.0441
▁alimentos	-10.0441
▁resiste	-10.0441
ês	-10.0441
▁leilão	-10.0441
▁controla	-10.0441
▁administra	-10.0442
▁Trans	-10.0442
▁carrega	-10.0442
▁financiamento	-10.0442
▁recessão	-10.0442
▁migrantes	-10.0442
▁estima	-10.0442
▁surpresa	-10.0445
▁cirurgia	-10.0447
▁Castro	-10.0447
▁presídio	-10.0447
▁ponta	-10.0447
▁chapa	-10.0448
▁torcedores	-10.0448
▁repatriação	-10.0449
ael	-10.045
▁tributo	-10.0459
ach	-10.0465
▁Mega	-10.0466
▁audiência	-10.0466
▁bola	-10.0469
▁RJ	-10.0471
teto	-10.0474
vasão	-10.0476
▁embaixador	-10.0479
▁lote	-10.0481
empre	-10.0484
▁nadador	-10.0493
ok	-10.0504
tória	-10.0528
▁poucos	-10.0529
▁reação	-10.053
▁Wal	-10.0533
▁perdem	-10.0535
bil	-10.0545
▁minutos	-10.0553
mails	-10.0553
▁aproveita	-10.0554
Fo	-10.0568
▁terceiro	-10.0586
▁indi	-10.0606
▁fun	-10.0609
▁melhorar	-10.0636
BB	-10.064
▁dúvida	-10.0641
▁cliente	-10.0641
▁vinho	-10.0642
defini	-10.0647
▁fro	-10.0663
diretor	-10.0676
golpe	-10.0679
SC	-10.0684
No	-10.0711
▁clientes	-10.0712
▁dúvidas	-10.0712
▁retomar	-10.072
▁criador	-10.0728
▁av	-10.0747
▁apartamentos	-10.0765
▁viver	-10.0786
máf	-10.0787
▁lucra	-10.0787
▁Un	-10.0797
▁terroristas	-10.0808
▁vacina	-10.081
▁provas	-10.0812
oca	-10.0828
▁26	-10.0841
▁euro	-10.0848
uras	-10.0876
compartilha	-10.0888
▁barra	-10.091
▁San	-10.0914
▁aplica	-10.0916
plex	-10.0917
responsabilidade	-10.0917
▁Bradesco	-10.0917
▁Curitiba	-10.0917
▁Estudante	-10.0917
▁Feliciano	-10.0917
▁Grécia	-10.0917
▁Inglaterra	-10.0917
▁Primeira	-10.0917
▁Primeiro	-10.0917
▁Rousseff	-10.0917
▁Uruguai	-10.0917
▁adversário	-10.0917
▁atrapalha	-10.0917
▁avanço	-10.0917
▁beleza	-10.0917
▁conclui	-10.0917
▁câmbio	-10.0917
▁despenca	-10.0917
▁distância	-10.0917
▁diálogo	-10.0917
▁estratégia	-10.0917
▁igreja	-10.0917
▁infantis	-10.0917
▁palestra	-10.0917
▁prisões	-10.0917
▁suspensão	-10.0917
▁vestibular	-10.0917
▁árvore	-10.0917
▁CCJ	-10.0917
▁Pimentel	-10.0917
▁canoagem	-10.0917
▁cautela	-10.0917
▁Equipe	-10.0917
▁negra	-10.0917
▁COB	-10.0917
▁Pessoa	-10.0917
▁café	-10.0917
▁aborda	-10.0917
▁locais	-10.0917
▁Sexta	-10.0917
▁faixa	-10.0917
▁manobra	-10.0917
▁trens	-10.0917
▁Delator	-10.0918
▁Silvi	-10.0918
▁sindicato	-10.0918
▁novidade	-10.0918
▁total	-10.0918
▁punição	-10.0918
▁tráfico	-10.0918
▁Moreira	-10.0918
▁qualidade	-10.0919
▁transmissão	-10.0919
▁gosto	-10.092
▁retorno	-10.0922
▁decreta	-10.0922
▁seguido	-10.0922
▁Chico	-10.0924
frica	-10.0924
▁Nadador	-10.0926
▁Carlos	-10.0926
nel	-10.0926
▁contesta	-10.0927
▁rombo	-10.0927
▁viol	-10.0928
▁dobra	-10.0934
IM	-10.094
▁trabalha	-10.094
▁80	-10.0941
▁ficção	-10.0946
▁MP	-10.0949
▁autoridade	-10.0956
▁topo	-10.0957
▁benefícios	-10.0959
▁interna	-10.0961
▁rota	-10.0971
▁Site	-10.0973
▁Meta	-10.0977
▁casamento	-10.098
essão	-10.0991
▁assistir	-10.0992
▁el	-10.0996
▁normal	-10.0997
▁PC	-10.1003
▁gosta	-10.1013
▁situa	-10.1018
▁cont	-10.1019
▁eliminado	-10.1022
▁estudantes	-10.1029
▁Médicos	-10.1037
▁decora	-10.1079
▁atrae	-10.1082
▁entregar	-10.1083
prov	-10.1088
▁olímpicas	-10.109
Sou	-10.1096
▁chegam	-10.1097
▁vela	-10.1103
▁ignora	-10.1111
Tem	-10.1112
ell	-10.1125
▁aval	-10.1133
▁coisa	-10.1141
▁aérea	-10.1142
▁amigo	-10.1142
▁petista	-10.1143
▁Candidatos	-10.1146
▁foto	-10.1158
▁bebês	-10.116
▁recusa	-10.118
▁fac	-10.1182
▁positivo	-10.1182
▁nosso	-10.1205
▁olímpicos	-10.1218
▁Dois	-10.122
▁explicar	-10.1225
berto	-10.1227
▁Quadr	-10.1234
junto	-10.1248
aída	-10.1276
ff	-10.1287
▁investir	-10.1292
▁aprender	-10.1294
▁Ac	-10.1315
▁gays	-10.1315
▁Val	-10.1331
▁MG	-10.1333
▁crescem	-10.1336
ocupam	-10.1351
▁45	-10.1371
,8	-10.1378
▁representa	-10.1391
▁isola	-10.1403
bro	-10.1403
raça	-10.1409
▁Pai	-10.141
▁Tom	-10.1417
▁blog	-10.1417
ministra	-10.1417
Hamilton	-10.1417
▁Amazon	-10.1417
▁Barbosa	-10.1417
▁Guarulhos	-10.1417
▁LGBT	-10.1417
▁Lewandowski	-10.1417
▁Padilha	-10.1417
▁Prince	-10.1417
▁Shakespeare	-10.1417
▁Tesouro	-10.1417
▁alternativa	-10.1417
▁antidoping	-10.1417
▁beneficia	-10.1417
▁bloqueia	-10.1417
▁chinesa	-10.1417
▁cientista	-10.1417
▁espécie	-10.1417
▁estimula	-10.1417
▁literatura	-10.1417
▁outubro	-10.1417
▁renuncia	-10.1417
▁sugestões	-10.1417
▁suspenso	-10.1417
▁trailer	-10.1417
núncio	-10.1417
▁Campanha	-10.1417
▁Queiroz	-10.1417
▁batalha	-10.1417
▁prática	-10.1417
▁feriado	-10.1417
▁garoto	-10.1417
▁regime	-10.1417
▁OEA	-10.1417
▁Relator	-10.1417
▁exonera	-10.1417
David	-10.1417
▁reflete	-10.1417
▁branco	-10.1417
▁Club	-10.1417
▁Bahia	-10.1417
▁baleado	-10.1417
▁concede	-10.1418
▁russa	-10.1418
▁Estudo	-10.1418
▁start	-10.1418
▁ruim	-10.1418
▁Record	-10.1418
▁Acordo	-10.1419
▁editor	-10.1419
▁escala	-10.1419
▁Policia	-10.142
▁rock	-10.1421
▁documentário	-10.1421
▁passage	-10.1421
▁calor	-10.1423
ltimo	-10.1423
cro	-10.1424
,5%	-10.1426
▁sociedade	-10.1428
▁esperança	-10.1428
▁tanto	-10.1428
exame	-10.1429
▁tabu	-10.1432
▁10%	-10.1433
▁Secretário	-10.1433
▁can	-10.1439
▁Rog	-10.1441
cé	-10.1459
▁Ser	-10.1461
carga	-10.1462
floresta	-10.1464
▁Barra	-10.1468
▁decidir	-10.1473
▁Ed	-10.1478
▁bloco	-10.1488
Bo	-10.1489
▁donos	-10.1494
▁Cri	-10.1496
▁pequenos	-10.1497
▁Dez	-10.1501
▁associação	-10.1503
▁este	-10.1504
▁atirador	-10.1514
30	-10.1518
▁Fri	-10.1521
lus	-10.1538
▁desculpas	-10.1539
▁casas	-10.1542
▁afastar	-10.1542
▁sente	-10.1555
▁Fundos	-10.1555
▁cumprir	-10.1584
pic	-10.159
enas	-10.1657
▁década	-10.1663
▁artista	-10.1673
▁Investiga	-10.1685
▁Out	-10.1689
▁outro	-10.1692
▁coisas	-10.1702
▁fila	-10.1709
lim	-10.1712
estação	-10.1716
▁má	-10.1723
▁Pen	-10.1724
sem	-10.173
▁remo	-10.1737
▁ajud	-10.1746
ila	-10.1751
▁1%	-10.1753
pal	-10.1758
cursos	-10.1761
▁esperar	-10.1777
▁põe	-10.1778
▁debates	-10.1796
▁cem	-10.1806
▁políticas	-10.1812
▁Bra	-10.1819
▁mãos	-10.1822
ense	-10.1824
▁relator	-10.1841
▁queria	-10.1848
▁Mari	-10.1878
▁Par	-10.188
▁cortes	-10.1885
▁nove	-10.1891
▁trabalhar	-10.1894
▁momentos	-10.1896
ps	-10.1904
▁Rob	-10.1913
itude	-10.1914
▁Federa	-10.1923
brexit	-10.1944
histórica	-10.1944
▁Aleppo	-10.1944
▁Copacabana	-10.1944
▁Geddel	-10.1944
▁Henrique	-10.1944
▁IBGE	-10.1944
▁artística	-10.1944
▁caminhão	-10.1944
▁comercial	-10.1944
▁consulta	-10.1944
▁documentos	-10.1944
▁empréstimo	-10.1944
▁iPhone	-10.1944
▁limpeza	-10.1944
▁recomenda	-10.1944
▁sequência	-10.1944
▁torneio	-10.1944
▁trânsito	-10.1944
▁licença	-10.1944
▁quadro	-10.1944
▁rodovia	-10.1944
▁Armadas	-10.1944
▁SUS	-10.1944
▁gripe	-10.1944
▁Soares	-10.1944
▁comunicação	-10.1944
▁mídia	-10.1944
▁Cabral	-10.1944
▁médio	-10.1944
▁pedra	-10.1944
▁Chuva	-10.1944
▁cogita	-10.1944
▁Egito	-10.1944
▁apertura	-10.1944
▁ritmo	-10.1944
▁Internacional	-10.1944
▁vazamento	-10.1944
▁perdida	-10.1944
▁agressão	-10.1944
Social	-10.1944
▁Entre	-10.1944
▁mistura	-10.1944
▁diferença	-10.1944
▁Jogador	-10.1945
▁visão	-10.1945
▁itens	-10.1945
▁perfil	-10.1946
▁comanda	-10.1946
▁cadeira	-10.1946
▁passe	-10.1947
finais	-10.1948
▁demite	-10.195
▁gestor	-10.1951
▁questão	-10.1952
▁Cinema	-10.1953
▁atende	-10.1953
▁400	-10.1955
▁pessoal	-10.1955
▁perman	-10.1955
feliz	-10.1955
▁investimentos	-10.1957
▁Economista	-10.1957
fogo	-10.1957
▁pasta	-10.1957
ixo	-10.1958
▁Aires	-10.196
▁expansão	-10.1964
▁BR	-10.1966
▁Rosa	-10.197
▁Procurador	-10.1971
▁Pan	-10.1976
Nun	-10.1976
▁roupas	-10.1977
▁solução	-10.1983
▁Governador	-10.1986
▁otimismo	-10.1986
▁enfrentar	-10.1989
▁Segunda	-10.199
▁lugares	-10.1999
Ben	-10.203
▁cartun	-10.2032
lher	-10.2032
▁menores	-10.2045
▁técnicos	-10.2049
trato	-10.2066
▁comenta	-10.2086
▁reage	-10.2109
ep	-10.2113
▁orienta	-10.2115
▁remédios	-10.212
▁pesquisas	-10.2123
inhas	-10.2125
▁humanos	-10.2128
▁Tur	-10.2132
apo	-10.2135
▁entrar	-10.2137
han	-10.2164
▁sede	-10.2191
▁lançar	-10.2203
come	-10.2211
▁sobem	-10.2215
▁fatos	-10.2216
ivo	-10.222
▁bebê	-10.2223
▁enfrentam	-10.2223
▁Ten	-10.2223
▁Nem	-10.2225
▁filas	-10.2234
▁doações	-10.2243
▁St	-10.225
▁Vida	-10.2255
▁vinhos	-10.2261
cke	-10.2305
▁ger	-10.232
▁marcas	-10.2329
▁Pais	-10.2332
adrão	-10.234
,6%	-10.2347
▁Fla	-10.2352
▁Grand	-10.2354
tividade	-10.2359
Guia	-10.2385
▁Ita	-10.2394
▁fato	-10.2405
▁cartu	-10.2407
nder	-10.2422
para	-10.2454
dez	-10.2463
▁Sch	-10.2477
.000	-10.248
▁29	-10.2484
Q	-10.249
remiê	-10.2496
justiça	-10.2499
▁Gleisi	-10.2499
▁Goiás	-10.2499
▁Istambul	-10.2499
▁Lúcia	-10.2499
▁Madalena	-10.2499
▁Opening	-10.2499
▁Suplicy	-10.2499
▁Twitter	-10.2499
▁caça	-10.2499
▁deficit	-10.2499
▁deficiência	-10.2499
▁eletrônico	-10.2499
▁moderno	-10.2499
▁máquina	-10.2499
▁nuclear	-10.2499
▁preserva	-10.2499
▁respeito	-10.2499
▁semifinal	-10.2499
▁camisa	-10.2499
▁pretende	-10.2499
lândia	-10.2499
▁horário	-10.2499
▁Bellu	-10.2499
▁Nobel	-10.2499
▁falsa	-10.2499
▁Greve	-10.2499
▁levou	-10.2499
▁Eleitoral	-10.2499
▁poesia	-10.2499
▁assalta	-10.2499
▁Canadá	-10.2499
▁corrida	-10.2499
▁japonês	-10.2499
▁jantar	-10.2499
▁revisa	-10.2499
▁roubo	-10.25
▁Torcedor	-10.25
▁Quarta	-10.25
▁banca	-10.25
▁Souza	-10.25
▁divis	-10.25
▁vendido	-10.25
▁3,5	-10.25
landês	-10.25
▁Nadal	-10.25
▁Servidor	-10.25
▁dengue	-10.2501
▁estrada	-10.2501
▁rotina	-10.2501
▁graça	-10.2502
▁barato	-10.2502
▁etapa	-10.2503
▁interrompe	-10.2503
▁motor	-10.2504
hamm	-10.2504
▁desvio	-10.2505
▁investidores	-10.2507
▁negativo	-10.2509
▁rumo	-10.2509
▁Parente	-10.2509
▁30%	-10.2509
favorável	-10.251
▁foco	-10.251
▁demanda	-10.2511
▁trabalhadores	-10.2511
▁Los	-10.2513
▁leitura	-10.2513
▁lesão	-10.2515
▁Gold	-10.2518
▁animais	-10.2521
rica	-10.2524
nova	-10.2528
▁multi	-10.2529
▁próximos	-10.253
▁Poli	-10.2531
▁interno	-10.2534
▁Consu	-10.2535
▁Monte	-10.2541
▁fria	-10.2543
▁apreende	-10.2548
▁competir	-10.2551
▁Cultural	-10.256
▁narra	-10.2564
▁banda	-10.2568
▁Pesquisador	-10.2569
▁fere	-10.257
▁escritório	-10.2572
▁Qual	-10.2574
nce	-10.2574
▁polêmicas	-10.2578
▁aula	-10.2583
confi	-10.259
▁comunidade	-10.2604
▁analistas	-10.2605
▁Tro	-10.2612
▁Vam	-10.2612
▁dividem	-10.2622
▁gerar	-10.2632
cionistas	-10.2653
▁chamar	-10.2663
éria	-10.2678
▁respostas	-10.2686
emana	-10.2691
Con	-10.2705
▁28	-10.2728
arro	-10.2738
▁depor	-10.2744
▁Atletas	-10.2752
▁criação	-10.2754
De	-10.278
▁sobrevive	-10.2793
mata	-10.2809
▁Candidato	-10.2811
AB	-10.2812
▁demissões	-10.2814
▁petistas	-10.282
▁comum	-10.2837
We	-10.2852
▁definir	-10.2862
ouve	-10.2869
▁investigada	-10.2876
cional	-10.2891
▁liberado	-10.2894
matam	-10.2936
▁exclu	-10.2947
adeira	-10.2952
▁tempos	-10.2955
▁advogados	-10.2968
▁recorrer	-10.2987
ecu	-10.2992
▁avançam	-10.3011
tratar	-10.3015
▁acordos	-10.3019
▁demais	-10.3061
stituição	-10.3067
▁inéditos	-10.307
uck	-10.3071
erson	-10.3084
▁John	-10.3086
▁Alegre	-10.3087
▁Audax	-10.3087
▁Ceremony	-10.3087
▁Committee	-10.3087
▁Flórida	-10.3087
▁INSS	-10.3087
▁Jardim	-10.3087
▁Matarazzo	-10.3087
▁Merkel	-10.3087
▁Militar	-10.3087
▁Parlamento	-10.3087
▁Volkswagen	-10.3087
▁colunista	-10.3087
▁envolve	-10.3087
▁estrangeira	-10.3087
▁esvazia	-10.3087
▁franquia	-10.3087
▁incentiva	-10.3087
▁juízes	-10.3087
▁manhã	-10.3087
▁natureza	-10.3087
▁parlamentar	-10.3087
▁personagem	-10.3087
▁projeção	-10.3087
▁testemunha	-10.3087
▁universo	-10.3087
▁Franco	-10.3087
▁PGR	-10.3087
▁concessão	-10.3087
xemplo	-10.3087
▁liminar	-10.3087
▁simples	-10.3087
▁AGU	-10.3087
▁razão	-10.3087
▁aéreo	-10.3087
▁extinção	-10.3087
▁Things	-10.3088
▁falso	-10.3088
▁grave	-10.3088
compensa	-10.3088
coreano	-10.3088
▁goleia	-10.3088
▁irrita	-10.3088
▁passaporte	-10.3088
▁rápido	-10.3088
▁seguro	-10.3088
tarefa	-10.3088
▁favorece	-10.3088
▁índice	-10.3088
▁calote	-10.3088
▁classe	-10.3088
▁secretaria	-10.3088
▁Gilberto	-10.3088
ight	-10.3088
▁pouca	-10.3088
▁discussão	-10.3088
▁Aluno	-10.3088
▁sangue	-10.3089
▁atingir	-10.3089
▁banheiro	-10.3089
▁Constituição	-10.3089
▁drama	-10.3089
▁capta	-10.3089
Vi	-10.3089
▁MPF	-10.309
▁suposta	-10.309
▁sexo	-10.3091
▁Turismo	-10.3091
▁Alves	-10.3091
emonia	-10.3091
▁sonha	-10.3091
▁praça	-10.3091
▁micro	-10.3092
▁frear	-10.3092
Jorna	-10.3093
▁interino	-10.3094
▁Debate	-10.3095
quia	-10.3096
▁paulistana	-10.3098
▁delações	-10.3099
justa	-10.3099
▁coração	-10.3099
▁pergunta	-10.31
▁Santana	-10.3101
▁BH	-10.3102
▁sócio	-10.3105
▁membro	-10.3106
▁Prefeito	-10.311
▁Setor	-10.3112
▁custar	-10.3119
▁estatal	-10.312
hop	-10.3121
▁internado	-10.3124
▁garantir	-10.3126
▁concurso	-10.3127
▁Turista	-10.3129
▁Aberto	-10.313
▁atacante	-10.3136
▁boate	-10.3138
▁cultural	-10.3139
▁1.	-10.3148
lula	-10.3155
▁terminar	-10.3157
nch	-10.3158
▁anunciar	-10.3162
fter	-10.3174
▁Rose	-10.318
▁portas	-10.3185
chi	-10.3186
▁leia	-10.3187
ego	-10.3189
ódio	-10.3193
▁erra	-10.3193
crim	-10.3195
▁republicanos	-10.3199
W	-10.3211
▁rap	-10.3227
Harr	-10.3227
▁falam	-10.3229
▁Aument	-10.3242
▁pet	-10.3249
uring	-10.325
nge	-10.326
▁reta	-10.3266
▁negociar	-10.3266
▁trocar	-10.3268
▁denúncias	-10.3276
bora	-10.3277
▁jud	-10.3277
▁morreu	-10.3281
▁ricos	-10.329
▁poderia	-10.3291
passa	-10.331
▁at	-10.3321
▁Carro	-10.3333
▁notícias	-10.3339
▁confia	-10.3339
▁resp	-10.3346
▁leitora	-10.335
▁38	-10.3352
▁Dro	-10.3365
izada	-10.3381
edi	-10.3385
-1	-10.3402
boca	-10.3411
▁pista	-10.342
▁compras	-10.3421
▁volume	-10.343
▁Atleta	-10.3435
chefe	-10.3442
americano	-10.3444
▁1,2	-10.3445
▁loja	-10.3446
leiro	-10.3448
missões	-10.3458
▁mito	-10.3471
▁une	-10.3472
pel	-10.3476
ray	-10.3484
▁pedi	-10.3484
▁atropela	-10.3485
▁Cá	-10.3499
▁morrer	-10.3513
▁inéditas	-10.3533
▁aprovar	-10.3538
▁aproveitar	-10.3558
▁Má	-10.3565
rmen	-10.3566
▁Paul	-10.3574
cesso	-10.3605
▁lamenta	-10.3624
atletas	-10.363
▁300	-10.3632
otel	-10.3638
▁julga	-10.3642
▁1,6	-10.3644
▁Th	-10.3652
ônica	-10.3652
we	-10.3655
▁vídeos	-10.3663
ebre	-10.3673
▁clubes	-10.3678
▁Frei	-10.3686
▁Sam	-10.3687
▁porque	-10.3689
▁wi	-10.369
▁bols	-10.3704
▁servi	-10.3705
ocumentário	-10.3708
▁Will	-10.3712
▁irregular	-10.3712
FGTS	-10.3712
corintiano	-10.3712
fotógrafo	-10.3712
repórter	-10.3712
▁Augusto	-10.3712
▁Bowie	-10.3712
▁Bélgica	-10.3712
▁Calheiros	-10.3712
▁Calleri	-10.3712
▁Dívida	-10.3712
▁Orçamento	-10.3712
▁Professor	-10.3712
▁Recife	-10.3712
▁Rosberg	-10.3712
▁Terça	-10.3712
▁Transparência	-10.3712
▁alívio	-10.3712
▁anistia	-10.3712
▁autonomia	-10.3712
▁combustível	-10.3712
▁comerciais	-10.3712
▁contribui	-10.3712
▁cérebro	-10.3712
▁dribla	-10.3712
▁hacker	-10.3712
▁jurídica	-10.3712
▁medalhista	-10.3712
▁oficina	-10.3712
▁patrimônio	-10.3712
▁patrocina	-10.3712
▁perfeita	-10.3712
▁republicana	-10.3712
▁robô	-10.3712
▁MEC	-10.3712
▁Paraguai	-10.3712
▁jazz	-10.3712
casal	-10.3712
▁memória	-10.3712
▁vazio	-10.3712
▁cadeia	-10.3713
▁eleitorais	-10.3713
▁Curso	-10.3713
▁convite	-10.3713
▁repete	-10.3713
▁Aneel	-10.3713
▁transferi	-10.3713
▁caminha	-10.3713
stúdio	-10.3713
▁Fartura	-10.3713
▁Irã	-10.3713
▁união	-10.3713
▁infraestrutura	-10.3713
▁poeta	-10.3713
▁Custo	-10.3713
▁ausência	-10.3713
▁fixa	-10.3713
▁trajetória	-10.3713
▁atentados	-10.3713
▁interpreta	-10.3713
▁sinais	-10.3713
▁aviões	-10.3713
▁coluna	-10.3713
▁Caracas	-10.3713
▁mesma	-10.3713
▁talento	-10.3713
▁Bern	-10.3714
▁web	-10.3714
▁duelo	-10.3714
▁Pedido	-10.3714
▁narrativa	-10.3714
▁Gomes	-10.3714
▁simula	-10.3714
▁pacto	-10.3714
▁Neves	-10.3715
▁Emmy	-10.3715
▁Batista	-10.3716
▁Braz	-10.3716
▁delegacia	-10.3717
pão	-10.3718
▁olhar	-10.372
▁Diário	-10.3722
▁eleitores	-10.3723
▁Quint	-10.3724
▁fama	-10.3725
ora	-10.3727
▁20%	-10.3727
▁OAB	-10.3729
▁chora	-10.3734
▁Crianças	-10.3741
▁American	-10.3741
▁Corpo	-10.3743
▁britânicos	-10.3749
▁classificação	-10.3758
▁Pass	-10.3759
▁Pela	-10.3779
▁passou	-10.378
ive	-10.379
▁andar	-10.3799
pun	-10.3803
dirigente	-10.3804
ixou	-10.3806
met	-10.3808
▁Paula	-10.381
▁despesas	-10.3813
▁Suspeito	-10.3832
▁usuários	-10.3832
▁Van	-10.3838
▁adiada	-10.3841
iller	-10.3842
▁colegas	-10.3851
vacinação	-10.3856
ental	-10.3865
áti	-10.3868
remos	-10.3871
▁aberto	-10.3883
▁Roma	-10.3892
▁gl	-10.3894
rinha	-10.3902
11	-10.391
ben	-10.3912
Minh	-10.3912
▁partidos	-10.3919
ting	-10.3924
▁sírios	-10.3924
▁igual	-10.3925
▁saiba	-10.3944
▁preferido	-10.3957
▁dono	-10.3962
▁repetir	-10.3964
▁opositor	-10.399
▁testes	-10.4005
▁manu	-10.4005
sido	-10.4006
8%	-10.4008
▁vencem	-10.4009
aldo	-10.4009
▁seca	-10.4021
▁solta	-10.4033
deiro	-10.4035
▁vaias	-10.4042
▁Dua	-10.4045
▁liber	-10.4084
▁nossa	-10.4095
▁notícia	-10.4101
▁veículo	-10.4106
▁Time	-10.4108
▁analisar	-10.4112
▁conquistar	-10.4113
▁Her	-10.4122
▁parecer	-10.4122
dição	-10.4148
▁exercício	-10.4152
oyo	-10.4174
▁Ter	-10.4188
Ba	-10.4204
▁indicado	-10.4214
ún	-10.4228
▁agredi	-10.4246
▁gal	-10.4254
▁agr	-10.426
escrever	-10.4291
incerteza	-10.432
benefício	-10.4321
timismo	-10.4332
▁sinal	-10.4337
▁Che	-10.434
▁parques	-10.4342
tranger	-10.4346
ups	-10.4349
▁recordes	-10.4353
▁On	-10.4357
cana	-10.4357
▁frustra	-10.4362
▁Jan	-10.4365
▁aposenta	-10.4368
ografia	-10.4375
▁segura	-10.4377
▁Villa	-10.4378
-2012	-10.4379
condomínio	-10.4379
prioridade	-10.4379
secretária	-10.4379
▁Collor	-10.4379
▁Colunista	-10.4379
▁Crivella	-10.4379
▁Energia	-10.4379
▁Guanabara	-10.4379
▁Itaquerão	-10.4379
▁Minuto	-10.4379
▁Tecnologia	-10.4379
▁Unicamp	-10.4379
▁Usiminas	-10.4379
▁amistoso	-10.4379
▁aniversário	-10.4379
▁ascensão	-10.4379
▁bicicleta	-10.4379
▁chineses	-10.4379
▁companhia	-10.4379
▁especiais	-10.4379
▁fiscais	-10.4379
▁hospitais	-10.4379
▁japonesa	-10.4379
▁minimiza	-10.4379
▁orgânico	-10.4379
▁palavra	-10.4379
▁patrocínio	-10.4379
▁resistência	-10.4379
muçulmano	-10.4379
▁decepciona	-10.4379
▁monitora	-10.4379
▁novembro	-10.4379
▁perigos	-10.4379
vergonha	-10.4379
▁Mendonça	-10.4379
▁Potter	-10.4379
▁ensaio	-10.4379
▁exigir	-10.4379
-2020	-10.4379
▁salarial	-10.4379
▁transporte	-10.4379
▁Abertura	-10.4379
▁inovação	-10.4379
▁decisões	-10.4379
▁garota	-10.4379
▁regula	-10.4379
▁bebida	-10.4379
▁transição	-10.4379
Pequeno	-10.4379
▁aliança	-10.4379
▁congela	-10.4379
▁Atentado	-10.4379
▁despede	-10.4379
▁impede	-10.4379
▁gritos	-10.4379
alácio	-10.4379
▁general	-10.4379
▁famoso	-10.4379
▁Limpa	-10.4379
▁furto	-10.4379
▁pauta	-10.438
▁imobiliário	-10.438
▁cardápio	-10.438
▁prefere	-10.438
▁fracassa	-10.438
▁hotéis	-10.438
▁existe	-10.438
▁State	-10.438
▁Estácio	-10.438
▁época	-10.438
▁nós	-10.438
▁vestido	-10.438
▁presidencial	-10.438
▁Ryan	-10.438
▁fosse	-10.438
▁adeus	-10.4381
▁brilha	-10.4381
▁Felip	-10.4381
▁manifestações	-10.4382
▁That	-10.4382
▁diversidade	-10.4383
▁pintura	-10.4383
▁confiança	-10.4383
▁oitavas	-10.4384
▁mensalão	-10.4386
▁velha	-10.4386
▁fiscalização	-10.4387
▁queixa	-10.4387
▁jornalismo	-10.4388
▁retrato	-10.439
curit	-10.439
▁marketing	-10.4391
▁trama	-10.4394
▁Team	-10.4395
▁Renato	-10.4396
▁competição	-10.4396
tiene	-10.4397
▁material	-10.4397
▁tornou	-10.4397
▁cartaz	-10.4399
▁paralisação	-10.4402
▁solar	-10.4403
▁acusações	-10.4404
▁processos	-10.4407
▁fonte	-10.4412
age	-10.4412
▁Dona	-10.4416
tch	-10.4417
▁proibição	-10.442
▁Bon	-10.4424
▁comete	-10.4424
talo	-10.4424
▁músicas	-10.4425
▁valores	-10.4427
▁produzir	-10.4428
▁recebido	-10.4429
▁Neto	-10.4431
ping	-10.4433
▁atingido	-10.4434
Esqu	-10.4437
▁incertezas	-10.4438
▁substitui	-10.4441
▁estava	-10.4441
▁conhecer	-10.4442
▁Pará	-10.4446
▁condenação	-10.4447
chei	-10.4462
▁MS	-10.4462
king	-10.4469
▁ponte	-10.4475
▁solto	-10.4476
▁Base	-10.4477
▁continuar	-10.448
inda	-10.4489
terra	-10.4492
▁medi	-10.4523
clusão	-10.4531
▁cedo	-10.4532
▁Win	-10.4541
▁sentir	-10.4553
▁detidos	-10.4553
saem	-10.4565
▁europeus	-10.4567
▁games	-10.4567
▁arenas	-10.4571
▁Medo	-10.4586
▁plantas	-10.4586
▁poemas	-10.4587
Já	-10.4589
eral	-10.4601
▁mostrar	-10.4607
▁começam	-10.4617
▁rende	-10.4622
▁termo	-10.463
▁grupos	-10.4641
▁impedir	-10.465
vivem	-10.4652
▁chances	-10.4657
▁pô	-10.4687
▁debatem	-10.4694
gentes	-10.4719
▁valoriza	-10.4724
▁renovar	-10.474
▁ensinar	-10.4744
treinador	-10.4784
▁premia	-10.4791
60	-10.4799
▁aguarda	-10.48
▁efeitos	-10.4808
▁Fim	-10.4814
16	-10.4816
▁preferi	-10.482
▁Rec	-10.4823
▁Pinheiro	-10.4827
▁juro	-10.4831
▁adapta	-10.4833
▁Jogo	-10.4835
▁cota	-10.4837
▁medida	-10.485
▁iguala	-10.4855
▁livrar	-10.4862
▁tradi	-10.4865
▁limites	-10.4869
pôs	-10.4882
▁num	-10.4887
lana	-10.4894
▁Lob	-10.4938
▁civi	-10.495
▁85	-10.4955
▁salários	-10.4972
▁antecipar	-10.4996
▁inclui	-10.501
1,5	-10.5011
cus	-10.5015
idi	-10.5026
crítico	-10.5034
▁fraudes	-10.5034
▁recebi	-10.504
▁complica	-10.5044
inheiro	-10.5081
▁Bayer	-10.5083
▁convida	-10.5093
▁expulsa	-10.5093
▁individual	-10.5093
...	-10.5093
Ninguém	-10.5093
inteligente	-10.5093
quê	-10.5093
▁Anvisa	-10.5093
▁Chapecoense	-10.5093
▁Companhia	-10.5093
▁Desafio	-10.5093
▁Disney	-10.5093
▁Guarujá	-10.5093
▁Ibirapuera	-10.5093
▁Jardins	-10.5093
▁Líbia	-10.5093
▁Manchester	-10.5093
▁Mercedes	-10.5093
▁Oliveira	-10.5093
▁Repórter	-10.5093
▁Sarney	-10.5093
▁Yahoo	-10.5093
▁academia	-10.5093
▁arquitetura	-10.5093
▁colabora	-10.5093
▁cruzeiro	-10.5093
▁curiosidade	-10.5093
▁deficiente	-10.5093
▁depressão	-10.5093
▁diverti	-10.5093
▁empreiteira	-10.5093
▁esportivo	-10.5093
▁faculdade	-10.5093
▁feminista	-10.5093
▁grávida	-10.5093
▁ingrediente	-10.5093
▁internacionais	-10.5093
▁ironiza	-10.5093
▁leniência	-10.5093
▁marqueteiro	-10.5093
▁medicina	-10.5093
▁mensagem	-10.5093
▁municipal	-10.5093
▁petrolão	-10.5093
▁qualquer	-10.5093
▁rebelde	-10.5093
▁registro	-10.5093
▁tamanho	-10.5093
▁turístico	-10.5093
▁universitário	-10.5093
▁Camargo	-10.5093
▁GCM	-10.5093
▁PSB	-10.5093
▁dilema	-10.5093
▁pequena	-10.5093
▁referência	-10.5093
▁safra	-10.5093
▁Secretari	-10.5093
▁chegou	-10.5093
▁fugir	-10.5093
▁merece	-10.5093
▁Embraer	-10.5093
▁Manaus	-10.5094
▁bichos	-10.5094
▁convence	-10.5094
▁elenco	-10.5094
▁Air	-10.5094
▁dieta	-10.5094
▁alivia	-10.5094
▁inteligência	-10.5094
▁Históri	-10.5094
▁Juíz	-10.5094
▁Prédio	-10.5094
Zona	-10.5094
▁massacre	-10.5094
▁exalta	-10.5094
▁inscrições	-10.5095
▁mentira	-10.5095
▁Proposta	-10.5095
▁proteger	-10.5095
Ilustríssima	-10.5095
▁Anatel	-10.5095
▁impasse	-10.5095
▁ocorre	-10.5095
▁moeda	-10.5096
▁Homen	-10.5096
▁Vitória	-10.5096
▁aperta	-10.5097
▁interfer	-10.5097
▁despedida	-10.5098
▁Braga	-10.51
▁decreto	-10.5101
▁Fiat	-10.5104
▁encerramento	-10.5104
▁recria	-10.5105
▁Fã	-10.5106
▁criativa	-10.5108
▁Mogi	-10.5109
Panam	-10.5109
▁negociações	-10.511
▁Ponte	-10.5112
▁Rosso	-10.5114
▁Sport	-10.5118
▁Evento	-10.5122
Flu	-10.5128
▁colombiano	-10.513
▁somos	-10.513
▁representação	-10.5131
▁sim	-10.5132
▁novela	-10.5133
▁hostiliza	-10.5134
▁Melo	-10.5141
▁renovação	-10.5144
lê	-10.515
▁Honda	-10.5151
▁2016!	-10.5158
▁vento	-10.516
ensinam	-10.5161
▁acusados	-10.5173
▁lançam	-10.5175
▁acredita	-10.518
▁3,4	-10.5192
▁executivos	-10.5196
▁afastado	-10.5198
andir	-10.5212
Trump	-10.5212
▁Criador	-10.5218
fazer	-10.522
▁esportes	-10.5223
▁torce	-10.5223
▁frases	-10.5231
▁idosos	-10.5253
▁Mat	-10.5254
MA	-10.5255
dependência	-10.5256
elações	-10.5275
▁Eleito	-10.5295
▁Paulistano	-10.5295
▁leitores	-10.5298
▁km	-10.5302
elli	-10.5306
ínio	-10.531
▁universidades	-10.5317
eza	-10.532
▁solo	-10.5326
lém	-10.5329
▁Bel	-10.5359
▁tendências	-10.536
limpar	-10.537
▁criticado	-10.5372
Esper	-10.538
▁Vel	-10.5386
taria	-10.5397
▁canal	-10.5401
▁citado	-10.5409
▁Jon	-10.5411
,8%	-10.5424
▁Nu	-10.5425
▁Cai	-10.5433
▁Organiza	-10.549
▁conseguir	-10.549
convocado	-10.5502
ômi	-10.5533
▁tipo	-10.5551
▁economistas	-10.5577
▁tendência	-10.5583
▁caiu	-10.561
▁governa	-10.5662
▁ministérios	-10.5667
▁aplicativos	-10.5667
idez	-10.5677
utores	-10.5681
▁tomar	-10.5692
▁garant	-10.5699
▁piora	-10.5699
▁196	-10.5708
▁norma	-10.5708
War	-10.5709
▁reverte	-10.5727
▁Leg	-10.5734
▁constru	-10.5765
▁escapa	-10.5769
▁inclu	-10.5781
▁produz	-10.5805
abia	-10.5813
olução	-10.5828
▁paralisa	-10.5839
▁sabor	-10.5849
▁design	-10.5857
empreendedor	-10.5859
rédito	-10.586
▁telefon	-10.5863
fantasma	-10.5863
vingança	-10.5863
▁Bolívia	-10.5863
▁Botafogo	-10.5863
▁CPTM	-10.5863
▁Congonhas	-10.5863
▁Escócia	-10.5863
▁Ferreira	-10.5863
▁Fluminense	-10.5863
▁Funcionário	-10.5863
▁Hollywood	-10.5863
▁Hypolito	-10.5863
▁Ilhabela	-10.5863
▁Investimento	-10.5863
▁Judiciário	-10.5863
▁MBL	-10.5863
▁Montagner	-10.5863
▁Neschling	-10.5863
▁Piauí	-10.5863
▁Warriors	-10.5863
▁Zika	-10.5863
▁arbitragem	-10.5863
▁assassinato	-10.5863
▁atendimento	-10.5863
▁automotivo	-10.5863
▁bônus	-10.5863
▁categoria	-10.5863
▁culinária	-10.5863
▁dificuldades	-10.5863
▁dificulta	-10.5863
▁doméstica	-10.5863
▁envolvido	-10.5863
▁estímulo	-10.5863
▁facilita	-10.5863
▁financiar	-10.5863
▁flexibiliza	-10.5863
▁física	-10.5863
▁ilegais	-10.5863
▁jeito	-10.5863
▁jornais	-10.5863
▁mundiais	-10.5863
▁necessário	-10.5863
▁prioriza	-10.5863
▁reeleição	-10.5863
▁sucessão	-10.5863
▁surfe	-10.5863
▁tribunal	-10.5863
▁velocidade	-10.5863
▁Antonio	-10.5863
▁acabou	-10.5863
▁jornada	-10.5863
▁lavagem	-10.5863
▁patamar	-10.5863
▁Transporte	-10.5863
▁decisivo	-10.5863
▁segredo	-10.5863
▁Ceará	-10.5863
▁Direito	-10.5863
▁Merenda	-10.5863
▁folga	-10.5863
▁mudou	-10.5863
▁Dallas	-10.5863
▁Miami	-10.5863
▁Cozinha	-10.5863
▁cubano	-10.5863
▁produtividade	-10.5863
▁Alvorada	-10.5863
▁Branco	-10.5863
▁Eike	-10.5863
▁Revista	-10.5863
▁volante	-10.5863
▁Acusado	-10.5863
▁origem	-10.5863
▁Desempreg	-10.5863
▁encolhe	-10.5863
▁irregularidades	-10.5863
▁Ciência	-10.5863
▁diverge	-10.5863
▁lazer	-10.5863
▁Barreto	-10.5863
▁abriga	-10.5863
▁desfile	-10.5863
▁permanece	-10.5863
▁fizeram	-10.5863
▁tradicional	-10.5863
nibus	-10.5863
▁Papers	-10.5863
▁Haiti	-10.5863
▁pontua	-10.5863
▁pareci	-10.5863
▁William	-10.5863
golpista	-10.5863
▁esgota	-10.5863
▁particular	-10.5863
▁Fabian	-10.5864
▁reunir	-10.5864
▁Fraga	-10.5864
▁Vers	-10.5864
▁Petista	-10.5864
▁Tempo	-10.5864
bandido	-10.5865
▁Diego	-10.5865
▁demoli	-10.5865
▁vizinho	-10.5865
▁autora	-10.5865
exager	-10.5866
▁perdido	-10.5866
▁Itaú	-10.5866
▁MST	-10.5866
▁1980	-10.5866
▁Jack	-10.5866
▁assinatura	-10.5866
▁PEC	-10.5867
▁Pereira	-10.5867
▁atração	-10.5868
▁choro	-10.587
▁eleita	-10.587
▁2.000	-10.5871
▁acende	-10.5871
▁ferro	-10.5871
▁conduz	-10.5871
▁Gri	-10.5872
▁explosão	-10.5872
▁40%	-10.5874
▁gatos	-10.5875
▁bolsas	-10.5875
▁organizar	-10.5876
▁basta	-10.5876
So	-10.5877
▁marcha	-10.5877
▁levanta	-10.5882
▁isso	-10.5884
Rock	-10.5886
▁urbana	-10.5896
▁Fiesp	-10.5897
▁celebridades	-10.5897
▁Anti	-10.5901
Terra	-10.5908
bancário	-10.591
▁maquia	-10.5917
▁vara	-10.5917
▁oficializa	-10.592
▁presa	-10.5922
▁organização	-10.5933
▁moral	-10.5933
▁PE	-10.5934
▁urbano	-10.5935
▁raro	-10.5946
▁cost	-10.5949
▁More	-10.5953
▁legaliza	-10.5962
▁sobra	-10.5967
▁lenda	-10.597
▁sofrer	-10.5973
▁vári	-10.5976
▁Pelo	-10.5979
Bre	-10.5983
▁pênaltis	-10.5989
obson	-10.5992
▁capa	-10.6
▁tese	-10.6001
▁conecta	-10.6006
▁rara	-10.601
▁pacientes	-10.6012
▁Mato	-10.6032
issa	-10.6033
versão	-10.6034
▁venezuelanos	-10.6035
▁apurar	-10.6037
▁unir	-10.6075
▁acusada	-10.6078
acelerar	-10.61
▁Tor	-10.6115
▁chamado	-10.6126
rome	-10.6126
▁passeios	-10.6128
▁acerto	-10.6155
erry	-10.6163
▁Foto	-10.6165
atriz	-10.6178
secretário	-10.6189
líder	-10.6196
▁Times	-10.6199
▁rompe	-10.6213
▁Terrorist	-10.6218
▁Luca	-10.6226
▁inoc	-10.6243
▁avaliar	-10.625
▁Post	-10.625
▁Ator	-10.6255
▁pesa	-10.6258
▁Cont	-10.6279
▁Unes	-10.6282
▁polo	-10.6286
▁Dor	-10.6287
▁décadas	-10.6293
lle	-10.633
zen	-10.6334
▁aprovado	-10.6365
▁impedi	-10.6367
▁Not	-10.6374
Chap	-10.6408
▁sírio	-10.6417
▁remédio	-10.6419
▁passeio	-10.642
▁resposta	-10.6421
osso	-10.6423
segurança	-10.6463
▁pegar	-10.6466
▁humano	-10.6477
ório	-10.6481
▁1,3	-10.6504
▁massa	-10.6508
▁diretora	-10.6508
▁Hel	-10.651
▁publica	-10.6527
▁rico	-10.6561
partamento	-10.6566
▁treinar	-10.6571
▁32	-10.6573
bando	-10.6598
▁acompanhar	-10.66
▁Dan	-10.6607
oro	-10.6609
cident	-10.6616
BA	-10.6621
▁Cle	-10.663
▁flores	-10.6634
▁cama	-10.6651
▁associa	-10.667
lógico	-10.667
▁Madri	-10.669
▁sorte	-10.6694
circuito	-10.6696
▁auxiliar	-10.6696
▁influencia	-10.6696
▁justifica	-10.6696
▁manipula	-10.6696
▁movimenta	-10.6696
responsável	-10.6696
transgênero	-10.6696
▁Aeroporto	-10.6696
▁Arquiteto	-10.6696
▁Arthur	-10.6696
▁Athletes	-10.6696
▁BMW	-10.6696
▁Barça	-10.6696
▁Disputa	-10.6696
▁Distribuidora	-10.6696
▁Futuro	-10.6696
▁HBO	-10.6696
▁Lisboa	-10.6696
▁Monsanto	-10.6696
▁Musical	-10.6696
▁Saudita	-10.6696
▁Serviço	-10.6696
▁Toffoli	-10.6696
▁YouTube	-10.6696
▁almoço	-10.6696
▁calendário	-10.6696
▁científica	-10.6696
▁cineasta	-10.6696
▁clichês	-10.6696
▁curricular	-10.6696
▁câmera	-10.6696
▁dirigir	-10.6696
▁drinques	-10.6696
▁equilíbrio	-10.6696
▁escolhido	-10.6696
▁federais	-10.6696
▁financeiro	-10.6696
▁flagra	-10.6696
▁homicídio	-10.6696
▁italiana	-10.6696
▁máxima	-10.6696
▁ninguém	-10.6696
▁opinião	-10.6696
▁orçamento	-10.6696
▁potencial	-10.6696
▁previdência	-10.6696
▁rótulo	-10.6696
▁sabatina	-10.6696
▁seleciona	-10.6696
▁suicídio	-10.6696
▁símbolo	-10.6696
▁transparência	-10.6696
▁turnê	-10.6696
▁voluntária	-10.6696
▁árbitro	-10.6696
▁Buarque	-10.6696
▁Cameron	-10.6696
▁Imóve	-10.6696
▁SBT	-10.6696
▁Show	-10.6696
▁assusta	-10.6696
▁mobiliza	-10.6696
▁presidir	-10.6696
▁revisão	-10.6696
▁Relatório	-10.6696
▁Osasco	-10.6696
▁Paraolímpicos	-10.6696
▁contrário	-10.6696
▁galeria	-10.6696
▁Grosso	-10.6696
▁essencia	-10.6696
▁Chance	-10.6696
▁Guarda	-10.6696
▁construtora	-10.6696
▁Gerdau	-10.6696
Multi	-10.6696
▁abandono	-10.6696
▁rápida	-10.6696
▁golfe	-10.6696
▁detecta	-10.6696
secreta	-10.6696
▁saudade	-10.6696
▁Calero	-10.6696
▁isenção	-10.6696
▁Fidel	-10.6696
▁aventura	-10.6696
▁Regra	-10.6696
parceiro	-10.6696
▁enxu	-10.6696
▁Dream	-10.6696
▁tributária	-10.6696
▁ídolo	-10.6696
▁Safra	-10.6696
▁Alexand	-10.6696
▁desigualdade	-10.6696
▁Prix	-10.6696
▁Forte	-10.6696
ashion	-10.6697
▁Abreu	-10.6697
riedade	-10.6697
▁Davis	-10.6697
▁Discurso	-10.6697
Narco	-10.6697
▁Prata	-10.6697
▁Brunet	-10.6697
▁cúpula	-10.6697
▁tiroteio	-10.6697
▁discorda	-10.6697
▁especializada	-10.6697
▁bordo	-10.6697
▁complexo	-10.6697
▁puxa	-10.6697
▁Processo	-10.6697
▁parentes	-10.6697
▁consolida	-10.6697
▁Compra	-10.6697
▁relev	-10.6697
álculo	-10.6697
▁perícia	-10.6698
▁menu	-10.6698
▁ciclista	-10.6698
▁Denúncia	-10.6698
vés	-10.6698
▁assista	-10.6699
▁cartão	-10.6699
▁Stone	-10.6699
▁soja	-10.67
▁transmit	-10.67
▁parede	-10.67
▁empreendedores	-10.6701
▁restri	-10.6701
▁Designer	-10.6701
▁exportações	-10.6702
▁desenvolvimento	-10.6702
▁Loja	-10.6702
▁Menino	-10.6703
▁recuo	-10.6703
▁confusão	-10.6704
▁pronto	-10.6704
▁templo	-10.6705
▁Park	-10.6705
▁Precisa	-10.6705
▁inclusão	-10.6707
▁mineir	-10.6708
▁City	-10.6708
risão	-10.6708
▁circulação	-10.6709
▁cobrança	-10.6709
▁Ramos	-10.6709
▁metro	-10.671
ranja	-10.6711
▁Esca	-10.6711
tuba	-10.6712
▁Interna	-10.6715
▁haver	-10.6717
▁sabores	-10.6718
▁Vin	-10.6719
▁65	-10.6719
▁pego	-10.6722
▁Barroso	-10.6723
▁bani	-10.6725
Rei	-10.6725
▁vilã	-10.6726
▁milho	-10.6729
▁fundador	-10.673
▁73	-10.6731
TG	-10.6736
▁Day	-10.6737
▁Lé	-10.6739
▁Votaç	-10.674
ecreto	-10.674
▁Luz	-10.6744
▁IR	-10.6745
linhas	-10.6748
▁apuração	-10.6748
▁populares	-10.6751
▁pira	-10.6751
Mad	-10.6753
▁eliminação	-10.6758
▁adaptação	-10.6769
▁correta	-10.6773
ong	-10.6776
▁Feira	-10.6779
▁julgar	-10.6787
▁demora	-10.6796
▁escapar	-10.68
▁Mag	-10.6801
▁esqui	-10.6801
milita	-10.6806
▁cores	-10.6806
▁adultos	-10.6809
▁indígenas	-10.6809
▁obstáculos	-10.6809
▁Imp	-10.6813
▁pune	-10.6816
▁bares	-10.6816
▁lamentam	-10.6816
▁Pato	-10.6822
põem	-10.6825
▁impresso	-10.6833
▁liberação	-10.685
▁Porta	-10.6851
▁retomada	-10.6861
▁Len	-10.6862
▁errado	-10.6868
▁premiado	-10.6877
teral	-10.6881
▁Bor	-10.6883
▁incluir	-10.6884
▁tour	-10.6892
▁indicação	-10.6897
▁tarifas	-10.691
stamos	-10.6928
▁Soc	-10.6935
▁desembar	-10.6936
▁Camp	-10.695
▁barri	-10.6958
▁Fei	-10.6983
▁Fre	-10.7009
ile	-10.7026
▁continuam	-10.7038
fit	-10.704
▁planejam	-10.7051
▁fechada	-10.7054
▁contato	-10.7059
▁resgatado	-10.7068
Ele	-10.7089
Y	-10.7092
▁48	-10.7093
▁firma	-10.7125
arreira	-10.7127
queira	-10.7128
▁anunciado	-10.7137
▁arrecada	-10.714
rrecadação	-10.7141
▁vaiado	-10.7141
▁escolar	-10.7148
▁condu	-10.7151
▁algo	-10.7181
tinho	-10.7187
80	-10.7216
▁Sala	-10.7222
▁fatia	-10.7231
▁Sin	-10.7242
▁ligada	-10.7253
centes	-10.7267
▁39	-10.7269
Carros	-10.7285
deputado	-10.7286
47	-10.7292
americana	-10.7294
fino	-10.7295
mulher	-10.7314
tuação	-10.7315
▁Assa	-10.7319
▁universidade	-10.7325
▁planta	-10.7326
▁poema	-10.7326
▁estrangeiro	-10.7332
ice	-10.7349
▁vencedor	-10.7357
agre	-10.7362
▁radical	-10.7369
▁senti	-10.737
▁lançamento	-10.7381
▁dividi	-10.7383
pot	-10.7416
oko	-10.743
▁campeã	-10.7433
▁cin	-10.7461
dições	-10.7471
ssociação	-10.7475
itado	-10.7493
▁potência	-10.7507
tribut	-10.7517
▁decidi	-10.7518
▁Vol	-10.7518
▁produto	-10.7523
▁espectador	-10.7531
▁150	-10.7534
ink	-10.755
roupa	-10.755
It	-10.7556
18	-10.7561
▁começo	-10.7569
95	-10.7571
▁Institu	-10.7582
▁72	-10.7584
rescimento	-10.7602
utoridades	-10.7603
culos	-10.7604
▁equilibra	-10.7605
▁experimenta	-10.7605
▁privilegia	-10.7605
▁suicida	-10.7605
Bertioga	-10.7605
Liberdade	-10.7605
Você	-10.7605
burquíni	-10.7605
cemitério	-10.7605
gronegócio	-10.7605
prefeita	-10.7605
▁Califórnia	-10.7605
▁Ceagesp	-10.7605
▁Cerveró	-10.7605
▁Conceição	-10.7605
▁Democracia	-10.7605
▁Engenheir	-10.7605
▁Escolha	-10.7605
▁Flávi	-10.7605
▁Fronteiras	-10.7605
▁Gutierrez	-10.7605
▁Imigrantes	-10.7605
▁Indicado	-10.7605
▁Irlanda	-10.7605
▁Joaquim	-10.7605
▁Juventu	-10.7605
▁Marrocos	-10.7605
▁Microsoft	-10.7605
▁Minhocão	-10.7605
▁Olímpia	-10.7605
▁Paquistão	-10.7605
▁Plataforma	-10.7605
▁Polônia	-10.7605
▁Roraima	-10.7605
▁Veneza	-10.7605
▁acessível	-10.7605
▁arquiteto	-10.7605
▁canadense	-10.7605
▁centrais	-10.7605
▁compactos	-10.7605
▁concorrente	-10.7605
▁conhecido	-10.7605
▁desenvolve	-10.7605
▁eletrônica	-10.7605
▁episódio	-10.7605
▁expulso	-10.7605
▁federação	-10.7605
▁fotografia	-10.7605
▁fundamental	-10.7605
▁gabinete	-10.7605
▁gasolina	-10.7605
▁gaúcha	-10.7605
▁improbidade	-10.7605
▁influência	-10.7605
▁instância	-10.7605
▁jejum	-10.7605
▁médica	-10.7605
▁necessidade	-10.7605
▁nenhum	-10.7605
▁original	-10.7605
▁paraolímpica	-10.7605
▁performance	-10.7605
▁personagens	-10.7605
▁plenário	-10.7605
▁plágio	-10.7605
▁protagonista	-10.7605
▁sanciona	-10.7605
▁tranquil	-10.7605
▁trunfo	-10.7605
▁Medalhista	-10.7605
▁capitão	-10.7605
▁método	-10.7605
▁pioneiro	-10.7605
▁Kroton	-10.7605
▁Setembro	-10.7605
▁chacina	-10.7605
▁vidro	-10.7605
desastre	-10.7605
gême	-10.7605
▁Cauby	-10.7605
▁Estreia	-10.7605
▁artigo	-10.7605
▁quadra	-10.7605
2013	-10.7605
posições	-10.7605
▁Ibope	-10.7605
▁Marquinhos	-10.7605
▁Texas	-10.7605
▁parcela	-10.7605
▁sequestro	-10.7605
▁Ibama	-10.7605
▁bonito	-10.7605
▁soluções	-10.7605
▁Falcão	-10.7605
▁Marcela	-10.7605
▁operações	-10.7605
▁vendida	-10.7605
▁Pequim	-10.7605
▁interdita	-10.7605
▁Empreendedor	-10.7605
▁longo	-10.7605
▁Comité	-10.7605
▁Jordão	-10.7605
▁Oliver	-10.7605
▁Modelo	-10.7605
clipe	-10.7605
▁sensação	-10.7605
empestade	-10.7605
piloto	-10.7605
▁comédia	-10.7605
profunda	-10.7605
▁Work	-10.7605
▁teoria	-10.7605
▁estoque	-10.7605
pedala	-10.7605
▁revoga	-10.7605
▁Demanda	-10.7605
▁Freixo	-10.7606
▁Mineir	-10.7606
▁desenhos	-10.7606
▁Cresce	-10.7606
▁Biografia	-10.7606
▁apps	-10.7606
▁período	-10.7606
▁racista	-10.7606
▁curta	-10.7606
▁detalhe	-10.7606
▁operar	-10.7606
▁Magnan	-10.7606
fetivo	-10.7606
▁manifestantes	-10.7606
▁Experi	-10.7606
▁fórum	-10.7607
▁interdição	-10.7607
▁placa	-10.7607
▁Avião	-10.7607
▁junta	-10.7607
▁reabre	-10.7607
▁licencia	-10.7607
▁Cesar	-10.7607
Agora	-10.7607
▁Republicano	-10.7608
▁reafirma	-10.7608
▁patina	-10.7609
▁Ford	-10.7609
▁moradia	-10.7609
▁Busca	-10.761
▁barata	-10.761
▁revolta	-10.761
▁zero	-10.7611
▁tenho	-10.7612
▁Madrid	-10.7612
▁cabe	-10.7614
▁Quanto	-10.7614
▁fazenda	-10.7615
▁picha	-10.7615
▁atacar	-10.7615
▁2020	-10.7616
▁criou	-10.7616
▁diário	-10.7617
▁trilha	-10.7617
▁comuns	-10.7618
▁apela	-10.7618
▁chá	-10.7618
▁manifestação	-10.7619
▁relembre	-10.762
▁Murer	-10.762
▁Roger	-10.7621
▁agrava	-10.7621
mpasse	-10.7624
choque	-10.7625
▁tarde	-10.7625
construir	-10.7627
reitor	-10.7628
▁foge	-10.7628
▁exportação	-10.7629
▁sozinho	-10.7632
▁trauma	-10.7632
▁reportagem	-10.7635
▁sentido	-10.7636
▁Anna	-10.7637
600	-10.7638
▁Alvo	-10.7639
orcida	-10.7639
Louis	-10.764
▁sustentável	-10.7642
▁sonda	-10.7644
▁import	-10.7649
astros	-10.765
▁Carf	-10.765
▁ativistas	-10.7653
▁lota	-10.7664
Alice	-10.7665
▁edifício	-10.7671
▁editorial	-10.7671
▁piada	-10.7672
▁Polo	-10.7679
▁lama	-10.7679
▁marco	-10.768
▁pele	-10.7681
▁pente	-10.7685
conservador	-10.7688
▁estabilidade	-10.7689
▁gramado	-10.7692
struído	-10.7693
▁ocupação	-10.7693
▁presta	-10.7694
▁CN	-10.7695
▁fé	-10.7698
▁vila	-10.7714
▁preocupação	-10.772
▁governar	-10.7721
▁município	-10.7725
▁Usa	-10.7732
▁autorização	-10.7737
chê	-10.774
▁Carta	-10.7757
▁Seren	-10.7757
▁Baix	-10.7774
banho	-10.7781
▁usada	-10.7788
fensores	-10.7809
atlo	-10.7817
Sai	-10.7817
▁fornecedor	-10.7818
▁antecipada	-10.7823
▁investi	-10.7828
▁Marca	-10.7841
anga	-10.7867
▁professora	-10.7868
pole	-10.7874
dinho	-10.789
▁imigra	-10.7901
▁Petr	-10.7909
▁dita	-10.791
▁atu	-10.7927
▁Ke	-10.7933
▁Albert	-10.7945
cultura	-10.7945
azi	-10.7957
▁deporta	-10.7958
▁sono	-10.7973
▁inspirado	-10.7981
▁Bela	-10.7997
ombo	-10.8013
Torre	-10.8013
▁Chi	-10.8031
▁atira	-10.8046
▁consegui	-10.8068
▁preve	-10.8096
▁discuti	-10.8104
▁recus	-10.8137
▁Eli	-10.8144
▁human	-10.8159
▁mau	-10.8163
hen	-10.8206
▁colo	-10.8208
▁criado	-10.823
atleta	-10.8241
▁irmã	-10.8247
▁pessoa	-10.8302
▁Mario	-10.8318
▁Confederaç	-10.8319
▁europeu	-10.8326
cionista	-10.8328
▁diploma	-10.8328
▁exclusiv	-10.8329
preocupam	-10.8329
▁diferente	-10.833
▁arena	-10.8342
▁conte	-10.8349
▁game	-10.835
▁Fundo	-10.8355
▁achada	-10.8371
Que	-10.8382
ity	-10.8386
▁31	-10.8392
▁Cara	-10.8395
17	-10.8432
▁organizador	-10.8436
▁embala	-10.847
▁competi	-10.8473
▁const	-10.8474
água	-10.8479
▁67	-10.8494
▁Hil	-10.8496
▁conhece	-10.851
▁soma	-10.8517
▁Segund	-10.8518
band	-10.8545
▁2,5	-10.8568
▁ganho	-10.8569
▁cantor	-10.8574
Brasil	-10.8575
▁informa	-10.8575
Para	-10.8578
▁exporta	-10.8578
▁vereador	-10.8585
▁assiste	-10.8588
arketing	-10.8588
▁flor	-10.8592
orrupção	-10.8596
gat	-10.8596
▁Design	-10.8599
▁sindic	-10.8602
▁brasile	-10.8602
▁57	-10.8602
▁54	-10.8604
aponês	-10.8605
extrema	-10.8605
▁artificia	-10.8605
Maravilha	-10.8605
Sistema	-10.8605
Testemunha	-10.8605
municipais	-10.8605
pidemia	-10.8605
▁Academia	-10.8605
▁Adolescente	-10.8605
▁Airbnb	-10.8605
▁Arábia	-10.8605
▁Assessor	-10.8605
▁Cobertura	-10.8605
▁Democrata	-10.8605
▁EgyptAir	-10.8605
▁Encontro	-10.8605
▁Federer	-10.8605
▁Filipinas	-10.8605
▁Florianópolis	-10.8605
▁Higienópolis	-10.8605
▁Hospita	-10.8605
▁Igreja	-10.8605
▁Instagram	-10.8605
▁Ipiranga	-10.8605
▁Muylaert	-10.8605
▁Portugues	-10.8605
▁Tatuapé	-10.8605
▁Terremoto	-10.8605
▁Vítima	-10.8605
▁acessórios	-10.8605
▁auxílio	-10.8605
▁bastidores	-10.8605
▁cachorro	-10.8605
▁capitais	-10.8605
▁descumpr	-10.8605
▁digitais	-10.8605
▁dramaturg	-10.8605
▁emergência	-10.8605
▁fortalece	-10.8605
▁grátis	-10.8605
▁identidade	-10.8605
▁intensifica	-10.8605
▁liquidação	-10.8605
▁março	-10.8605
▁musicais	-10.8605
▁nacionais	-10.8605
▁planeta	-10.8605
▁polêmico	-10.8605
▁positiva	-10.8605
▁presidenciais	-10.8605
▁reintegração	-10.8605
▁reivindica	-10.8605
▁repercussão	-10.8605
▁rodízio	-10.8605
▁rúgbi	-10.8605
▁sociólogo	-10.8605
▁suficiente	-10.8605
▁suíço	-10.8605
▁teatral	-10.8605
▁traduz	-10.8605
▁traficantes	-10.8605
jipinho	-10.8605
socorro	-10.8605
▁DNA	-10.8605
▁Eurocopa	-10.8605
▁FBI	-10.8605
▁Munique	-10.8605
▁básica	-10.8605
▁calamidade	-10.8605
▁campeões	-10.8605
▁chocolate	-10.8605
▁desfalque	-10.8605
▁elétrica	-10.8605
▁esforço	-10.8605
▁ferramenta	-10.8605
▁hidrelétrica	-10.8605
▁hipismo	-10.8605
▁ilustra	-10.8605
▁mínima	-10.8605
▁obstru	-10.8605
▁peixes	-10.8605
▁personalidade	-10.8605
▁pizza	-10.8605
▁reforço	-10.8605
▁religioso	-10.8605
▁status	-10.8605
vaquinha	-10.8605
ópolis	-10.8605
▁Nintendo	-10.8605
▁Pablo	-10.8605
▁enterrado	-10.8605
▁equipamentos	-10.8605
▁tabela	-10.8605
Trabalho	-10.8605
capacidade	-10.8605
▁Minister	-10.8605
▁Reajuste	-10.8605
▁Seminário	-10.8605
▁pesadelo	-10.8605
▁índios	-10.8605
▁Caribe	-10.8605
▁agradece	-10.8605
▁belga	-10.8605
▁espelho	-10.8605
▁resgate	-10.8605
▁anticorrupção	-10.8605
▁grãos	-10.8605
▁sigla	-10.8605
▁Gigante	-10.8605
ódigo	-10.8605
▁Wood	-10.8605
▁mérito	-10.8605
▁turca	-10.8605
▁Borges	-10.8605
▁Importa	-10.8605
▁Criminoso	-10.8605
▁Campinas	-10.8605
▁Jean	-10.8605
▁ANP	-10.8605
júri	-10.8605
▁helicóptero	-10.8605
▁rigor	-10.8605
▁temporário	-10.8605
▁Mello	-10.8606
▁Preta	-10.8606
▁Praia	-10.8606
▁River	-10.8606
▁nasceu	-10.8606
▁latino	-10.8606
▁CNJ	-10.8606
▁Cristo	-10.8606
▁ousadia	-10.8606
▁mestre	-10.8606
scassez	-10.8606
▁privatização	-10.8606
▁Gasto	-10.8606
▁inadimplência	-10.8606
▁adquir	-10.8606
▁taxistas	-10.8607
▁esquece	-10.8607
▁Medalha	-10.8607
tígio	-10.8607
▁Rival	-10.8607
▁Gay	-10.8607
▁pastor	-10.8607
▁Tony	-10.8607
▁Final	-10.8608
Nós	-10.8608
nstein	-10.8608
▁notifica	-10.8608
▁peruan	-10.8609
▁auge	-10.8609
cepção	-10.8609
▁folha	-10.8609
▁MBA	-10.8609
▁tortura	-10.861
▁triste	-10.861
▁televisão	-10.861
▁Bandeira	-10.861
▁Exportaç	-10.861
▁Mooca	-10.861
▁criatividade	-10.8612
▁Allen	-10.8612
▁informações	-10.8612
▁Procon	-10.8612
▁360	-10.8613
▁urgente	-10.8613
▁Sesc	-10.8613
▁Assad	-10.8613
turb	-10.8614
Doping	-10.8614
▁usina	-10.8615
▁impõe	-10.8615
▁Hora	-10.8615
▁rádio	-10.8615
▁Chega	-10.8615
▁Penha	-10.8615
▁desaparecida	-10.8616
▁Angeles	-10.8617
▁envio	-10.8617
▁beira	-10.8617
▁100%	-10.8618
▁Alemã	-10.8619
▁Carol	-10.8619
constitucional	-10.8619
▁Maicon	-10.8619
prime	-10.862
produ	-10.862
▁Produtor	-10.8621
▁cassa	-10.8621
▁cerco	-10.8622
▁costas	-10.8622
▁pressa	-10.8623
▁2004	-10.8623
▁Elias	-10.8624
▁vereadores	-10.8625
ticamente	-10.8626
▁reprova	-10.8626
▁agrada	-10.8627
▁tenha	-10.8627
▁25%	-10.863
▁abala	-10.8631
▁Costa	-10.8632
SN	-10.8632
▁comuni	-10.8634
fec	-10.8634
▁Haram	-10.8635
▁cansa	-10.8636
▁sanção	-10.8636
▁Cine	-10.8636
▁kg	-10.864
▁ganhou	-10.8641
▁DF	-10.8641
▁estações	-10.8644
▁começou	-10.8645
susto	-10.8653
▁delatores	-10.8655
▁gerações	-10.8656
leber	-10.8657
caba	-10.8658
▁Carne	-10.8659
▁canção	-10.8661
▁pratic	-10.8661
▁novamente	-10.8668
▁compartilhado	-10.867
oldado	-10.8675
▁Soni	-10.8678
▁Start	-10.8682
▁Regi	-10.8683
▁críticos	-10.8691
organ	-10.8691
▁natal	-10.8692
▁Wars	-10.8695
▁excesso	-10.8696
Garot	-10.871
▁errou	-10.8719
▁muro	-10.8723
trono	-10.8725
▁inauguração	-10.873
▁cantora	-10.8736
escla	-10.8739
▁Loca	-10.8745
▁lição	-10.875
▁2,2	-10.8761
▁Ger	-10.8761
▁Delegado	-10.8781
inventa	-10.8785
Rua	-10.8793
ificado	-10.8804
▁vou	-10.8813
▁agredido	-10.8819
oronel	-10.8825
▁humana	-10.8826
Cola	-10.8826
▁Tele	-10.8829
popular	-10.8831
ligados	-10.8871
▁cortado	-10.8872
▁encontrada	-10.8879
▁informal	-10.8926
▁Justi	-10.8932
▁lançado	-10.8959
▁revive	-10.8976
▁liberada	-10.9013
táveis	-10.9047
▁barrado	-10.9059
▁Lou	-10.9084
▁derrotado	-10.91
▁Tho	-10.9123
▁choc	-10.9156
▁roubado	-10.9156
▁Som	-10.9159
▁acelera	-10.9204
▁58	-10.9211
tiza	-10.9232
77	-10.9237
▁pote	-10.9242
cupações	-10.9244
▁Miss	-10.925
▁Mour	-10.9251
scrição	-10.9252
▁Muit	-10.9252
▁Maj	-10.9259
edes	-10.9264
embro	-10.9268
▁limpa	-10.9304
▁Nove	-10.9311
íni	-10.9342
ella	-10.9372
▁descont	-10.9424
▁tarifa	-10.9432
▁minuto	-10.944
▁aluno	-10.9444
▁organizado	-10.9465
▁Médico	-10.9468
▁detido	-10.9471
▁direto	-10.949
▁34	-10.9498
mail	-10.9504
▁caus	-10.9508
▁confirmado	-10.9547
▁aprende	-10.9558
scritório	-10.9567
acredit	-10.958
▁camp	-10.9595
78	-10.9601
▁Hond	-10.9631
stões	-10.9637
ick	-10.9638
▁armado	-10.9646
▁Robert	-10.9649
ística	-10.9651
funcionário	-10.9658
▁1,1	-10.9661
▁Centra	-10.9695
ativista	-10.9703
▁consultor	-10.9705
questra	-10.9706
▁Promotor	-10.9708
▁canto	-10.971
ntegra	-10.971
▁ideal	-10.9713
quecimento	-10.9713
▁privat	-10.9713
erimônia	-10.9713
▁74	-10.9715
▁Medal	-10.9715
órum	-10.9715
significa	-10.9716
▁Ameaça	-10.9716
▁Deficit	-10.9716
▁insufici	-10.9716
▁reencontra	-10.9716
Against	-10.9716
George	-10.9716
Negócio	-10.9716
Stairway	-10.9716
conhecimento	-10.9716
conselheiro	-10.9716
instrument	-10.9716
marginal	-10.9716
nônimo	-10.9716
▁14,25%	-10.9716
▁Ativista	-10.9716
▁Attack	-10.9716
▁Bangladesh	-10.9716
▁Bruxelas	-10.9716
▁CPFL	-10.9716
▁Cavaliers	-10.9716
▁Chicago	-10.9716
▁Cingapura	-10.9716
▁Correios	-10.9716
▁Croácia	-10.9716
▁Crítico	-10.9716
▁Dorival	-10.9716
▁Elizabeth	-10.9716
▁Engenhão	-10.9716
▁Escritor	-10.9716
▁Fabricante	-10.9716
▁Favorito	-10.9716
▁Fortaleza	-10.9716
▁Goldfajn	-10.9716
▁Horizonte	-10.9716
▁Inglês	-10.9716
▁Isinbaieva	-10.9716
▁Joesley	-10.9716
▁Mercury	-10.9716
▁PSOL	-10.9716
▁Paralímpico	-10.9716
▁Pernambuco	-10.9716
▁Planejamento	-10.9716
▁Plebiscito	-10.9716
▁Político	-10.9716
▁Segredo	-10.9716
▁Sindicato	-10.9716
▁Snapchat	-10.9716
▁Suprema	-10.9716
▁Swimmer	-10.9716
▁Temperatura	-10.9716
▁Washington	-10.9716
▁Wimbledon	-10.9716
▁aconselha	-10.9716
▁açúcar	-10.9716
▁bilheteria	-10.9716
▁brinquedos	-10.9716
▁cachaça	-10.9716
▁chikungunya	-10.9716
▁contêiner	-10.9716
▁cruza	-10.9716
▁democrático	-10.9716
▁divergência	-10.9716
▁eficiente	-10.9716
▁explode	-10.9716
▁expulsão	-10.9716
▁filósof	-10.9716
▁garrafa	-10.9716
▁grife	-10.9716
▁inscrever	-10.9716
▁janeiro	-10.9716
▁juíza	-10.9716
▁mensagens	-10.9716
▁músico	-10.9716
▁relembra	-10.9716
▁repudia	-10.9716
▁saneamento	-10.9716
▁tradicionais	-10.9716
▁ultrapassa	-10.9716
▁zagueiro	-10.9716
retrocesso	-10.9716
▁Arquivo	-10.9716
▁DEM	-10.9716
▁Estilista	-10.9716
▁Jazz	-10.9716
▁Montadora	-10.9716
▁Sonho	-10.9716
▁Suécia	-10.9716
▁Taxa	-10.9716
▁automático	-10.9716
▁carteira	-10.9716
▁demitido	-10.9716
▁expande	-10.9716
▁moderna	-10.9716
▁repensa	-10.9716
Atirador	-10.9716
truque	-10.9716
▁Chinesa	-10.9716
▁Suspens	-10.9716
▁estadual	-10.9716
▁infecção	-10.9716
▁mínimo	-10.9716
degustação	-10.9716
▁Belmiro	-10.9716
▁PUC	-10.9716
▁Promessa	-10.9716
▁demonstra	-10.9716
▁infância	-10.9716
▁repelente	-10.9716
▁transtorno	-10.9716
ilionário	-10.9716
▁Comédia	-10.9716
▁Esquema	-10.9716
▁OMS	-10.9716
▁complement	-10.9716
▁crônica	-10.9716
ji	-10.9716
▁drones	-10.9716
tivesse	-10.9716
▁Ciclo	-10.9716
▁IOC	-10.9716
▁Tunga	-10.9716
▁Destaque	-10.9716
▁Estrela	-10.9716
Simples	-10.9716
crack	-10.9716
ideologia	-10.9716
▁Campeão	-10.9716
▁distante	-10.9716
relaxa	-10.9716
▁Jaguar	-10.9716
▁Simone	-10.9716
▁Explos	-10.9716
▁Maluf	-10.9716
▁Pezão	-10.9716
▁direta	-10.9716
▁seletiva	-10.9716
▁Trek	-10.9716
▁Lady	-10.9716
▁Padre	-10.9716
▁Selic	-10.9716
ímica	-10.9716
Café	-10.9716
ossível	-10.9716
léri	-10.9717
▁Government	-10.9717
▁frequent	-10.9717
Mauá	-10.9717
▁polariza	-10.9717
▁comportamento	-10.9717
▁restringe	-10.9717
▁compromisso	-10.9717
▁acervo	-10.9717
▁Poeta	-10.9717
play	-10.9717
▁síria	-10.9717
▁bilionário	-10.9717
▁combina	-10.9717
▁Boulevard	-10.9717
▁varanda	-10.9717
▁Passageiro	-10.9717
▁aderir	-10.9717
▁adesão	-10.9717
▁Forma	-10.9718
▁Santander	-10.9718
▁Suzan	-10.9718
▁Cervejaria	-10.9718
solve	-10.9718
africano	-10.9718
▁soldados	-10.9718
▁Sucesso	-10.9718
▁limpo	-10.9718
▁empresta	-10.9718
prima	-10.9718
▁ABC	-10.9718
▁arrast	-10.9718
▁ferida	-10.9719
oluição	-10.9719
▁Paulinho	-10.9719
sustentabilidade	-10.9719
▁pedaladas	-10.9719
▁credores	-10.9719
▁quinto	-10.9719
bispo	-10.972
▁intima	-10.972
iclista	-10.972
▁apaixonado	-10.972
▁Erro	-10.9721
Agenda	-10.9722
ônia	-10.9722
▁198	-10.9722
ordices	-10.9723
▁padrão	-10.9723
▁vício	-10.9724
rola	-10.9724
▁Teste	-10.9724
▁rosto	-10.9724
▁Galvão	-10.9725
▁designer	-10.9725
▁Bibi	-10.9725
▁800	-10.9726
▁atrito	-10.9726
▁Guns	-10.9726
▁pessoais	-10.9728
▁Varejão	-10.9728
▁indiciamento	-10.9728
▁Alex	-10.9729
▁Guga	-10.973
▁Nicol	-10.973
▁perseguição	-10.973
▁vibra	-10.973
▁familiares	-10.9732
▁convidados	-10.9733
▁Rocha	-10.9733
▁Massa	-10.9733
ustria	-10.9734
▁tomba	-10.9734
▁aposentados	-10.9735
▁governadores	-10.9735
▁ingres	-10.9736
▁cotidiano	-10.9737
▁diplomata	-10.9738
▁44	-10.974
▁Convenç	-10.974
▁Apoi	-10.974
habe	-10.9742
▁desaba	-10.9744
▁trabalhador	-10.9744
▁TJ	-10.9745
▁varia	-10.975
Flor	-10.9751
▁estuprada	-10.9755
▁radar	-10.9756
▁Get	-10.976
▁fue	-10.976
ogra	-10.9761
▁Trabalhador	-10.9762
▁lenta	-10.9766
▁bateria	-10.9773
▁Volu	-10.9773
▁Ilha	-10.9781
▁entrave	-10.9782
▁Compet	-10.9785
▁Fáb	-10.9788
▁previsto	-10.979
▁tropa	-10.9794
baixo	-10.9794
box	-10.98
▁Miran	-10.9802
▁MC	-10.9804
▁cheia	-10.9806
▁diretoria	-10.9807
▁Prova	-10.9809
▁inspiração	-10.981
▁incomoda	-10.9813
▁voar	-10.9825
Angr	-10.9826
nterior	-10.9826
ilhete	-10.9835
▁reais	-10.9842
▁acompanha	-10.9847
iko	-10.9856
mann	-10.9862
vamos	-10.987
campeão	-10.9876
eatro	-10.9882
▁coleta	-10.9884
▁salta	-10.9888
▁Leandr	-10.9908
oft	-10.9913
New	-10.9922
▁1,4	-10.9934
senador	-10.9934
cabeça	-10.9958
prefeito	-10.9961
guin	-10.9967
construção	-10.997
muito	-10.9982
▁199	-10.9984
candidato	-10.9996
itch	-11.0002
▁Ayr	-11.0004
▁divers	-11.0018
▁votada	-11.0059
off	-11.0064
▁Band	-11.007
▁inspirada	-11.0073
▁gin	-11.0081
▁Audi	-11.0089
▁adaptado	-11.0099
formar	-11.0103
cept	-11.011
Mini	-11.0126
sraelense	-11.0135
▁Dado	-11.0176
mple	-11.0177
transformação	-11.0218
▁desocupa	-11.0221
dé	-11.0241
▁aprend	-11.0258
Bla	-11.0286
▁Agente	-11.031
▁criminosa	-11.0328
mania	-11.0382
ville	-11.0415
▁mel	-11.043
Todo	-11.0458
▁repeti	-11.0466
▁Goleir	-11.0513
▁derrub	-11.0557
rejo	-11.0564
▁autoriz	-11.0581
levará	-11.0615
itta	-11.0624
▁cura	-11.0644
▁venezuelano	-11.0685
▁idoso	-11.0693
▁turista	-11.0694
▁ferido	-11.0696
▁colega	-11.0703
tiram	-11.0713
▁estudante	-11.0732
▁assisti	-11.0766
▁dirige	-11.078
lberg	-11.0783
stádio	-11.079
▁dupl	-11.0806
andro	-11.082
▁corredor	-11.0821
▁Rafael	-11.0865
▁92	-11.0881
Criança	-11.0908
▁propor	-11.0916
▁blind	-11.0928
▁Tel	-11.0941
▁infla	-11.0941
▁1,8	-11.0945
elembre	-11.0946
nvolvida	-11.0947
▁torno	-11.0947
▁engano	-11.0952
▁Terror	-11.0952
▁rejei	-11.0954
residência	-11.0955
▁restaura	-11.0959
ráfico	-11.0961
proxim	-11.0962
rofissionais	-11.0963
▁desemp	-11.0963
inanciamento	-11.0964
gêne	-11.0965
otéis	-11.0966
▁Constru	-11.0966
quinho	-11.0966
▁alegria	-11.0966
▁bagunça	-11.0966
▁necessária	-11.0966
Broadway	-11.0966
Eletronuclear	-11.0966
World	-11.0966
inimigo	-11.0966
sustentáveis	-11.0966
utomóvel	-11.0966
voluntário	-11.0966
▁Agricultura	-11.0966
▁Análise	-11.0966
▁Araújo	-11.0966
▁Cantareira	-11.0966
▁Catarina	-11.0966
▁Cavendish	-11.0966
▁Colombiano	-11.0966
▁Confronto	-11.0966
▁Corrêa	-11.0966
▁Crítica	-11.0966
▁Deputada	-11.0966
▁Executivo	-11.0966
▁FGV	-11.0966
▁Funarte	-11.0966
▁Hitler	-11.0966
▁Inspirado	-11.0966
▁Ipanema	-11.0966
▁Jundiaí	-11.0966
▁McCartney	-11.0966
▁Palocci	-11.0966
▁Pampulha	-11.0966
▁Paralympic	-11.0966
▁Pedalada	-11.0966
▁Perdizes	-11.0966
▁Pivô	-11.0966
▁Principal	-11.0966
▁Profissional	-11.0966
▁Pulitzer	-11.0966
▁SPFW	-11.0966
▁Ticket	-11.0966
▁Ucrânia	-11.0966
▁Universitário	-11.0966
▁Vôlei	-11.0966
▁ansiedade	-11.0966
▁atribui	-11.0966
▁bilionária	-11.0966
▁clássica	-11.0966
▁clínica	-11.0966
▁coleciona	-11.0966
▁congresso	-11.0966
▁critério	-11.0966
▁desfalca	-11.0966
▁economizar	-11.0966
▁evidencia	-11.0966
▁filipino	-11.0966
▁finanças	-11.0966
▁franceses	-11.0966
▁fôlego	-11.0966
▁gastronômica	-11.0966
▁gastronômico	-11.0966
▁historiador	-11.0966
▁homenagead	-11.0966
▁ilumina	-11.0966
▁instituto	-11.0966
▁japoneses	-11.0966
▁juventude	-11.0966
▁matemática	-11.0966
▁mexicano	-11.0966
▁minimalista	-11.0966
▁moderniza	-11.0966
▁nostalgia	-11.0966
▁oficiais	-11.0966
▁palhaço	-11.0966
▁pedofilia	-11.0966
▁plástica	-11.0966
▁plástico	-11.0966
▁portuguesa	-11.0966
▁pronunciamento	-11.0966
▁publicitário	-11.0966
▁radicais	-11.0966
▁religiosa	-11.0966
▁sospechoso	-11.0966
▁utilitário	-11.0966
▁álcool	-11.0966
Ilustrad	-11.0966
feijão	-11.0966
lobby	-11.0966
ômetro	-11.0966
▁Deodoro	-11.0966
▁Leonardo	-11.0966
▁alavanca	-11.0966
▁assunto	-11.0966
▁desconfiança	-11.0966
Ensaio	-11.0966
▁Fachin	-11.0966
▁frauda	-11.0966
▁MIS	-11.0966
▁conceito	-11.0966
▁diesel	-11.0966
▁machismo	-11.0966
Diretas	-11.0966
▁naturaliza	-11.0966
decifra	-11.0966
óloga	-11.0966
▁Construtora	-11.0966
▁conexão	-11.0966
▁encanta	-11.0966
▁Berlim	-11.0966
▁Porchat	-11.0966
▁Publicitári	-11.0966
▁desgaste	-11.0966
▁esbarra	-11.0966
▁janela	-11.0966
▁minério	-11.0966
▁ordena	-11.0966
▁resistir	-11.0966
▁seminário	-11.0966
gringo	-11.0966
▁Capez	-11.0966
ulgamento	-11.0966
▁Temporada	-11.0966
▁Roteiro	-11.0966
▁padaria	-11.0966
▁sapato	-11.0966
▁Cenário	-11.0966
▁invenci	-11.0966
▁Longa	-11.0966
▁alcald	-11.0966
▁Cartola	-11.0966
▁emplaca	-11.0966
▁Mauric	-11.0966
▁anual	-11.0966
▁caipira	-11.0966
▁Vencedor	-11.0966
▁abraça	-11.0966
▁inteiro	-11.0966
▁regulamenta	-11.0966
salvou	-11.0966
omércio	-11.0966
▁Briga	-11.0966
▁dedicado	-11.0966
▁skate	-11.0966
Galeria	-11.0966
▁desvenda	-11.0966
▁ressaca	-11.0966
▁Atriz	-11.0967
roféu	-11.0967
▁Praz	-11.0967
▁magn	-11.0967
▁Play	-11.0967
▁abrigo	-11.0967
▁objetivo	-11.0967
▁supermercado	-11.0967
▁Weekend	-11.0967
▁Teresa	-11.0967
▁contradiz	-11.0967
▁seleções	-11.0967
▁algumas	-11.0967
▁turbina	-11.0967
▁Opep	-11.0967
fecho	-11.0967
▁saudita	-11.0967
▁Sexo	-11.0967
▁habit	-11.0967
▁versões	-11.0967
visibilidade	-11.0967
grita	-11.0967
aratona	-11.0967
▁Ceni	-11.0967
▁xinga	-11.0968
Black	-11.0968
▁varejo	-11.0968
▁instituições	-11.0968
▁Trein	-11.0968
▁cultiv	-11.0968
concili	-11.0968
▁Cotado	-11.0968
▁extens	-11.0968
▁tratado	-11.0968
▁domínio	-11.0968
▁Francesa	-11.0968
▁semifinais	-11.0968
▁possibilidade	-11.0968
▁emergentes	-11.0968
▁Latam	-11.0968
adrões	-11.0968
▁deserto	-11.0969
▁calcula	-11.0969
▁creche	-11.0969
▁Village	-11.0969
privatizar	-11.0969
▁reabri	-11.0969
▁pesca	-11.097
▁brecha	-11.097
▁quadrinhos	-11.097
saudável	-11.097
▁brilho	-11.097
▁Príncipe	-11.097
▁produzido	-11.097
▁rural	-11.097
▁aliada	-11.0971
▁Belém	-11.0971
▁consol	-11.0971
▁sorteio	-11.0971
▁Alison	-11.0971
▁detalha	-11.0971
▁breve	-11.0971
▁Biles	-11.0972
▁humanidade	-11.0972
▁Beach	-11.0972
onfiança	-11.0972
▁Shel	-11.0972
▁levantamento	-11.0973
▁traça	-11.0973
▁fuga	-11.0974
Charl	-11.0974
▁STJD	-11.0975
ditador	-11.0975
▁Ponto	-11.0975
▁diversifica	-11.0976
▁nomeações	-11.0976
▁motiva	-11.0976
▁Mayor	-11.0976
▁recib	-11.0977
ianista	-11.0977
lidar	-11.0977
▁arquivamento	-11.0978
▁consultoria	-11.0979
rmínio	-11.0979
▁independência	-11.0982
▁utiliza	-11.0982
▁ouvido	-11.0982
▁87	-11.0982
▁ficha	-11.0984
▁Hip	-11.0985
▁1.000	-11.0985
▁Nory	-11.0985
▁2009	-11.0986
▁saque	-11.0986
ferta	-11.0986
▁apelo	-11.0986
▁Ivan	-11.0987
perfeito	-11.099
▁oitav	-11.099
▁Pires	-11.0991
▁altura	-11.0991
▁fabricante	-11.0991
▁cabelo	-11.0993
▁Povo	-11.0994
▁Grava	-11.0994
▁recei	-11.0994
▁Marinha	-11.0995
▁estende	-11.0997
▁83	-11.0998
chanceler	-11.0999
▁Lobão	-11.1
▁sopa	-11.1001
▁acirrada	-11.1001
▁Pré	-11.1004
▁Orient	-11.1005
▁64	-11.1007
renal	-11.1007
▁Ilan	-11.1007
▁baseada	-11.1008
▁Está	-11.1009
▁Verde	-11.1012
▁rampa	-11.1016
▁marcantes	-11.1017
Gord	-11.1017
▁ouvir	-11.1018
▁cri	-11.1023
▁executa	-11.1023
ótica	-11.1025
▁Paz	-11.1026
paciência	-11.1027
▁superavi	-11.1027
▁pint	-11.1028
▁duro	-11.1031
▁Theatr	-11.1034
▁charm	-11.1036
▁Ney	-11.1036
▁perna	-11.104
complicada	-11.1057
▁Seul	-11.1058
▁sobrevivente	-11.106
▁Juro	-11.1067
ilhares	-11.1069
▁maneira	-11.1075
▁Laur	-11.1081
▁Vet	-11.1086
informação	-11.1086
▁pesado	-11.1089
▁Lista	-11.1099
equipa	-11.11
▁Shi	-11.1102
▁jato	-11.1102
Quero	-11.1106
papo	-11.1107
▁belo	-11.1108
gelo	-11.112
▁pato	-11.1139
▁Kah	-11.117
▁foca	-11.1171
▁doméstico	-11.1201
▁audi	-11.1244
descobrem	-11.1251
exclusiva	-11.1329
▁Gab	-11.136
▁Fonte	-11.1389
▁assum	-11.1403
psi	-11.1406
Gim	-11.1409
nô	-11.1414
conjunt	-11.1428
▁cotado	-11.1467
Alta	-11.1532
unho	-11.1538
leito	-11.1561
positivo	-11.1604
Dois	-11.1606
usadas	-11.1615
tiveram	-11.1621
idt	-11.1621
propaganda	-11.1628
Mulher	-11.1629
tudo	-11.1638
preço	-11.1642
100	-11.1653
guerra	-11.1655
volta	-11.166
pagar	-11.1665
▁Bach	-11.1665
Cunha	-11.1669
arry	-11.1739
▁evangélico	-11.1791
cobrir	-11.1794
visões	-11.1821
mercado	-11.1831
batem	-11.1841
preta	-11.1841
Tit	-11.1857
▁escreve	-11.1868
AL	-11.1878
▁cumpri	-11.1911
way	-11.1916
▁recicla	-11.1925
eliminar	-11.1993
▁Protest	-11.2006
dutor	-11.201
▁Eleit	-11.2015
▁ignor	-11.2079
federações	-11.2111
▁paciente	-11.2114
▁frase	-11.2115
▁usuário	-11.2116
▁analista	-11.2119
▁republicano	-11.2121
▁desaparece	-11.2133
▁Delega	-11.2147
igno	-11.2156
Viva	-11.2157
▁Kat	-11.2187
▁Red	-11.219
abafar	-11.2228
▁2,8	-11.2239
▁Ministr	-11.2247
juste	-11.2268
preende	-11.2269
▁migra	-11.2282
venida	-11.2288
1,7	-11.2288
Procura	-11.2296
abertura	-11.2322
America	-11.2327
ustentável	-11.2335
▁Brun	-11.2339
▁execu	-11.2342
▁President	-11.2359
trás	-11.2361
enúncia	-11.2367
▁repatria	-11.2369
▁familiar	-11.2375
esultado	-11.2375
▁explos	-11.2377
limpíada	-11.2381
etróleo	-11.2391
▁PSD	-11.2393
▁Public	-11.2395
▁desvaloriza	-11.2395
Pompeia	-11.2395
Problema	-11.2395
campamento	-11.2395
competência	-11.2395
difíceis	-11.2395
disciplina	-11.2395
extraordinária	-11.2395
fluxo	-11.2395
nunciou	-11.2395
relógio	-11.2395
scravidão	-11.2395
ágrimas	-11.2395
▁Adversário	-11.2395
▁Alecsandro	-11.2395
▁Anastasia	-11.2395
▁Android	-11.2395
▁Argello	-11.2395
▁Argentino	-11.2395
▁Arnaldo	-11.2395
▁Biblioteca	-11.2395
▁Britto	-11.2395
▁Butantã	-11.2395
▁Cachoeira	-11.2395
▁Chevrolet	-11.2395
▁Editora	-11.2395
▁Espanhol	-11.2395
▁Guantánamo	-11.2395
▁Iêmen	-11.2395
▁Leopoldina	-11.2395
▁Nicarágua	-11.2395
▁OCDE	-11.2395
▁Pasadena	-11.2395
▁Pinacoteca	-11.2395
▁Sabesp	-11.2395
▁Samsung	-11.2395
▁Sharapova	-11.2395
▁Somália	-11.2395
▁Street	-11.2395
▁Superliga	-11.2395
▁Tailândia	-11.2395
▁Taiwan	-11.2395
▁Tapajós	-11.2395
▁Tiradentes	-11.2395
▁Vaticano	-11.2395
▁agricultura	-11.2395
▁amanhã	-11.2395
▁australiano	-11.2395
▁automóveis	-11.2395
▁biblioteca	-11.2395
▁bombardeio	-11.2395
▁básico	-11.2395
▁caminhões	-11.2395
▁centenas	-11.2395
▁centenári	-11.2395
▁cocaína	-11.2395
▁combustíveis	-11.2395
▁compromete	-11.2395
▁contemporânea	-11.2395
▁contemporâneo	-11.2395
▁corrupto	-11.2395
▁cosméticos	-11.2395
▁currículo	-11.2395
▁desbanca	-11.2395
▁descoberta	-11.2395
▁diplomático	-11.2395
▁eficácia	-11.2395
▁endereço	-11.2395
▁excedente	-11.2395
▁frágil	-11.2395
▁homologa	-11.2395
▁húngara	-11.2395
▁imagina	-11.2395
▁imediata	-11.2395
▁independente	-11.2395
▁junina	-11.2395
▁menciona	-11.2395
▁operadoras	-11.2395
▁papéis	-11.2395
▁perspectiva	-11.2395
▁policía	-11.2395
▁primavera	-11.2395
▁privacidade	-11.2395
▁privatizações	-11.2395
▁projeções	-11.2395
▁quadrilha	-11.2395
▁rebaixamento	-11.2395
▁reestruturação	-11.2395
▁refrigerante	-11.2395
▁regionais	-11.2395
▁repressão	-11.2395
▁retrospectiva	-11.2395
▁seguridad	-11.2395
▁smartphone	-11.2395
▁tablets	-11.2395
▁tolerância	-11.2395
▁toneladas	-11.2395
▁transexual	-11.2395
▁turística	-11.2395
▁túnel	-11.2395
▁voltou	-11.2395
Estupro	-11.2395
gourmet	-11.2395
orgulho	-11.2395
vidências	-11.2395
▁1950	-11.2395
▁2019	-11.2395
▁Autódromo	-11.2395
▁Chalita	-11.2395
▁Diferente	-11.2395
▁HIV	-11.2395
▁Namorados	-11.2395
▁Parlamentar	-11.2395
▁Participa	-11.2395
▁Saraiva	-11.2395
▁VLT	-11.2395
▁Wilson	-11.2395
▁Young	-11.2395
▁cubana	-11.2395
▁cumpre	-11.2395
▁desmatamento	-11.2395
▁mágica	-11.2395
▁origens	-11.2395
▁petroleir	-11.2395
▁remunera	-11.2395
▁revanche	-11.2395
▁2010	-11.2395
▁Corregedor	-11.2395
▁Lançamento	-11.2395
▁Médio	-11.2395
▁Receive	-11.2395
▁escravo	-11.2395
▁iraniano	-11.2395
▁solidão	-11.2395
▁triplica	-11.2395
▁Funaro	-11.2395
▁Macron	-11.2395
▁mistério	-11.2395
▁razões	-11.2395
▁simpati	-11.2395
▁sítio	-11.2395
▁turma	-11.2395
▁Dirigente	-11.2395
▁Inverno	-11.2395
▁Pioneiro	-11.2395
▁agressiv	-11.2395
▁equivale	-11.2395
▁persiste	-11.2395
▁vizinha	-11.2395
▁Miguel	-11.2395
▁PSG	-11.2395
▁TCE	-11.2395
▁corpus	-11.2395
▁estátua	-11.2395
▁terapia	-11.2395
▁utopia	-11.2395
frango	-11.2395
▁Seguro	-11.2395
▁conforto	-11.2395
▁regiões	-11.2395
▁selfie	-11.2395
▁áudio	-11.2395
370	-11.2395
Mídia	-11.2395
▁Martine	-11.2395
▁frutas	-11.2395
▁Group	-11.2395
▁xeque	-11.2395
Derrota	-11.2395
▁buraco	-11.2395
▁inglesa	-11.2395
▁comentário	-11.2395
▁conserta	-11.2395
▁padre	-11.2395
culpado	-11.2395
▁Coelho	-11.2395
▁CEO	-11.2395
▁Preven	-11.2395
▁boneco	-11.2395
▁Europeu	-11.2395
▁superior	-11.2395
▁Volks	-11.2395
▁leilões	-11.2395
Down	-11.2395
islã	-11.2395
Livre	-11.2395
▁Chinese	-11.2395
▁Cabul	-11.2395
▁empresarial	-11.2395
▁reitera	-11.2395
▁cartola	-11.2395
coreana	-11.2395
▁Bauru	-11.2395
▁Galeão	-11.2395
▁Retiro	-11.2395
▁modifica	-11.2395
▁Veloso	-11.2395
▁Bronze	-11.2395
▁famosa	-11.2395
Gregor	-11.2395
▁embarca	-11.2395
▁Suicid	-11.2395
▁empurr	-11.2395
▁extremo	-11.2395
erberg	-11.2395
▁prazer	-11.2395
▁ópera	-11.2395
implanta	-11.2395
▁confunde	-11.2395
▁empolga	-11.2395
▁podre	-11.2395
▁flexível	-11.2395
promoção	-11.2395
▁resume	-11.2395
▁Gestor	-11.2395
▁falou	-11.2395
▁contamina	-11.2395
▁sugeri	-11.2395
aparelh	-11.2395
▁Azul	-11.2395
covard	-11.2395
▁ampla	-11.2395
▁entrou	-11.2395
▁Sony	-11.2395
▁circo	-11.2395
▁sequestrado	-11.2395
▁Russa	-11.2395
▁esclarec	-11.2395
qualifica	-11.2395
▁burocracia	-11.2395
▁firme	-11.2395
▁nazismo	-11.2395
▁fraca	-11.2396
ltima	-11.2396
▁fuzi	-11.2396
▁queijo	-11.2396
▁Reuni	-11.2396
▁amargo	-11.2396
▁exceção	-11.2396
▁conservadorismo	-11.2396
▁pretens	-11.2396
▁impossível	-11.2396
ônico	-11.2396
▁curto	-11.2396
▁Vento	-11.2396
▁punido	-11.2396
▁resolver	-11.2396
▁Hope	-11.2396
▁Prévia	-11.2397
▁Longe	-11.2397
▁Fiji	-11.2397
▁gafe	-11.2397
uditoria	-11.2397
▁Aposentadoria	-11.2397
▁desejo	-11.2397
▁Step	-11.2397
▁Imagens	-11.2397
▁estampa	-11.2397
▁Torch	-11.2398
▁desenha	-11.2398
▁obrigatório	-11.2398
▁omite	-11.2398
▁violenta	-11.2398
▁Johnson	-11.2398
▁CNI	-11.2398
▁seringa	-11.2399
▁NBB	-11.2399
▁aciona	-11.2399
▁Light	-11.2399
▁1990	-11.2399
▁Kong	-11.2399
▁Panamá	-11.2399
▁coletiva	-11.24
▁banal	-11.24
edágio	-11.24
▁Analista	-11.24
▁Hort	-11.24
▁Osesp	-11.24
▁sustenta	-11.24
▁desabamento	-11.2401
▁Lenk	-11.2401
▁MPB	-11.2401
▁aviação	-11.2401
▁assim	-11.2401
▁luto	-11.2401
▁evoca	-11.2401
▁pintor	-11.2401
▁coragem	-11.2402
▁incita	-11.2402
▁roedor	-11.2402
▁biografia	-11.2402
▁laudo	-11.2402
▁favorita	-11.2403
▁montanha	-11.2403
▁sombra	-11.2403
▁Integra	-11.2403
▁Brás	-11.2403
▁mexe	-11.2403
▁sinto	-11.2403
▁Mônica	-11.2403
▁baiano	-11.2403
▁conservadores	-11.2403
-12	-11.2404
branda	-11.2404
▁iniciativa	-11.2405
NYT	-11.2405
gênio	-11.2405
▁leiloa	-11.2405
▁competições	-11.2406
▁reavalia	-11.2407
surge	-11.2407
▁chut	-11.2408
▁restrições	-11.2408
▁Posse	-11.2408
▁3.000	-11.2408
▁isenta	-11.241
▁Water	-11.241
▁treinamento	-11.241
▁agita	-11.2411
▁tempero	-11.2413
▁Vicente	-11.2414
▁Waldi	-11.2414
boom	-11.2415
▁contramão	-11.2415
▁intervenç	-11.2415
▁Fred	-11.2415
▁Bayern	-11.2415
▁250	-11.2415
illion	-11.2416
▁Enche	-11.2417
éticos	-11.2417
▁Jô	-11.2417
▁fast	-11.2418
▁pronta	-11.2418
▁Richa	-11.2419
▁2005	-11.2419
Espaço	-11.242
▁negativa	-11.242
acena	-11.242
▁best	-11.242
Bron	-11.242
Lobos	-11.2421
anking	-11.2421
▁lavar	-11.2421
▁89	-11.2423
▁revend	-11.2424
▁fique	-11.2424
Gusta	-11.2425
▁Palm	-11.2426
▁votações	-11.2427
milagre	-11.2427
▁Fox	-11.2427
▁galinha	-11.2427
iolência	-11.243
nternet	-11.2433
▁incerto	-11.2433
▁Max	-11.2438
▁indefiniç	-11.244
udô	-11.2443
▁Tour	-11.2445
Big	-11.2447
ector	-11.2448
util	-11.2449
icitações	-11.2451
Quan	-11.2452
aviso	-11.2453
▁desaparecido	-11.2454
Capitão	-11.2458
▁punir	-11.2458
▁pano	-11.246
▁torcedor	-11.2472
▁Paol	-11.2485
ótipo	-11.2486
▁Distri	-11.2491
▁adere	-11.2494
ovic	-11.2505
ênio	-11.2508
▁Volta	-11.2514
▁Kob	-11.2515
selle	-11.2527
abá	-11.2531
pedida	-11.2575
▁curador	-11.2601
Tomb	-11.2618
▁Hom	-11.2645
tenista	-11.2687
▁gira	-11.2717
▁reinven	-11.2728
▁ousa	-11.2748
▁dividid	-11.2763
▁Rub	-11.2786
▁atualiza	-11.2831
▁extradi	-11.2832
detento	-11.2857
▁barrac	-11.2871
omance	-11.2874
▁hav	-11.2876
98	-11.2881
Marte	-11.2889
▁surt	-11.2989
mbros	-11.3005
pression	-11.3007
Chor	-11.3017
avier	-11.3041
▁descobri	-11.3045
head	-11.3046
integrante	-11.3116
▁Organizador	-11.3153
nquist	-11.3162
aceleração	-11.325
Crime	-11.3272
Terrorism	-11.3317
▁Filh	-11.3372
▁inspir	-11.3576
assessor	-11.3617
jogador	-11.3632
direito	-11.3635
▁transform	-11.364
ajuda	-11.3647
economia	-11.3669
Jogos	-11.367
à	-11.3673
▁defensor	-11.3683
▁descobre	-11.3686
Z	-11.3706
domésticos	-11.3751
▁pênalti	-11.3781
▁despesa	-11.3783
▁desculpa	-11.3785
▁pequeno	-11.3785
▁droga	-11.3787
▁refugiado	-11.3789
assinado	-11.3883
▁grama	-11.3899
mbaixador	-11.3914
stabilidade	-11.393
luguel	-11.3932
piadas	-11.3962
▁Led	-11.3964
▁Manifesta	-11.3972
Kit	-11.3986
▁Impac	-11.399
▁Capit	-11.3993
licita	-11.4006
governado	-11.4023
▁manifesta	-11.4025
▁circula	-11.4035
▁mensal	-11.4044
▁investidor	-11.4048
▁Varej	-11.4048
rópria	-11.4058
▁France	-11.4059
axistas	-11.4059
ondenado	-11.4059
mprensa	-11.406
ênis	-11.406
▁desigual	-11.406
▁Week	-11.4061
unição	-11.4061
cídio	-11.4061
ódromo	-11.4061
▁bêbado	-11.4061
▁constrangi	-11.4061
▁plural	-11.4061
-2008	-11.4061
.500	-11.4061
Holocausto	-11.4061
Macbeth	-11.4061
Playboy	-11.4061
Sustentabilidade	-11.4061
Vaccari	-11.4061
Voluntário	-11.4061
bondades	-11.4061
ctual	-11.4061
eviravolta	-11.4061
gnóstico	-11.4061
grafite	-11.4061
grícola	-11.4061
institucional	-11.4061
preensão	-11.4061
tesoureiro	-11.4061
trégua	-11.4061
▁Acrônimo	-11.4061
▁Advogada	-11.4061
▁Afeganistão	-11.4061
▁Aloysio	-11.4061
▁Amigos	-11.4061
▁Anfavea	-11.4061
▁Aquático	-11.4061
▁Britânico	-11.4061
▁Bryant	-11.4061
▁CPMF	-11.4061
▁Caminhão	-11.4061
▁Capanema	-11.4061
▁Catalunha	-11.4061
▁Clarice	-11.4061
▁Constituinte	-11.4061
▁Coritiba	-11.4061
▁Dinamarca	-11.4061
▁Escobar	-11.4061
▁Fagundes	-11.4061
▁Fallujah	-11.4061
▁Figueirense	-11.4061
▁Finish	-11.4061
▁Franquia	-11.4061
▁Fujimori	-11.4061
▁Gaspari	-11.4061
▁Hollande	-11.4061
▁InBev	-11.4061
▁Infraero	-11.4061
▁Ingresso	-11.4061
▁Jaqueline	-11.4061
▁Júpiter	-11.4061
▁Kafka	-11.4061
▁Laboratório	-11.4061
▁Literatura	-11.4061
▁MTST	-11.4061
▁Mediterrâneo	-11.4061
▁Música	-11.4061
▁Negocia	-11.4061
▁Noruega	-11.4061
▁Paschoal	-11.4061
▁Peixoto	-11.4061
▁Pitanguy	-11.4061
▁Prioridade	-11.4061
▁Quênia	-11.4061
▁Riviera	-11.4061
▁Sebastião	-11.4061
▁Sobrevivente	-11.4061
▁Tiririca	-11.4061
▁Usuário	-11.4061
▁Wagner	-11.4061
▁absolvido	-11.4061
▁almoça	-11.4061
▁arrepende	-11.4061
▁artesanais	-11.4061
▁artístico	-11.4061
▁assembleia	-11.4061
▁assistência	-11.4061
▁bitcoin	-11.4061
▁cambistas	-11.4061
▁cesárea	-11.4061
▁coalizão	-11.4061
▁controvérsia	-11.4061
▁corrigi	-11.4061
▁democrática	-11.4061
▁desespero	-11.4061
▁destruição	-11.4061
▁diferencia	-11.4061
▁divórcio	-11.4061
▁dramática	-11.4061
▁endurece	-11.4061
▁envelhece	-11.4061
▁envelheci	-11.4061
▁escancara	-11.4061
▁esgrima	-11.4061
▁espacial	-11.4061
▁estranho	-11.4061
▁evolui	-11.4061
▁expressão	-11.4061
▁favoritismo	-11.4061
▁feminismo	-11.4061
▁fenômeno	-11.4061
▁fotográfica	-11.4061
▁fraqueza	-11.4061
▁geladeira	-11.4061
▁haitianos	-11.4061
▁humilha	-11.4061
▁imaginário	-11.4061
▁improvisa	-11.4061
▁improvável	-11.4061
▁inelegível	-11.4061
▁intolerância	-11.4061
▁islâmico	-11.4061
▁juniores	-11.4061
▁maternidade	-11.4061
▁máximo	-11.4061
▁personaliza	-11.4061
▁plataforma	-11.4061
▁princesa	-11.4061
▁psicóloga	-11.4061
▁psicólogo	-11.4061
▁publicitária	-11.4061
▁pássaro	-11.4061
▁químico	-11.4061
▁raízes	-11.4061
▁resíduos	-11.4061
▁reuniões	-11.4061
▁sexuais	-11.4061
▁socorre	-11.4061
▁sorvete	-11.4061
▁tornozeleira	-11.4061
▁transferência	-11.4061
▁trilhões	-11.4061
▁triunfo	-11.4061
▁uruguaio	-11.4061
▁velocista	-11.4061
▁veterano	-11.4061
▁Carvalho	-11.4061
▁Italiano	-11.4061
▁Muricy	-11.4061
▁NBC	-11.4061
▁UOL	-11.4061
▁afegã	-11.4061
▁operários	-11.4061
▁preventiva	-11.4061
▁rendimento	-11.4061
Acabou	-11.4061
solitário	-11.4061
▁Alibaba	-11.4061
▁Ambiente	-11.4061
▁Criticado	-11.4061
▁Dumont	-11.4061
▁Esgrim	-11.4061
▁Itaquera	-11.4061
▁Pequena	-11.4061
▁Serginho	-11.4061
▁esportiva	-11.4061
▁extorsão	-11.4061
▁jacaré	-11.4061
▁pioneira	-11.4061
▁preferência	-11.4061
▁relacionamento	-11.4061
▁visual	-11.4061
▁Angola	-11.4061
▁Consultor	-11.4061
▁Consumidor	-11.4061
▁estresse	-11.4061
▁exílio	-11.4061
▁monumento	-11.4061
▁mágico	-11.4061
▁opostos	-11.4061
▁partidária	-11.4061
▁sertanej	-11.4061
▁transplant	-11.4061
▁Romero	-11.4061
▁Toronto	-11.4061
▁Trecho	-11.4061
▁Virgin	-11.4061
▁agiliza	-11.4061
▁arrisca	-11.4061
▁descoberto	-11.4061
▁desponta	-11.4061
▁invadir	-11.4061
▁tradução	-11.4061
▁Jamaica	-11.4061
▁Pizza	-11.4061
▁revisto	-11.4061
▁torneira	-11.4061
Girls	-11.4061
sãopaulo	-11.4061
▁Cineasta	-11.4061
▁Humanos	-11.4061
▁Maradona	-11.4061
▁Sírio	-11.4061
▁cidadão	-11.4061
elodrama	-11.4061
▁Paraíso	-11.4061
▁impacta	-11.4061
▁Bagdá	-11.4061
▁Entidade	-11.4061
▁Rocinha	-11.4061
▁edital	-11.4061
▁graus	-11.4061
▁vertical	-11.4061
mênia	-11.4061
território	-11.4061
▁OMC	-11.4061
▁Wilde	-11.4061
▁falência	-11.4061
▁legais	-11.4061
▁picape	-11.4061
▁Funai	-11.4061
▁Paciente	-11.4061
▁neutra	-11.4062
▁Murilo	-11.4062
▁barreiras	-11.4062
Mogli	-11.4062
▁grego	-11.4062
▁refugiada	-11.4062
▁nuvem	-11.4062
▁distribuidoras	-11.4062
▁sátira	-11.4062
▁colorir	-11.4062
▁degrada	-11.4062
▁Romário	-11.4062
▁Rivais	-11.4062
▁montadoras	-11.4062
▁assassinado	-11.4062
▁ACM	-11.4062
emorial	-11.4062
▁desperta	-11.4062
▁legenda	-11.4062
▁sétim	-11.4062
▁Celg	-11.4062
paixão	-11.4062
▁Jornalismo	-11.4062
▁Convoca	-11.4062
▁drive	-11.4062
▁tapete	-11.4062
▁Gramado	-11.4062
▁Vasco	-11.4062
▁ensaia	-11.4062
▁Duarte	-11.4062
▁ameniza	-11.4062
rranjo	-11.4062
▁hábito	-11.4062
▁explosivo	-11.4062
▁Opini	-11.4062
▁vigor	-11.4062
▁Amaral	-11.4062
▁Plate	-11.4062
▁imperial	-11.4062
▁Milão	-11.4062
▁Necess	-11.4062
▁empregado	-11.4062
▁Cardoso	-11.4062
▁aquisi	-11.4062
▁habitantes	-11.4062
▁Judoca	-11.4062
paradoxo	-11.4062
írus	-11.4062
▁3,30	-11.4062
▁Esquerd	-11.4062
▁Existe	-11.4062
Velho	-11.4062
▁fórmula	-11.4063
▁urnas	-11.4063
▁Moore	-11.4063
▁Roubo	-11.4063
▁ABL	-11.4063
▁Delegation	-11.4063
locutor	-11.4063
▁terreno	-11.4063
▁foragido	-11.4063
▁antiterrorismo	-11.4063
viciado	-11.4063
▁arruma	-11.4063
▁demitir	-11.4063
▁Luís	-11.4063
▁horta	-11.4063
▁Letras	-11.4064
▁estética	-11.4064
▁Chamad	-11.4064
▁Farias	-11.4064
Ensino	-11.4064
▁reinventar	-11.4064
ttle	-11.4064
▁ironia	-11.4064
▁sentado	-11.4064
▁CNN	-11.4064
▁Valério	-11.4064
▁estacionamento	-11.4065
▁gráfico	-11.4065
▁cartel	-11.4065
rescind	-11.4065
▁Atala	-11.4065
▁ferrovia	-11.4065
▁Exame	-11.4065
▁barragem	-11.4065
▁sindicais	-11.4066
▁Gerais	-11.4066
beij	-11.4066
▁Poderes	-11.4066
▁ausente	-11.4066
namorado	-11.4066
alento	-11.4066
▁substituto	-11.4067
▁Perfi	-11.4067
▁Leste	-11.4067
▁Arrest	-11.4068
erícia	-11.4068
▁Sérvia	-11.4068
▁multidão	-11.4068
▁paisagem	-11.4068
▁Angel	-11.4068
▁chope	-11.4069
vision	-11.4069
Parece	-11.407
▁Garcia	-11.407
▁brasa	-11.407
▁fisco	-11.4071
omerciante	-11.4071
Oeste	-11.4071
▁Verdade	-11.4073
▁emerge	-11.4074
▁disposição	-11.4074
enciamento	-11.4074
rgão	-11.4076
raft	-11.4077
lefante	-11.4078
▁largo	-11.4078
▁veio	-11.4082
▁Denis	-11.4082
fatiamento	-11.4088
antagem	-11.409
Poder	-11.4091
globalização	-11.4091
▁convert	-11.4091
▁Blair	-11.4096
▁Image	-11.41
▁satisf	-11.411
▁sacol	-11.411
traidor	-11.411
árb	-11.4112
▁Membro	-11.4113
blindar	-11.4114
agiu	-11.4128
azamento	-11.4135
▁Informa	-11.4138
▁Picc	-11.4146
iplomacia	-11.415
Janis	-11.4152
▁Terceir	-11.4161
▁desligado	-11.4164
lapto	-11.4165
localização	-11.4167
índico	-11.4167
▁Azev	-11.4186
abell	-11.4189
▁Ocupaç	-11.419
ngste	-11.4192
▁emenda	-11.4203
rrada	-11.4204
Perdi	-11.4208
informado	-11.4231
Morr	-11.4231
2,6	-11.4233
▁desabafa	-11.4269
procurados	-11.4285
eaks	-11.4298
Divi	-11.4309
▁Objet	-11.4328
envolvimento	-11.4347
Querem	-11.4428
reviver	-11.4501
▁radicaliza	-11.4527
▁Bangu	-11.4574
Fall	-11.4578
▁estuprador	-11.4628
eciclagem	-11.4646
prender	-11.466
portuni	-11.4694
curar	-11.4725
tipos	-11.4726
▁impress	-11.4791
Hav	-11.4794
▁Passage	-11.484
ruínas	-11.4895
extremistas	-11.4895
Just	-11.4904
▁Cerc	-11.4908
▁escult	-11.4909
screveu	-11.4972
lgoz	-11.4995
▁Brand	-11.505
▁orient	-11.506
positores	-11.5164
ensamento	-11.5219
▁estupra	-11.5342
cômodo	-11.5353
▁reabert	-11.5403
▁invent	-11.5411
poderes	-11.5522
▁prejudic	-11.5613
▁Suspeit	-11.5663
▁afet	-11.567
substitu	-11.5751
▁bloc	-11.5764
▁indígena	-11.578
▁obstáculo	-11.578
▁adulto	-11.578
▁conserva	-11.5857
▁4,5	-11.5872
ditorial	-11.591
difício	-11.591
xpectativa	-11.5912
fastamento	-11.5932
ancários	-11.5933
tletismo	-11.5933
▁sínd	-11.5935
▁mostr	-11.5942
▁inscriç	-11.5944
▁fabrica	-11.5967
▁adiciona	-11.5974
▁churrasc	-11.5981
▁Secretári	-11.5993
▁Barros	-11.5995
objeto	-11.6003
▁materia	-11.6005
Economist	-11.6007
▁trimestr	-11.6028
▁Proje	-11.6031
▁persegui	-11.6035
Precis	-11.6037
ejei	-11.6046
club	-11.6053
iversidade	-11.6057
residencial	-11.6058
iroteio	-11.6059
nadimplência	-11.6059
▁propaga	-11.6061
acionamento	-11.6061
▁Knausg	-11.6061
▁Bordeaux	-11.6061
▁carnaval	-11.6061
▁desperdiça	-11.6061
▁rebelião	-11.6061
Corintiano	-11.6061
Julieta	-11.6061
MasterChef	-11.6061
Nenhum	-11.6061
Palavra	-11.6061
Privatização	-11.6061
Vaquinha	-11.6061
acessíveis	-11.6061
adequada	-11.6061
ambiarra	-11.6061
clausura	-11.6061
climática	-11.6061
condicionado	-11.6061
desconhecido	-11.6061
destruir	-11.6061
dignidade	-11.6061
discrimina	-11.6061
essentimento	-11.6061
inevitável	-11.6061
inviabiliza	-11.6061
layground	-11.6061
legitimidade	-11.6061
metrópole	-11.6061
mprevisível	-11.6061
oletânea	-11.6061
oyalties	-11.6061
pacífico	-11.6061
retórica	-11.6061
sorriso	-11.6061
sucedida	-11.6061
tropeço	-11.6061
utocrítica	-11.6061
▁Allianz	-11.6061
▁Almodóvar	-11.6061
▁Antunes	-11.6061
▁Arqueólogos	-11.6061
▁Arquiteta	-11.6061
▁Arquitetura	-11.6061
▁Australian	-11.6061
▁Avianca	-11.6061
▁Blogueir	-11.6061
▁Cabeça	-11.6061
▁Candidata	-11.6061
▁Cemig	-11.6061
▁Comunicação	-11.6061
▁Conmebol	-11.6061
▁Cândido	-11.6061
▁Econômic	-11.6061
▁Fabíola	-11.6061
▁Faculdade	-11.6061
▁Giovann	-11.6061
▁Guardiola	-11.6061
▁Hiroshima	-11.6061
▁Hoffmann	-11.6061
▁Holanda	-11.6061
▁Iguatemi	-11.6061
▁Incerteza	-11.6061
▁Indonésia	-11.6061
▁Investidor	-11.6061
▁Jurerê	-11.6061
▁Kiarostami	-11.6061
▁Legislativa	-11.6061
▁Lindbergh	-11.6061
▁Madrugada	-11.6061
▁Mandamentos	-11.6061
▁Millôr	-11.6061
▁Montenegro	-11.6061
▁Músico	-11.6061
▁Oficina	-11.6061
▁Pacífico	-11.6061
▁Paisagista	-11.6061
▁Planeta	-11.6061
▁Pressionado	-11.6061
▁Próxima	-11.6061
▁Radiohead	-11.6061
▁Rodoanel	-11.6061
▁SABMiller	-11.6061
▁Sequência	-11.6061
▁Sevilla	-11.6061
▁Spotify	-11.6061
▁Stanford	-11.6061
▁Símbolo	-11.6061
▁Taleban	-11.6061
▁Tietê	-11.6061
▁Tunísia	-11.6061
▁UFRJ	-11.6061
▁Unibanco	-11.6061
▁Veículo	-11.6061
▁Zelotes	-11.6061
▁Zimbábue	-11.6061
▁absolvição	-11.6061
▁acostuma	-11.6061
▁acréscimos	-11.6061
▁admitir	-11.6061
▁agricultor	-11.6061
▁alfineta	-11.6061
▁alongar	-11.6061
▁alugar	-11.6061
▁ambulante	-11.6061
▁amizade	-11.6061
▁aplauso	-11.6061
▁aquática	-11.6061
▁austeridade	-11.6061
▁autoritária	-11.6061
▁caipirinha	-11.6061
▁calçad	-11.6061
▁coadjuvante	-11.6061
▁commodities	-11.6061
▁concorrência	-11.6061
▁consequência	-11.6061
▁diplomática	-11.6061
▁dirigid	-11.6061
▁domiciliar	-11.6061
▁encomenda	-11.6061
▁enriquece	-11.6061
▁espionagem	-11.6061
▁exigência	-11.6061
▁extingui	-11.6061
▁falsifica	-11.6061
▁festeja	-11.6061
▁fevereiro	-11.6061
▁fotográfico	-11.6061
▁fumaça	-11.6061
▁garimpa	-11.6061
▁gobierno	-11.6061
▁governistas	-11.6061
▁gratuita	-11.6061
▁hambúrguer	-11.6061
▁homenagear	-11.6061
▁homenagens	-11.6061
▁homossexuais	-11.6061
▁horror	-11.6061
▁hospeda	-11.6061
▁imobiliária	-11.6061
▁incentivo	-11.6061
▁intelectual	-11.6061
▁intimidar	-11.6061
▁jamaican	-11.6061
▁laboratório	-11.6061
▁lentidão	-11.6061
▁logística	-11.6061
▁loucura	-11.6061
▁língua	-11.6061
▁lógica	-11.6061
▁manifesto	-11.6061
▁marginais	-11.6061
▁mexicana	-11.6061
▁misterios	-11.6061
▁modernista	-11.6061
▁monotrilho	-11.6061
▁multiúso	-11.6061
▁muçulmana	-11.6061
▁míssil	-11.6061
▁operacional	-11.6061
▁opiniões	-11.6061
▁originais	-11.6061
▁palmeirense	-11.6061
▁peemedebista	-11.6061
▁perpétua	-11.6061
▁petroquímic	-11.6061
▁plateia	-11.6061
▁pneumonia	-11.6061
▁poluentes	-11.6061
▁prolonga	-11.6061
▁prometida	-11.6061
▁proprietário	-11.6061
▁prostituta	-11.6061
▁página	-11.6061
▁reaproveita	-11.6061
▁reestreia	-11.6061
▁religião	-11.6061
▁responsáveis	-11.6061
▁revestimento	-11.6061
▁revitaliza	-11.6061
▁rompimento	-11.6061
▁subsídio	-11.6061
▁suíça	-11.6061
▁tatuagem	-11.6061
▁trajeto	-11.6061
▁térmica	-11.6061
▁ucranian	-11.6061
▁varejista	-11.6061
▁velejador	-11.6061
▁videogame	-11.6061
▁zoológico	-11.6061
indícios	-11.6061
lâmpa	-11.6061
▁Ambev	-11.6061
▁Anistia	-11.6061
▁Aragão	-11.6061
▁Foragido	-11.6061
▁Fracass	-11.6061
▁Furnas	-11.6061
▁General	-11.6061
▁Jeff	-11.6061
▁Miklos	-11.6061
▁Ramalho	-11.6061
▁UTI	-11.6061
▁Veterano	-11.6061
▁apagão	-11.6061
▁assegura	-11.6061
▁ciclismo	-11.6061
▁conferência	-11.6061
▁empreiteiro	-11.6061
▁medalla	-11.6061
▁planea	-11.6061
▁reféns	-11.6061
▁releitura	-11.6061
▁respeitar	-11.6061
▁suborno	-11.6061
▁suplement	-11.6061
blitz	-11.6061
eoliberal	-11.6061
fidelidade	-11.6061
▁Bastilha	-11.6061
▁DVD	-11.6061
▁Thaís	-11.6061
▁Transpetro	-11.6061
▁Verizon	-11.6061
▁cartilha	-11.6061
▁punições	-11.6061
▁sofrid	-11.6061
▁viaduto	-11.6061
Zidane	-11.6061
engorda	-11.6061
pacifica	-11.6061
▁Carille	-11.6061
▁Celular	-11.6061
▁Dodge	-11.6061
▁Podemos	-11.6061
▁literário	-11.6061
▁pedaço	-11.6061
▁recruta	-11.6061
▁urgência	-11.6061
▁vitrine	-11.6061
artaruga	-11.6061
jardin	-11.6061
utobiografia	-11.6061
íssimo	-11.6061
▁1970	-11.6061
▁Curry	-11.6061
▁consulado	-11.6061
▁europeia	-11.6061
▁nordestin	-11.6061
▁simpatizante	-11.6061
camarote	-11.6061
▁Claudi	-11.6061
▁Eremil	-11.6061
▁Prepara	-11.6061
▁Selvage	-11.6061
▁Service	-11.6061
▁White	-11.6061
▁abdica	-11.6061
▁arranca	-11.6061
▁inferno	-11.6061
▁líquido	-11.6061
▁árabe	-11.6061
2024	-11.6061
rgumentos	-11.6061
▁Emílio	-11.6061
▁Floresta	-11.6061
▁Mossul	-11.6061
▁TAM	-11.6061
▁idioma	-11.6061
▁penúltim	-11.6061
▁resort	-11.6061
Picasso	-11.6061
Selfie	-11.6061
▁Urban	-11.6061
▁With	-11.6061
▁chavista	-11.6061
▁decisiva	-11.6061
▁ideológica	-11.6061
▁ilusão	-11.6061
▁intervalo	-11.6061
Esperança	-11.6061
joelho	-11.6061
▁Elimina	-11.6061
▁Gonza	-11.6061
▁Raúl	-11.6061
▁Sarah	-11.6061
▁barulho	-11.6061
▁completo	-11.6061
▁vilões	-11.6061
▁erudit	-11.6061
▁escalão	-11.6061
▁lobista	-11.6061
▁ruído	-11.6061
▁Before	-11.6062
▁Gasol	-11.6062
▁Oswald	-11.6062
▁emboscad	-11.6062
▁Diniz	-11.6062
▁Limite	-11.6062
▁bonita	-11.6062
▁estabiliza	-11.6062
▁reguladoras	-11.6062
▁rígid	-11.6062
▁Mestre	-11.6062
▁Piloto	-11.6062
▁baleada	-11.6062
▁intenso	-11.6062
▁maestro	-11.6062
▁Hook	-11.6062
▁Carioca	-11.6062
▁Cumbi	-11.6062
▁estrago	-11.6062
▁ruins	-11.6062
▁teaser	-11.6062
▁ambição	-11.6062
▁apelido	-11.6062
▁erguida	-11.6062
▁craque	-11.6062
▁modalidades	-11.6062
Resident	-11.6062
▁Declaraç	-11.6062
▁Aguiar	-11.6062
▁refresca	-11.6062
▁tumor	-11.6062
▁suporte	-11.6062
▁colorido	-11.6062
▁similar	-11.6062
lícias	-11.6062
▁educador	-11.6062
▁parcial	-11.6062
cópi	-11.6062
▁Detran	-11.6062
▁Motta	-11.6062
▁Story	-11.6062
Negro	-11.6062
existir	-11.6062
▁Delfim	-11.6062
▁precoce	-11.6062
▁Moraes	-11.6062
ujeira	-11.6062
▁miséria	-11.6062
▁cometido	-11.6062
▁Keiko	-11.6062
▁Universidade	-11.6062
▁massacra	-11.6062
▁mantida	-11.6062
▁reconstitui	-11.6062
▁Bloco	-11.6062
▁estagnad	-11.6062
▁Vegas	-11.6062
▁reorganiza	-11.6062
agilidade	-11.6062
▁cordial	-11.6062
▁amarela	-11.6062
point	-11.6062
▁apure	-11.6062
▁comentarista	-11.6062
▁produtiva	-11.6062
lagoas	-11.6062
▁Texto	-11.6062
concreto	-11.6062
▁Bispo	-11.6062
▁armário	-11.6062
▁Who	-11.6062
▁enchente	-11.6062
▁inacabad	-11.6062
▁intervir	-11.6062
▁velório	-11.6062
▁convicç	-11.6062
▁reedita	-11.6062
▁sueca	-11.6062
▁Famosa	-11.6062
▁crueldade	-11.6062
batido	-11.6062
▁Strong	-11.6062
Destino	-11.6062
▁Boxe	-11.6062
▁surgi	-11.6062
▁otimista	-11.6062
▁chilen	-11.6063
▁pneu	-11.6063
▁Take	-11.6063
▁bombeiros	-11.6063
▁adubo	-11.6063
▁prótese	-11.6063
▁acalma	-11.6063
▁provável	-11.6063
▁Usina	-11.6063
fizer	-11.6063
House	-11.6063
▁genética	-11.6063
▁EaD	-11.6063
▁catador	-11.6063
▁Voz	-11.6063
▁Castel	-11.6064
▁Garros	-11.6064
▁temporal	-11.6064
Season	-11.6064
▁pedestre	-11.6064
▁reagir	-11.6064
▁elogio	-11.6064
▁Sousa	-11.6064
▁Clara	-11.6064
▁Klein	-11.6064
fugia	-11.6065
▁Cássi	-11.6065
olégio	-11.6065
▁Marques	-11.6065
▁abono	-11.6065
fiesta	-11.6065
▁muscul	-11.6065
litização	-11.6066
▁Quarto	-11.6066
castig	-11.6066
desmonte	-11.6066
▁tieta	-11.6066
▁Control	-11.6066
eficaz	-11.6066
ombeiros	-11.6066
▁Adrian	-11.6067
▁requer	-11.6067
▁cristã	-11.6067
gumes	-11.6067
▁desarma	-11.6068
▁descola	-11.6068
▁Termin	-11.6068
▁eterno	-11.607
Pouco	-11.6072
▁Marlon	-11.6073
etorno	-11.6073
bsessão	-11.6074
▁preparo	-11.6074
▁Gian	-11.608
nstituições	-11.6082
néis	-11.6083
▁saír	-11.6084
1992	-11.6086
enganosa	-11.6091
▁caseiro	-11.6098
argent	-11.6101
▁sucat	-11.6112
liseu	-11.6118
funk	-11.6122
Samba	-11.6133
isolamento	-11.6134
grande	-11.6141
Educador	-11.6142
Hoje	-11.6144
▁Bull	-11.6147
controle	-11.6151
somem	-11.6158
brasileira	-11.6165
Governo	-11.6172
Justiça	-11.6173
comporta	-11.6176
▁3,6	-11.6181
▁criminaliza	-11.6188
governo	-11.6189
▁danific	-11.6191
Droga	-11.6194
adicional	-11.62
absoluto	-11.6221
Pepp	-11.6223
▁saud	-11.6232
▁aplaudid	-11.6235
▁incógnit	-11.6244
▁futur	-11.6259
erial	-11.6264
▁Mensage	-11.6295
▁localiza	-11.6307
▁farmacêutic	-11.6338
▁mold	-11.6341
Canal	-11.6376
Free	-11.6383
favelas	-11.6407
▁bicampeã	-11.6421
▁desclassifica	-11.646
▁Stev	-11.6486
▁Criad	-11.6527
Gerald	-11.6543
expressivo	-11.6553
Canta	-11.6589
▁patr	-11.6665
ivraria	-11.6788
▁Eric	-11.6789
xercícios	-11.6826
aporte	-11.6842
atacado	-11.6851
preocupante	-11.6941
▁populariza	-11.6977
guardar	-11.7013
▁Vizinh	-11.7046
llow	-11.7088
▁criminal	-11.7092
▁Inscriç	-11.7125
firmar	-11.7173
Investigado	-11.7195
▁estiver	-11.7294
romper	-11.735
▁extremista	-11.7381
▁ruína	-11.7382
ochil	-11.7425
▁offshore	-11.7474
Cerca	-11.7477
cunh	-11.7563
udiência	-11.7589
Moda	-11.7605
migração	-11.7773
▁antecip	-11.7933
▁fornece	-11.7955
conectado	-11.8067
▁banh	-11.8149
bjetiv	-11.8161
Aprendiz	-11.8162
▁urban	-11.8196
▁consumi	-11.8252
onsiderado	-11.8262
▁Govern	-11.8268
▁Empresári	-11.8303
▁atingid	-11.8352
▁descart	-11.8369
▁derrot	-11.8377
process	-11.838
ábrica	-11.8391
▁hostil	-11.8406
valiação	-11.8412
spetáculo	-11.8414
daptação	-11.843
statal	-11.8431
mitiu	-11.8438
▁Event	-11.8452
▁Médic	-11.8476
▁acirra	-11.8488
▁reportage	-11.8488
infel	-11.8501
particip	-11.8502
ociedade	-11.8504
▁posicion	-11.8513
president	-11.8526
cirurgi	-11.8529
▁Especial	-11.8532
surpres	-11.854
▁record	-11.854
▁judicia	-11.854
▁possíve	-11.854
erdã	-11.8543
▁flecha	-11.8543
▁impressiona	-11.8544
▁Restaura	-11.8546
pecuária	-11.8546
ríncipe	-11.8553
▁estaciona	-11.8557
iscussão	-11.8557
▁Aposentado	-11.8557
▁Cerveja	-11.8557
ossibilidade	-11.8558
rincipais	-11.8558
▁antiterror	-11.8558
úpula	-11.8559
andidatura	-11.8559
onteúdo	-11.8559
nquérito	-11.8559
órmula	-11.856
iscalização	-11.856
urocracia	-11.856
▁cruel	-11.856
▁flex	-11.8561
▁Auxílio	-11.8561
▁canguru	-11.8561
Cinquent	-11.8561
Cirurgia	-11.8561
Cloverfield	-11.8561
Diálogos	-11.8561
Fantástico	-11.8561
Fenômeno	-11.8561
Manifesto	-11.8561
Trapaça	-11.8561
Youtuber	-11.8561
ambicioso	-11.8561
arremesso	-11.8561
bullying	-11.8561
centrão	-11.8561
companheiro	-11.8561
desprezo	-11.8561
engenharia	-11.8561
esqueletos	-11.8561
eterodox	-11.8561
graduação	-11.8561
holofote	-11.8561
illennial	-11.8561
inaceitável	-11.8561
mofóbic	-11.8561
oworking	-11.8561
pocalipse	-11.8561
prisiona	-11.8561
pêndulo	-11.8561
ridículo	-11.8561
santuário	-11.8561
sconforto	-11.8561
solidário	-11.8561
tecnológica	-11.8561
ufrágio	-11.8561
▁Abdelmassih	-11.8561
▁Alzheimer	-11.8561
▁Augusta	-11.8561
▁Auschwitz	-11.8561
▁Azerbaijão	-11.8561
▁Bactéria	-11.8561
▁Bailarino	-11.8561
▁Beethoven	-11.8561
▁Berlusconi	-11.8561
▁Bombardeio	-11.8561
▁Calcu	-11.8561
▁Centenário	-11.8561
▁Chacrinha	-11.8561
▁Clássico	-11.8561
▁Colorado	-11.8561
▁Comercial	-11.8561
▁Complain	-11.8561
▁Conflito	-11.8561
▁Conselheir	-11.8561
▁Construction	-11.8561
▁Cuenca	-11.8561
▁Câncer	-11.8561
▁Desfalcad	-11.8561
▁Dickens	-11.8561
▁Documento	-11.8561
▁Dortmund	-11.8561
▁Dramaturg	-11.8561
▁Duncan	-11.8561
▁Duvivier	-11.8561
▁Eastwood	-11.8561
▁Emissora	-11.8561
▁Empreiteira	-11.8561
▁Escândalo	-11.8561
▁Esportivo	-11.8561
▁Estratégia	-11.8561
▁Fratus	-11.8561
▁Gisele	-11.8561
▁Greenfield	-11.8561
▁Harvard	-11.8561
▁Historiador	-11.8561
▁Inglesa	-11.8561
▁Jersey	-11.8561
▁Jerusalém	-11.8561
▁Jonathan	-11.8561
▁Júnior	-11.8561
▁LinkedIn	-11.8561
▁Lispector	-11.8561
▁Liverpool	-11.8561
▁Lázaro	-11.8561
▁Matogrosso	-11.8561
▁Mexican	-11.8561
▁Minnesota	-11.8561
▁Moisés	-11.8561
▁Mustang	-11.8561
▁Niemeyer	-11.8561
▁Oktoberfest	-11.8561
▁Pantanal	-11.8561
▁Patrimônio	-11.8561
▁Pentágono	-11.8561
▁Performance	-11.8561
▁Persegui	-11.8561
▁Philip	-11.8561
▁Piracicaba	-11.8561
▁Primária	-11.8561
▁Problems	-11.8561
▁Prudent	-11.8561
▁Qaeda	-11.8561
▁Raimundo	-11.8561
▁Recupera	-11.8561
▁Reforço	-11.8561
▁Renault	-11.8561
▁Retomada	-11.8561
▁Ribeiro	-11.8561
▁Rihanna	-11.8561
▁Santiago	-11.8561
▁Sapopemba	-11.8561
▁Snowden	-11.8561
▁Sommeli	-11.8561
▁Streep	-11.8561
▁Suspect	-11.8561
▁Suspende	-11.8561
▁Suárez	-11.8561
▁Sócrates	-11.8561
▁Teixeira	-11.8561
▁Vietnã	-11.8561
▁Weverton	-11.8561
▁Woolf	-11.8561
▁Zavascki	-11.8561
▁abastece	-11.8561
▁absurdo	-11.8561
▁acentua	-11.8561
▁adversária	-11.8561
▁advertência	-11.8561
▁advogada	-11.8561
▁airbag	-11.8561
▁alérgic	-11.8561
▁apreendid	-11.8561
▁aprimorar	-11.8561
▁arquibancada	-11.8561
▁arquitetônic	-11.8561
▁artilheiro	-11.8561
▁assassinada	-11.8561
▁australiana	-11.8561
▁autobiográfic	-11.8561
▁automotiva	-11.8561
▁bactéria	-11.8561
▁barbárie	-11.8561
▁catarinense	-11.8561
▁churrasqu	-11.8561
▁cidadania	-11.8561
▁coercitiva	-11.8561
▁comissionados	-11.8561
▁concessionári	-11.8561
▁consciência	-11.8561
▁consecutiva	-11.8561
▁consecutivo	-11.8561
▁contempla	-11.8561
▁controverso	-11.8561
▁conveniência	-11.8561
▁cooperativa	-11.8561
▁cooperação	-11.8561
▁coordena	-11.8561
▁cozinheira	-11.8561
▁credibilidade	-11.8561
▁crucial	-11.8561
▁curiosos	-11.8561
▁desaloja	-11.8561
▁desbloquei	-11.8561
▁descanso	-11.8561
▁deslizamento	-11.8561
▁desnecessári	-11.8561
▁despedir	-11.8561
▁diminuem	-11.8561
▁discursa	-11.8561
▁dissidentes	-11.8561
▁drible	-11.8561
▁empobrece	-11.8561
▁enxerga	-11.8561
▁esmiúça	-11.8561
▁eutanásia	-11.8561
▁expressa	-11.8561
▁fantástic	-11.8561
▁festivais	-11.8561
▁filosófic	-11.8561
▁flamenguista	-11.8561
▁furacão	-11.8561
▁geométrico	-11.8561
▁globais	-11.8561
▁guerrilha	-11.8561
▁hipocrisia	-11.8561
▁homofobia	-11.8561
▁improviso	-11.8561
▁incapaz	-11.8561
▁indeterminado	-11.8561
▁indignação	-11.8561
▁infiltrado	-11.8561
▁infrator	-11.8561
▁inscrito	-11.8561
▁invalidez	-11.8561
▁inútil	-11.8561
▁islâmica	-11.8561
▁legislativ	-11.8561
▁legislação	-11.8561
▁linchamento	-11.8561
▁londrino	-11.8561
▁medicamentos	-11.8561
▁medíocre	-11.8561
▁microfone	-11.8561
▁ministeri	-11.8561
▁monólogo	-11.8561
▁máscara	-11.8561
▁noturna	-11.8561
▁ofensivo	-11.8561
▁orgânica	-11.8561
▁ornamentais	-11.8561
▁orçamentária	-11.8561
▁panflet	-11.8561
▁paradigma	-11.8561
▁perpetuar	-11.8561
▁pessimismo	-11.8561
▁piquenique	-11.8561
▁privilégio	-11.8561
▁problemátic	-11.8561
▁profissão	-11.8561
▁protagonismo	-11.8561
▁psicanalista	-11.8561
▁psicológico	-11.8561
▁pátria	-11.8561
▁reabilita	-11.8561
▁reconhecido	-11.8561
▁reembols	-11.8561
▁reencontro	-11.8561
▁reerguer	-11.8561
▁regional	-11.8561
▁repercute	-11.8561
▁república	-11.8561
▁residenciais	-11.8561
▁romântico	-11.8561
▁roteirista	-11.8561
▁sanfona	-11.8561
▁satélite	-11.8561
▁sensual	-11.8561
▁siderúrgica	-11.8561
▁sincronizado	-11.8561
▁sofrimento	-11.8561
▁submarino	-11.8561
▁tailandes	-11.8561
▁tribunais	-11.8561
▁turbulência	-11.8561
▁típica	-11.8561
▁universal	-11.8561
▁vegetais	-11.8561
▁velhice	-11.8561
▁vigilância	-11.8561
▁youtuber	-11.8561
vandalismo	-11.8561
▁Champion	-11.8561
▁Clínica	-11.8561
▁Crowd	-11.8561
▁DRU	-11.8561
▁Educacional	-11.8561
▁Joplin	-11.8561
▁KGB	-11.8561
▁Kombi	-11.8561
▁Magaldi	-11.8561
▁Mangueira	-11.8561
▁Radical	-11.8561
▁Simpson	-11.8561
▁Tatiana	-11.8561
▁Titãs	-11.8561
▁UNE	-11.8561
▁arqueológic	-11.8561
▁bagagem	-11.8561
▁consignado	-11.8561
▁delivery	-11.8561
▁emissora	-11.8561
▁estudantis	-11.8561
▁herança	-11.8561
▁ingleses	-11.8561
▁omitir	-11.8561
▁prateleira	-11.8561
▁precipit	-11.8561
▁propriedade	-11.8561
▁protagoniz	-11.8561
▁repleto	-11.8561
▁ressarci	-11.8561
▁riqueza	-11.8561
▁semáforo	-11.8561
Memórias	-11.8561
cozinheiro	-11.8561
tropical	-11.8561
▁Bellini	-11.8561
▁Booker	-11.8561
▁Carlinhos	-11.8561
▁Feijão	-11.8561
▁Fraude	-11.8561
▁Judicial	-11.8561
▁Ortega	-11.8561
▁Táxi	-11.8561
▁Vacina	-11.8561
▁adeptos	-11.8561
▁argolas	-11.8561
▁blue	-11.8561
▁cartões	-11.8561
▁desvincula	-11.8561
▁doutrina	-11.8561
▁engatinha	-11.8561
▁estreante	-11.8561
▁facilidade	-11.8561
▁fofoca	-11.8561
▁fúria	-11.8561
▁impulso	-11.8561
▁inquieta	-11.8561
▁iraniana	-11.8561
▁presencia	-11.8561
▁ratifica	-11.8561
▁trágic	-11.8561
Vermelho	-11.8561
▁agressor	-11.8561
▁cômico	-11.8561
▁discreto	-11.8561
▁distorções	-11.8561
▁herdeiro	-11.8561
▁líquida	-11.8561
▁vontade	-11.8561
▁Alcione	-11.8561
▁Grafite	-11.8561
▁Parceria	-11.8561
▁bizarra	-11.8561
▁ciúme	-11.8561
▁confuso	-11.8561
▁diabetes	-11.8561
▁dobradinha	-11.8561
▁estudantil	-11.8561
▁invasões	-11.8561
▁sofá	-11.8561
▁Duterte	-11.8561
▁Ginasta	-11.8561
▁Global	-11.8561
▁embarque	-11.8561
▁rodeio	-11.8561
bobagem	-11.8561
temporárias	-11.8561
▁Child	-11.8561
▁Emicida	-11.8561
▁Wolf	-11.8561
▁mosquito	-11.8561
▁promoções	-11.8561
coxinha	-11.8561
experimento	-11.8561
▁Felício	-11.8561
▁TCM	-11.8561
existência	-11.8561
▁Entrevista	-11.8561
▁Levanta	-11.8561
▁Refugiado	-11.8561
▁bronca	-11.8561
▁dispersa	-11.8561
▁honesto	-11.8561
▁ilimitad	-11.8561
▁moderado	-11.8561
▁perfura	-11.8561
▁primári	-11.8561
▁sugestão	-11.8561
▁Chief	-11.8561
▁Diadema	-11.8561
▁Freud	-11.8561
▁Minoria	-11.8561
▁Seixas	-11.8561
▁semiaberto	-11.8561
▁Conversa	-11.8561
▁Fechado	-11.8561
▁Silício	-11.8561
▁figura	-11.8561
▁espanc	-11.8562
▁regress	-11.8562
fluid	-11.8562
▁CVC	-11.8562
▁Coutinho	-11.8562
▁Eldorado	-11.8562
▁ISS	-11.8562
▁genoma	-11.8562
escrava	-11.8562
▁Gogh	-11.8562
▁encalha	-11.8562
▁estrear	-11.8562
confessa	-11.8562
oussef	-11.8562
▁Feriado	-11.8562
▁caráter	-11.8562
geek	-11.8562
▁Willian	-11.8562
▁garagem	-11.8562
▁gordura	-11.8562
▁triplo	-11.8562
▁Estoque	-11.8562
▁escrita	-11.8562
▁estatístic	-11.8562
▁honra	-11.8562
▁manchete	-11.8562
macacos	-11.8562
▁Kicks	-11.8562
▁Barack	-11.8562
▁Paraíba	-11.8562
▁absolve	-11.8562
▁pediatra	-11.8562
cocô	-11.8562
▁corrige	-11.8562
▁pecados	-11.8562
fronta	-11.8562
▁Bowl	-11.8562
▁nascimento	-11.8562
sufoca	-11.8562
▁atmosf	-11.8562
▁vegana	-11.8562
▁Plann	-11.8562
▁Petroleir	-11.8562
egetarian	-11.8562
Herança	-11.8562
▁Deliver	-11.8562
▁Poesia	-11.8562
▁ofusca	-11.8562
Rodovia	-11.8562
guitarr	-11.8562
▁Manobra	-11.8562
▁Medeiros	-11.8562
▁volte	-11.8562
▁dançarino	-11.8562
▁artesãos	-11.8562
▁trainee	-11.8562
▁Assalto	-11.8562
▁Netto	-11.8562
injustiçada	-11.8562
▁aldeia	-11.8562
▁Estilo	-11.8562
▁Jobim	-11.8562
▁sedã	-11.8562
▁primo	-11.8562
▁ligou	-11.8562
▁Empreg	-11.8562
▁colorida	-11.8562
▁culto	-11.8562
▁inusitad	-11.8562
▁encosta	-11.8562
▁Incra	-11.8562
▁Peixe	-11.8562
▁drag	-11.8562
▁Modern	-11.8562
▁sexismo	-11.8562
▁Laden	-11.8562
▁insiste	-11.8562
▁irriga	-11.8562
▁travess	-11.8562
▁preench	-11.8562
▁magia	-11.8562
enterrar	-11.8562
recarregar	-11.8562
▁Narrador	-11.8562
▁extinto	-11.8562
hinês	-11.8562
uplente	-11.8562
Ivete	-11.8563
▁sequestrada	-11.8563
ddle	-11.8563
▁Estrada	-11.8563
branca	-11.8563
stronauta	-11.8563
▁vigia	-11.8563
cassete	-11.8563
iudad	-11.8563
▁desoneraç	-11.8564
▁Magalh	-11.8564
▁blogueir	-11.8564
▁tecido	-11.8564
▁despach	-11.8565
▁destinado	-11.8565
▁exerce	-11.8565
▁recolhe	-11.8565
▁Nascid	-11.8565
baixinh	-11.8565
▁contorn	-11.8565
xcluída	-11.8565
▁genial	-11.8565
▁expedi	-11.8566
▁modest	-11.8566
▁disparo	-11.8566
▁estanca	-11.8567
Evil	-11.8567
▁Alfred	-11.8567
ocioso	-11.8567
▁Count	-11.8567
▁Libera	-11.8568
▁alfai	-11.8569
▁Project	-11.8569
▁Glori	-11.857
▁Convidad	-11.857
Mamãe	-11.8571
▁indevid	-11.8571
vantage	-11.8571
1988	-11.8571
▁alcan	-11.8572
Beij	-11.8572
▁Patric	-11.8572
▁filmad	-11.8573
Tinder	-11.8574
competitiva	-11.8574
▁desenvolvid	-11.8575
cên	-11.8575
gropecuári	-11.8577
▁distint	-11.8579
▁vital	-11.858
xtraditado	-11.858
▁Plant	-11.8585
Crimin	-11.8586
comissári	-11.8587
▁Renat	-11.859
Velha	-11.8592
▁Transforma	-11.8595
ebê	-11.8608
▁vocali	-11.8612
Gilmo	-11.8617
▁consig	-11.8626
▁orelh	-11.8628
ropina	-11.8654
sensíve	-11.8661
Fear	-11.8688
constrange	-11.8698
normais	-11.8722
▁jornalístic	-11.8725
tlétic	-11.8732
▁Sobrinh	-11.8745
▁cintur	-11.8751
▁definitiv	-11.8773
▁Pixi	-11.8787
▁irônic	-11.8837
Fique	-11.884
stituído	-11.8855
potências	-11.8861
▁sobrinh	-11.8867
▁embarga	-11.8869
campeãs	-11.8882
Papai	-11.8898
▁profissionaliza	-11.8945
▁humaniza	-11.8962
▁Diploma	-11.9146
▁Milh	-11.9316
▁lucrativ	-11.9355
procurador	-11.9384
olímpico	-11.9389
jornalistas	-11.947
terremoto	-11.9474
policial	-11.949
liderança	-11.9493
Disp	-11.9685
fatiar	-11.9722
offshores	-11.9781
vangélicos	-11.9783
▁confederaç	-11.997
criminosas	-12.0075
▁Febr	-12.0151
Schmi	-12.0478
classificado	-12.069
▁esquecida	-12.0897
surpreender	-12.0975
Independ	-12.1029
▁expressiv	-12.1073
â	-12.9287
õ	-12.9288
q	-12.9289
ç	-12.929
